#version: 0.2
Ġ 1
Ġ t
Ġ a
Ġ 2
h e
i n
Ġ 3
Ġt he
Ġ s
e r
Ġ 4
Ġ w
Ġ o
r e
i s
Ġ 5
i t
e n
Ġ f
Ġ m
Ġ b
Ġ 6
a t
n d
in g
Ġ 7
e s
Ġ c
o r
o u
Ġt h
o n
Ġ 8
Ġ h
o m
Ġ 9
l l
a n
Ġo f
Ġa nd
Ġt o
a r
Ġ p
l e
Ġ1 0
Ġ d
e d
a s
Ġ in
Ġ1 1
Ġ1 2
Ġ is
Ġ l
Ġ1 3
i c
b r
Ġ g
Ġ I
Ġ /
Ġ/ >
Ġ1 4
u s
o t
Ġ1 5
a l
en t
Ġ1 6
Ġ n
u t
c t
i l
i m
Ġ it
Ġ e
Ġb e
l y
v e
Ġm o
Ġ1 7
Ġ T
Ġ1 8
Ġ1 9
v i
t t
Ġo n
Ġ re
Ġth at
Ġ2 0
v er
o w
Ġ2 2
a d
Ġ2 1
i on
' s
Ġ he
Ġth is
a y
c om
Ġw h
Ġ2 4
Ġs t
s t
Ġ2 3
g h
Ġ2 5
Ġ2 6
c h
e t
Ġw as
Ġ y
vi e
Ġ/> <
r i
Ġ2 8
w w
it h
il m
o o
a ll
Ġf ilm
Ġf or
Ġ2 9
Ġ2 7
c e
Ġa s
a m
Ġw ith
k e
l d
i d
s e
Ġ A
Ġa n
Ġs e
Ġ3 0
Ġ S
r o
u n
Ġ3 1
Ġmo vie
i r
ĠT he
Ġ3 2
Ġy ou
Ġ3 4
Ġh a
1 0
Ġ3 3
Ġ3 5
. <
Ġ3 6
m ent
Ġ B
he r
u r
Ġ3 7
Ġl i
Ġ3 9
r a
0 0
Ġb ut
Ġ M
t er
' t
all y
Ġn ot
Ġ4 2
1 1
Ġ (
c k
i ll
Ġ3 8
Ġ4 0
Ġ4 3
Ġ C
Ġ "
Ġ4 4
Ġ H
Ġ4 5
Ġa re
1 2
Ġs h
er s
Ġ4 7
Ġh is
u l
Ġc h
1 3
ou ld
. .
Ġ4 8
1 4
Ġ W
Ġ4 9
Ġ4 6
p e
om e
ment s
gh t
Ġha ve
1 6
1 5
i f
u p
Ġ D
1 9
es t
it le
1 8
us t
Ġ j
e m
1 7
Ġ5 2
b le
d b
en d
Ġs c
ou t
e l
us er
t itle
/ /
tt p
: //
ww w
im db
h ttp
com ments
user comments
Ġ 0
Ġ5 0
es s
Ġa ct
Ġd o
Ġ5 3
a in
Ġwh o
Ġon e
Ġe x
Ġ5 4
r om
Ġ5 5
Ġ5 6
Ġ k
a ct
Ġ5 7
o l
Ġp l
an t
ver y
oo d
Ġc om
Ġ5 8
0 2
Ġa t
0 4
0 3
o p
ar t
Ġa ll
a k
a g
Ġa b
Ġs o
Ġw e
Ġa l
Ġb y
Ġ6 2
Ġ5 9
Ġ6 4
0 8
t h
Ġ6 6
ou s
Ġ6 5
0 9
Ġ6 3
Ġd e
a nd
7 5
0 6
7 3
is t
Ġ6 8
7 9
7 6
Ġ P
0 5
7 8
7 2
Ġf rom
as t
Ġ L
i e
Ġthe y
Ġw or
on e
Ġ R
q u
Ġn e
Ġli ke
Ġo ut
at ion
7 4
v en
Ġ F
Ġs ome
Ġw he
9 2
Ġo r
9 6
Ġ7 4
Ġc on
9 4
Ġ7 2
9 5
Ġs u
Ġ J
at e
Ġ G
ou gh
Ġ7 3
i re
Ġhe r
9 8
Ġ7 6
Ġ le
9 3
u m
Ġ7 5
o s
Ġ7 8
Ġh as
Ġj ust
Ġab out
ĠI t
ar d
a p
2 4
in d
ic h
Ġ8 3
2 6
2 3
Ġm e
2 5
a ck
Ġp ro
or y
re s
Ġ N
Ġ8 5
or t
Ġch ar
i ve
2 8
u d
Ġ8 4
Ġc an
Ġ un
i g
Ġ8 8
0 7
6 3
6 5
Ġt im
Ġ r
9 9
oo k
T he
h is
Ġ E
a ke
6 4
6 8
re at
7 7
i ght
Ġchar act
4 4
on g
Ġ up
Ġ9 3
f e
Ġg ood
2 2
Ġm an
Ġl o
o re
Ġw at
i es
Ġ9 5
Ġan y
0 1
Ġ O
er e
Ġin t
Ġmo re
Ġt r
it y
8 5
4 5
8 3
7 0
6 6
4 3
Ġn o
Ġse e
Ġw ould
ou nd
Ġf e
Ġ very
p p
Ġthe re
u re
t her
7 1
Ġwh at
Ġg o
am e
it e
us e
p t
8 8
Ġm y
g e
a ble
9 1
3 5
9 0
Ġst ory
8 4
2 0
9 7
a re
Ġg et
o d
3 3
Ġ10 5
Ġtim e
c i
2 1
Ġs he
Ġwhe n
h ing
2 7
e ll
Ġ en
4 8
Ġthe ir
a b
Ġsc en
o y
4 6
2 9
5 5
p l
Ġ10 3
Ġ -
Ġre ally
ic k
Ġh ad
it t
Ġon ly
Ġwat ch
8 6
Ġ if
Ġh im
in k
Ġ v
s o
Ġsh ow
Ġe ven
Ġp er
Ġw ere
m an
Ġ K
Ġo ther
in e
Ġwh ich
Ġthe m
o g
c a
Ġc l
ou r
Ġ4 1
v es
o nd
Ġth an
Ġk n
ar s
5 3
6 9
Ġd id
ay s
u ch
Ġ end
Ġp re
ad e
Ġdo es
6 2
6 7
a c
Ġ9 4
en ce
Ġ9 8
Ġ11 3
Ġp e
n t
Ġ11 5
6 0
Ġ6 0
6 1
.. .
Ġg reat
u e
ic e
Ġl ook
Ġ qu
Ġb ad
4 2
Ġm uch
ire ct
r y
er t
n e
Ġa r
op le
Ġc ould
ir st
Ġbe en
8 0
p le
l f
i le
id e
Ġw ill
Ġh ow
Ġint o
Ġp o
Ġo ver
Ġ im
in t
Ġ12 3
ca use
4 7
8 9
4 0
f f
as s
Ġ12 5
Ġwe ll
8 2
Ġmo st
ĠT his
f or
e p
v ing
Ġpe ople
4 9
ot her
4 1
Ġkn ow
8 7
Ġt w
Ġ ro
o se
ag e
Ġth ink
Ġd is
Ġof f
8 1
Ġ7 0
Ġ us
Ġbe cause
Ġto o
Ġa d
or s
Ġa g
f ter
is h
f ul
Ġm ake
Ġ13 3
Ġ6 7
Ġe very
Ġre al
Ġ13 5
Ġd irect
Ġp art
u ll
Ġf irst
a w
u nd
Ġa m
Ġth ing
Ġ8 0
Ġs p
Ġ8 2
n y
Ġ7 9
Ġm ade
vi es
h at
o st
Ġf un
Ġw ay
Ġf a
ic t
Ġal so
ar y
i an
t e
o ll
ow n
at ed
a u
Ġ6 1
Ġ8 7
Ġ14 3
o b
Ġse em
Ġmo vies
Ġd on
ak es
Ġb l
Ġcharact er
Ġth r
ic al
Ġit s
g in
Ġg u
Ġ '
Ġw r
Ġin ter
Ġ14 5
Ġcharact ers
res s
Ġ7 1
i z
3 0
Ġ6 9
i ous
vie w
Ġ9 0
Ġ7 7
Ġ8 6
Ġ ri
n g
Ġwor k
Ġ9 2
3 6
Ġ9 6
u ally
3 4
ul t
fe ct
3 7
ĠA nd
he d
3 9
Ġ Y
pe ct
Ġfilm s
Ġ15 5
ĠC h
i al
3 2
Ġf l
se lf
c es
Ġpl ot
3 8
Ġpl ay
v ed
an g
Ġ8 1
Ġthe n
Ġbe ing
5 0
Ġse en
Ġ V
en s
Ġw ant
om et
3 1
Ġ9 7
Ġ10 8
an ce
Ġy e
Ġyou r
Ġs er
m er
Ġa w
Ġ10 6
5 4
ĠB ut
an s
Ġ9 9
itt le
) ,
Ġtw o
Ġa fter
i p
Ġ8 9
Ġlo ve
Ġt e
Ġman y
Ġne ver
ur n
5 7
5 2
c c
Ġ10 0
Ġ vi
Ġs ay
) .
Ġwhe re
Ġact ing
ar k
d u
b er
tt er
5 8
5 1
re d
Ġ <
Ġ10 4
ĠH e
ĠI n
Ġ10 2
Ġ ent
Ġs up
a ch
Ġ10 7
Ġb ack
T his
5 9
Ġ10 9
Ġthr ough
5 6
Ġl ittle
Ġli fe
g et
Ġb est
il d
Ġh or
p er
Ġ und
Ġs omet
is e
Ġre m
Ġe ver
at her
ĠS t
il y
a ce
ion s
w e
h y
d e
ve l
Ġbe tter
Ġ9 1
Ġ11 2
w n
Ġ11 4
Ġd es
b e
Ġ11 9
Ġ5 1
Ġscen e
Ġper for
Ġ11 0
Ġf ind
Ġa tt
Ġ11 6
! !
as e
ak ing
ou ght
Ġsh ould
ra p
r u
th ing
Ġ12 6
Ġ10 1
Ġs l
Ġscen es
l es
Ġcon t
Ġ11 7
ert ain
l ess
u al
ver s
Ġund er
Ġ12 8
au gh
Ġ12 2
Ġm in
Ġfe el
ri end
l ie
re e
Ġ12 9
e ver
Ġ U
Ġ13 4
' ve
Ġg r
Ġag ain
Ġ11 1
i gh
pe ci
Ġb r
Ġ12 7
Ġ13 8
f er
Ġhe re
Ġ12 0
Ġk ill
on s
n ing
en se
ab ly
Ġinter est
at ing
Ġst ill
ation s
Ġ i
f ore
ĠThe re
ent s
Ġsomet hing
Ġ12 4
t he
l i
Ġ12 1
at h
Ġ13 6
Ġha pp
Ġthe se
Ġl ot
' m
Ġsu ch
Ġs ur
Ġc r
Ġim p
d er
Ġm ay
r or
o ck
Ġ14 4
Ġ15 3
Ġperfor man
Ġh um
a ve
e ct
ar ly
Ġ13 2
al k
Ġo ld
re en
i a
Ġ13 9
Ġg i
Ġc ast
c l
at er
a le
Ġpo int
Ġ13 7
Ġ16 3
Ġdoes n
Ġ11 8
Ġ ra
Ġ13 0
Ġth ose
y ing
Ġg en
Ġre s
Ġ14 8
Ġa p
Ġdid n
ot h
Ġs im
Ġ16 5
Ġw om
Ġact ors
Ġgu y
j oy
Ġwatch ing
ir l
Ġ13 1
Ġc ou
Ġye ars
Ġ14 6
r is
f fect
Ġ14 9
Ġm us
Ġf am
Ġc he
Ġfun ny
Ġ15 4
Ġ14 2
Ġst art
Ġm akes
Ġf act
ut e
Ġ14 0
Ġde c
o ld
is s
os s
Ġgo ing
Ġ view
Ġen joy
o c
ed y
Ġt ra
f t
ers on
Ġ15 6
Ġbe lie
Ġd own
a z
Ġ15 2
Ġs ame
Ġo b
ĠI f
Ġ16 6
Ġ14 7
Ġcom p
Ġfe w
Ġ16 2
r an
u b
oo l
Ġact ually
r am
Ġbe fore
tt y
Ġe m
ĠA l
Ġf in
Ġwh ile
Ġl ong
Ġ15 9
Ġ15 8
as on
Ġd if
* *
Ġo wn
- -
ĠJ o
Ġt er
Ġpro du
i ence
Ġ16 8
Ġsu b
Ġyou ng
Ġwh y
Ġ17 5
Ġ ke
Ġ14 1
Ġn ow
Ġb it
ri gin
Ġth ought
ing s
Ġg ot
Ġdirect or
Ġ15 0
ct ion
ri pt
Ġ16 4
Ġ18 5
' re
Ġs m
Ġt ri
Ġne w
Ġ16 9
Ġt urn
Ġbe t
Ġth ough
Ġnot hing
Ġ16 7
Ġ18 3
he n
Ġb ig
Ġan other
Ġex ce
Ġo rigin
re n
i ble
Ġ &
Ġ17 2
e w
Ġsup p
Ġ15 1
Ġin v
Ġcom ple
i b
it ing
Ġe ffect
ic ally
Ġf riend
Ġ16 1
Ġg irl
Ġ18 8
ond er
Ġ17 6
mer ic
Ġ17 3
n ess
Ġre l
a ut
Ġar ound
Ġthing s
Ġqu ite
Ġseem s
Ġ15 7
in ce
ig n
Ġ17 8
Ġ16 0
Ġs a
st er
Ġsc reen
Ġ18 4
Ġe v
ap p
Ġpre tty
Ġen ough
Ġa pp
Ġ18 6
c ed
we en
Ġri ght
Ġ19 2
m ost
Ġ18 2
as h
c hed
Ġ19 5
w ays
Ġsc ript
he s
Ġl augh
ate ly
Ġwor ld
Ġh ard
Ġ17 4
Ġ17 0
Ġ20 3
Ġ19 8
Ġre c
Ġact ion
Ġ17 7
or d
he re
Ġk id
Ġ17 1
n er
Ġorigin al
Ġne ed
Ġf ar
Ġt ake
e ad
Ġin s
Ġh igh
ri ll
Ġbet ween
Ġ18 9
Ġ21 3
ent ion
Ġ19 6
ĠS he
Ġ19 4
Ġw onder
Ġp r
w ard
ut es
Ġhor ror
Ġp erson
Ġg ive
it s
Ġm ust
Ġ es
i v
Ġk ind
Ġ20 5
Ġo p
vi ous
Ġs et
Ġap pe
ĠA meric
Ġ21 5
Ġse x
Ġse c
Ġro le
Ġbe com
in em
ĠA s
k s
" ,
Ġle ad
Ġ21 8
Ġm om
Ġwho le
Ġmus ic
as ed
g g
e x
Ġ18 0
Ġinterest ing
Ġt ell
Ġis n
Ġ20 2
Ġ20 8
Ġb u
Ġle ast
Ġser ies
o ot
Ġ20 4
Ġget s
Ġcom edy
Ġ21 4
Ġal ways
Ġp ut
od y
im e
Ġhe l
Ġm ain
Ġtim es
Ġs aw
Ġ21 6
ĠH ow
ĠThe y
Ġ17 9
c o
Ġc ome
if e
Ġch ild
Ġb oth
ĠY ou
Ġdif fer
ull y
Ġ18 1
Ġex pect
Ġ22 5
h n
ic ul
Ġha nd
Ġwith out
Ġ19 7
Ġd one
Ġcl ass
Ġmin utes
Ġre ad
Ġc am
Ġex pl
in es
ur ing
Ġ20 0
Ġ ide
Ġwor th
Ġ19 0
Ġ22 4
Ġm ight
Ġc are
ĠB r
Ġal most
Ġcon s
al s
ri ble
' ll
Ġ21 7
Ġ21 0
ar r
Ġ22 2
ou se
Ġsh ot
Ġl ast
Ġbe aut
Ġ19 3
Ġcomple te
Ġ24 3
s on
Ġ22 3
Ġ22 6
ĠB e
Ġ21 2
b ably
Ġbe gin
Ġs ound
st and
is m
an e
Ġe p
Ġc inem
Ġa ud
Ġperforman ce
Ġa c
Ġ23 3
ĠS h
Ġex t
ro s
ĠT h
Ġc our
Ġc le
Ġin st
Ġany thing
Ġc o
Ġc ar
I t
u ck
Ġa cc
Ġ20 1
th ough
er a
Ġ22 8
Ġ23 5
Ġ21 9
Ġent ertain
Ġse qu
x t
Ġb ook
Ġhel p
Ġaw ay
Ġ20 6
Ġ23 2
at ive
ist ic
Ġfam ily
Ġ22 7
Ġf ound
Ġe l
Ġ23 8
w h
" .
a h
one y
a il
Ġ19 1
ot t
Ġw ar
ial og
on t
Ġc all
e e
as ter
at es
tt ing
peci ally
Ġr un
og rap
ĠW h
u res
vi d
l ing
Ġ23 7
w ood
Ġ25 5
it ion
m end
Ġd ialog
Ġ24 8
Ġpro bably
ĠT V
Ġ20 7
Ġwom an
m e
j ect
at ch
Ġ24 4
Ġs ince
Ġ24 5
Ġ23 0
Ġsu re
Ġar t
a v
Ġ26 5
o int
Ġre ason
Ġhapp en
Ġr ather
E R
os ed
Ġ21 1
. "
Ġ22 1
Ġad d
ing ly
Ġke ep
ĠS o
Ġdiffer ent
it her
Ġ22 9
d d
Ġ25 2
V D
Ġsur p
Ġ4 12
o k
s h
Ġli k
Ġtr ying
Ġ4 16
y p
al f
ow er
Ġwor st
ap t
oll y
Ġo ur
ĠA n
Ġpo or
Ġ23 1
Ġm aking
Ġ22 0
le d
ĠJo hn
Ġab s
Ġde f
Ġcour se
Ġs ense
Ġb or
Ġ27 5
Ġbelie ve
Ġ24 9
Ġme an
Ġ24 6
Ġd el
Ġe ach
Ġ24 2
at ter
ble m
Ġ25 4
ĠD VD
Ġ23 9
in s
Ġpl ace
Ġ25 8
Ġ4 10
Ġ25 6
Ġin c
Ġany one
ic s
Ġcom es
em ber
is od
Ġ23 4
Ġ4 19
r ay
Ġc re
ad y
Ġp ol
Ġend ing
o pe
Ġm ind
at t
Ġy et
Ġshow s
are nt
Ġs pe
an n
Ġ25 9
d ay
oll ow
Ġ4 00
Ġgo es
Ġ18 7
Ġp res
Ġj ob
Ġ26 2
Ġplay ed
Ġde p
it er
Ġ25 7
em pt
Ġ24 1
ĠT hat
Ġ27 4
al ity
Ġ4 11
Ġ26 6
Ġ vers
Ġ23 6
Ġpro blem
um b
com mend
Ġbeaut if
peci al
Ġl ess
Ġ4 15
' d
at ure
Ġb oy
Ġcon f
ĠW hat
Ġep isod
ort un
Ġ28 4
Ġ24 0
i o
Ġst r
Ġst and
Ġ27 3
a ir
ĠD e
Ġ25 3
Ġ28 3
Ġre st
Ġ4 18
Ġd ay
s c
i ed
ne y
Ġ19 9
Ġ28 5
il ar
Ġ26 4
re am
Ġ27 2
l and
Ġper fect
Ġm oney
Ġc reat
Ġpl ays
Ġlook s
Ġ20 9
ie ce
Ġeffect s
ap s
.. ..
re t
Ġwas n
id er
Ġlook ing
Ġg l
cl ud
ar n
Ġ27 6
s y
Ġ4 13
Ġ26 8
Ġd ram
Ġp ort
Ġact or
get her
Ġto gether
Ġf an
Ġ28 6
Ġsh ort
p h
Ġ29 4
w ay
Ġ28 1
Ġsup er
Ġhe ad
Ġ4 14
en ces
Ġre commend
Ġc ertain
Ġha ving
Ġwat ched
Ġsa id
Ġm iss
Ġ25 0
Ġsec ond
Ġt akes
r ist
Ġ27 8
ĠA ll
u es
Ġ29 2
Ġ25 1
Ġunder stand
Ġh alf
Ġs it
ist s
Ġ24 7
Ġaud ience
ros s
Ġ29 8
Ġ26 9
Ġf ollow
ĠN ot
ĠW e
olly wood
Ġel se
ll ent
ce pt
n ot
ĠT H
Ġt alk
it ed
Ġsome one
Ġfa v
Ġ29 5
u ff
Ġ29 3
Ġ27 7
Ġ28 7
Ġp oss
Ġ29 6
Ġth ree
Ġ31 3
ĠAmeric an
ire d
Ġre view
Ġhim self
id ent
ud get
at ic
Ġn ight
Ġm on
Ġ30 6
c ing
Ġin d
Ġ30 3
Ġ28 9
Ġes pecially
am es
p ly
Ġf all
Ġ28 2
Ġs pecial
Ġ ed
i x
ĠB l
Ġcom m
li ke
Ġ30 2
Ġ27 9
Ġn ice
Ġle ft
Ġ28 8
Ġ27 0
Ġ26 0
Ġle t
Ġtr ue
o x
Ġd et
t ed
Ġv is
Ġide a
ĠF or
ion al
Ġ26 7
Ġ28 0
Ġs k
Ġ26 1
Ġre le
Ġob vious
Ġinv ol
t y
Ġm ur
Ġent ire
Ġ27 1
Ġim ag
u g
Ġ4 17
Ġc ame
Ġd uring
Ġp h
Ġ30 8
Ġ29 9
ĠR ob
i er
Ġh our
up id
ch ool
om b
f ully
Ġw ife
Ġ32 5
or k
t ing
ĠM ar
Ġevery thing
Ġm en
or n
Ġd ist
Ġsee ing
Ġf ight
Ġ33 5
Ġto t
Ġm ar
Ġus ed
Ġexce llent
Ġe y
y le
Ġevery one
Ġvers ion
Ġ33 3
Ġ31 2
ĠC l
app oint
ĠU n
Ġe le
Ġh ome
Ġatt empt
ĠR e
Ġl ater
Ġon ce
ir d
ĠS e
or m
Ġs ing
Ġ30 9
t en
er y
Ġt al
ou nt
et s
Ġ30 4
Ġbeautif ul
Ġ5 18
Ġhis t
Ġcomplete ly
Ġex per
am p
Ġ31 6
Ġ31 5
b ut
Ġye ar
o ve
Ġl ow
Ġl ack
Ġas s
Ġun t
Ġde ath
ain s
Ġre p
Ġsim ply
Ġex p
Ġ5 14
Ġ use
Ġf ather
Ġm em
Ġ30 0
Ġst upid
are d
Ġdis appoint
g r
Ġ5 00
ĠS c
h ip
Ġgen er
ol ute
Ġc op
ra ct
Ġto p
ar ing
m y
Ġ5 13
Ġg e
Ġre t
Ã ©
Ġ29 1
Ġhum an
ĠS p
Ġ35 2
c ess
Ġcou ple
Ġop en
Ġ32 6
Ġ31 4
c er
Ġs us
Ġ29 7
Ġser ious
Ġwor d
Ġperforman ces
f ic
Ġin clud
Ġ32 8
ĠH ollywood
Ġbe h
it ies
Ġdef in
Ġ33 4
Ġwr ong
I n
Ġst ud
Ġc ra
Ġ32 2
Ġal ong
ĠW hen
Ġp ict
Ġ32 7
Ġtr y
Ġs y
a x
v in
Ġg ra
Ġbor ing
Ġm ess
Ġ- -
Ġ33 9
Ġrem ember
Ġl ine
Ġsupp osed
m ed
pl ay
Ġ36 5
ĠA r
Ġcam era
Ġhe art
ut h
Ġvi ol
Ġ5 10
itt en
Ġ36 6
ograp hy
Ġ31 8
Ġe as
Ġlo c
in ess
Ġ5 16
Ġan im
Ġem ot
re ak
Ġwom en
Ġ31 9
Ġfriend s
Ġ34 8
Ġe ither
Ġcou nt
Ġ34 6
Ġh ope
Ġsm all
Ġ34 5
Ġ33 0
Ġ26 3
Ġ33 6
h aps
Ġ34 3
Ġvi de
Ġhe ro
Ġ34 2
Ġ34 4
Ġkid s
u ly
Ġbl ack
Ġabs olute
ĠHow ever
ot e
Ġ38 3
Ġsurp ris
Ġs ong
el t
Ġ31 7
0 11
i ke
Ġd ra
Ġ Z
Ġunt il
Ġhum or
Ġst ar
Ġ36 2
qu e
Ġ34 0
g er
iz e
Ġp ass
Ġ35 4
Ġ5 15
Ġ34 9
vel op
Ġ32 4
Ġgi ven
v is
c y
an k
se l
Ġfl ick
o on
Ġ35 5
ĠO ne
o ice
Ġmom ents
ite ly
Ġ32 1
Ġs chool
Ġb udget
Ġprodu ction
Ġli ght
f ortun
ent ly
Ġ35 9
Ġh ouse
Ġ29 0
ol og
a j
Ġ31 1
Ġs ad
Ġ35 8
ter n
Ġ32 9
Ġ rom
Ġ35 3
Ġit self
Ġm other
Ġn ame
Ġ34 7
ĠM y
Ġ35 1
en n
Ġs ort
Ġclass ic
Ġge tting
Ġtr uly
Ġf ull
Ġmur der
i ant
Ġinst ead
il ity
Ġex am
Ġ5 17
Ġw on
ow s
Ġc red
ĠN o
Ġ5 19
Ġ37 4
Ġ35 7
Ġ37 6
Ġ30 7
Ġpart icul
Ġfav or
Ġport ray
Ġ33 2
I N
, "
Ġ5 11
g u
Ġ30 5
Ġ36 4
Ġne xt
id d
t on
Ġ33 7
Ġse ver
r ic
Ġ35 6
Ġ36 3
Ġ36 1
p s
Ġb as
0 10
Ġ37 2
Ġp le
iz ed
Ġex c
v ent
ill y
Ġde ad
it ch
Ġp ain
or ies
Ġ37 3
Ġam az
Ġgi ves
Ġ39 4
Ġfa ce
Ġaw ful
ĠL e
Ġd ri
Ġdo ing
Ġre g
Ġc oll
augh ter
Ġ38 8
Ġp ower
Ġ35 0
Ġ38 5
Ġ37 8
Ġexce pt
Ġ38 0
ĠCh rist
Ġcons ider
Ġter rible
Ġw a
Ġ Â
Ġ36 8
c u
Ġ37 5
Ġother s
Ġ6 06
is ter
Ġdialog ue
Ġ6 08
id es
Ġplay ing
Ġ38 2
im es
Ġ6 09
Ġl ines
re me
Ġtal ent
Ġ40 5
Ġ5 12
Ġw ent
ĠA t
ĠW ill
in ed
Ġ6 03
ri ght
Ġ32 3
o id
Ġ36 7
ĠH ar
Ġgu ess
Ġ38 6
Ġf r
Ġt itle
Ġhow ever
Ġ6 12
Ġentertain ing
Ġof ten
I f
Ġwonder ful
on y
Ġde velop
ĠC ar
Ġ39 3
m ing
Ġcould n
ĠM an
Ġbecom e
Ġ38 4
l er
Ġ6 02
Ġ38 7
Ġ6 13
Ġ32 0
ib ly
Ġ39 5
Ġvide o
Ġ6 05
an ge
Ġsl ow
ĠTH E
Ġc or
Ġ40 3
Ġqu est
ĠM r
Ġri d
Ġan n
Ġli ve
Ġc ut
Ġ36 9
Ġlik ed
le y
Ġ6 18
Ġe arly
ci al
Ġ6 16
Ġ42 3
Ġfor m
Ġc ase
Ġepisod e
ud e
Ġst op
ĠO n
Ġ38 9
Ġp iece
Ġb rill
Ġm atter
Ġ40 9
Ġ6 15
Ġp op
Ġmay be
Ġst yle
Ġimp ress
ĠN ew
Ġ44 5
Ġ6 10
ment ary
l ine
ore d
us ed
Ġst ars
Ġm ention
Ġrel ations
Ġd ark
Ġact ress
y n
ul ar
Ġ37 1
00 8
un k
Ġ36 0
Ġ43 2
ĠD on
Ġ37 7
Ġ6 04
Ġ40 4
b ody
Ġchild ren
Ġstr ong
Ġ .
Ġdel i
The re
Ġm is
cc ess
Ġ33 1
Ġf elt
Ġ39 8
Ġ6 76
Ġ39 7
ĠJ ack
Ġ6 17
ĠW ell
Ġ42 1
y pe
Ġ43 3
p ite
sel ves
at ur
Ġagain st
Ġdefin itely
un ch
Ġ39 2
Ġ44 8
Ġs ide
Ġguy s
l ish
Ġ43 1
Ġ45 3
Ġbegin ning
Ġre nt
Ġ33 8
Ġ42 5
Ġ42 4
Ġtr ans
Ġ39 9
us s
Ġ z
Ġpict ure
Ġwor se
ĠM c
Ġ43 0
Ġ43 6
Ġ6 96
Ġ31 0
Ġcertain ly
Ġwas te
i am
Ġabsolute ly
o ff
Ġseem ed
if ic
Ġc a
Ġp ast
Ġ39 1
Ġext reme
Ġ40 6
Ġs w
Ġ37 9
el s
Ġsever al
re ady
r on
Ġp ar
Ġ42 8
un g
ak en
Ġ30 1
t s
Ġcl ose
Ġdirect ion
Ġ6 73
fortun ately
Ġwr itten
Ġrelations hip
Ġ6 19
Ġli ves
Ġth rill
Ġ46 8
Ġ6 14
ĠH is
Ġ45 5
Ġbl ood
Ġ42 2
Ġ44 3
b y
Ġgr ou
a el
Ġbecom es
Ġdram a
Ġf ans
re w
ĠD a
Ġ42 6
Ġwant ed
Ġ45 4
Ġ46 2
Ġ39 6
Ġbrill iant
Ġ6 00
Ġ6 72
ag es
v able
Ġf ant
Ġsome w
Ġm aster
Ġsu ccess
ri ed
Ġg ame
Ġtot ally
Ġ6 11
Ġad m
Ġa ble
Ġal ready
c he
Ġsus p
ĠS te
i k
ĠE ven
Ġ42 7
Ġcinem a
Ġ44 0
Ġ6 78
Ġ40 7
ĠE ng
Ġvi ll
Ġ40 1
Ġ6 92
Ġbr other
os p
Ġto wn
Ġ34 1
Ġ46 5
Ġlo ved
ĠF ran
Ġse lf
Ġd ou
Ġre f
Ġ48 3
Ġ43 8
Ġ6 93
Ġsupp ort
Ġt ou
c hes
Ġ7 06
Ġe t
Ġ43 9
t o
Ġal though
Ġf ine
Ġ46 6
ro p
Ġs on
sy ch
) .<
Ġ6 94
Ġ40 2
Ġ44 2
Ġcall ed
Ġ44 4
Ġ7 12
Ġp ur
Ġ7 10
Ġc ent
! <
Ġ47 8
Ġb ased
ĠCh ar
en e
ĠS ome
Ġo cc
Ġwant s
o ke
Ġ7 02
Ġ43 7
Ġ44 6
Ġst uff
Ġ44 7
Ġ6 75
Ġlo st
Ġ44 9
Ġ46 7
ch n
Ġ45 0
Ġ39 0
Ġtri es
m s
ran ge
Ġexam ple
Ġ7 03
Ġimp ort
Ġd aughter
Ġ6 79
Ġ47 2
Ġgen re
Ġfa il
Ġ6 98
Ġ47 4
Ġqu ality
Ġthrough out
Ġe ff
Ġde al
ich ael
f l
Ġpres ent
Ġ45 7
Ġm or
Ġ38 1
Ġhist ory
ĠÂ ĸ
Ġ7 16
Ġ7 96
in ation
ri b
Ġann oy
Ġw alk
or ge
us ing
Ġ49 5
Ġ46 0
Ġdes er
Ġsit u
i et
Ġa v
Ġv al
Ġc apt
ur b
Ġ7 05
Ġ47 5
er man
Ġte en
Ġview er
Ġc ult
Ġst ra
Ġs at
ro du
it ive
Ġ47 7
Ġthem selves
Ġpre d
Ġ48 8
Ġh on
? ?
Ġ47 3
b and
Ġappe ar
c on
Ġdo cu
Ġenjoy ed
am ed
Ġ49 0
is hed
Ġ48 6
Ġ45 6
Ġfa ir
Ġstart s
Ġgrou p
Ġ6 95
Ġb ra
Ġd em
Ġfin al
e y
Ġn um
Ġwr iting
i ent
ĠT o
Ġwork s
Ġ7 18
t ic
Ġ45 8
ĠI s
um p
Ġpart s
ĠA fter
Ġmy ster
Ġturn s
Ġm ag
Ġl ist
Ġf em
Ġ45 2
ard s
er ed
Ġ47 6
Ġto day
ure d
Ġ7 79
Ġ7 00
Ġle arn
Ġg ave
Ġ7 09
Ġ40 8
Ġd r
Ġkill ed
Ġm ed
Ġ42 0
u c
Ġ45 1
Ġet c
Ġ7 93
Ġno vel
Ġ48 4
O T
Ġhor rible
at s
Ġ7 75
Ġ49 3
Ġle vel
Ġ43 5
es e
Ġ54 3
Ġ6 74
Ġex act
Ġcont in
Ġt yp
Ġ7 13
at or
Ġ7 73
art h
Ġd ays
Ġp at
Ġ46 9
er ing
Ġ ,
Ġc ol
Ġ47 0
Ġ Q
ak ers
Ġkill er
aj or
Ġ7 04
e k
Ġsh oot
ĠRob ert
Ġ47 9
Ġp rom
Ġh ilar
Ġmom ent
Ġ49 7
Ġle a
Ġfin ally
et h
Ġfavor ite
Ġ46 1
Ġ50 7
us band
Ġ49 6
A s
Ġo pp
Ġ7 15
Ġdec ent
ow ing
Ġ48 9
o il
icul ous
Ġb us
n a
ĠThe n
ant ly
Ġbeh ind
Ġmy self
Ġcr it
Ġ48 1
Ġ7 76
Ġamaz ing
ĠW ith
ast ic
Ġ ir
ĠI nd
Ġde ep
o vie
Ġ50 3
Ġeff ort
Ġs n
Ġ8 06
Ġl ate
Ġ7 17
Ġas k
Ġthink ing
c ut
ĠAl so
Ġf ig
s p
Ġs ays
Ġc ost
Ġ8 15
ar b
Ġf oot
ur t
ot s
Ġ52 3
ile d
Ġp ick
Ġ49 4
g s
Ġ45 9
Ġm ot
Ġ8 16
Ġt ype
ĠH er
Ġ50 5
Ġev il
m a
Ġ47 1
Ġ49 8
ok es
Ġ7 92
Ġtoo k
Ġ49 1
Ġhapp ens
b l
Ġf ore
Ġpro f
d y
Ġ8 05
Ġ7 08
Ġ7 95
Ġexper ience
Ġ7 72
Ġcon st
Ġ7 98
t ra
Ġey es
o ver
Ġhe ard
Ġdes c
Ġ48 0
Ġ7 14
A N
Ġ8 12
Ġper haps
Ġ53 5
ĠBr it
Ġhilar ious
Ġint ell
Ġ52 1
Ġso on
Ġinc red
ian s
Ġ52 0
Ġ8 23
Ġch ang
Ġ50 2
Ġp sych
Ġ52 5
Ġh old
ie ld
Ġviol ence
Ġ52 7
Ġ7 78
ĠG e
Ġfeel ing
ant ic
Ġ48 7
Ġro les
s ide
r it
Ġh usband
ri e
Ġst ru
u ge
Ġn on
Ġ8 14
ĠW ar
Ġ50 6
ac ed
Ġ8 10
an y
Ġhappen ed
Ġst ories
ĠO f
Ġinvol ved
Ġv oice
Ġrid iculous
Ġ54 4
Ġres ult
Ġdirect ed
on es
Ġro om
ren ch
Ġ46 4
Ġm ajor
Ġs ol
ac es
W hat
ĠW hy
h ow
i ves
Ġlook ed
Ġextreme ly
z y
Ġ8 73
pp ed
ward s
Ġ53 1
Ġ52 9
Ġ50 9
Ġ8 02
Ġs le
Ġ8 00
ĠM ichael
Ġcinem at
Ġ49 9
. )
Ġst e
ter s
Ġgirl s
Ġ8 04
Ġ55 5
Ġsc ore
Ġop in
A T
he ad
Ġ8 64
Ġg un
Ġ8 63
Ġche ap
i en
Ġ8 26
v ol
ĠE d
Ġ56 3
Ġ53 8
Ġdis co
Ġ8 25
Ġ52 2
ĠWh ile
i que
Ġ8 11
Ġ52 6
Ġte le
ĠG od
Ġle ave
Ġc ool
Ġt aken
c ent
Ġwould n
Ġto ld
Ġ54 1
ĠP l
Ġ50 1
S T
ris on
ĠM ay
I L
Ġ7 19
Ġ7 94
Ġ8 09
Ġ54 7
Ġb reak
Ġ8 18
A nd
Ġcom ing
Ġor der
in a
Ġ53 2
Ġqu ick
Ġ8 19
en g
Ġ57 9
Ġ57 6
Ġbr ing
Ġch ance
o v
ag ed
Ġpred ict
Ġ54 2
Ġ55 6
Ġ58 5
idd le
Ġst re
Ġsh ock
O N
b el
a ul
Ġh it
Ġret urn
ĠD an
Ġag o
Ġcan not
Ġ53 6
Ġknow n
l in
Ġ56 0
ĠK e
Ġmo ve
Ġwh ite
ation al
Ġ57 2
Ġwe ak
Ġcare er
m p
id ed
y s
Ġs we
Ġd ream
Ġ57 3
Ġ62 3
g an
B ut
Ġac ross
Ġ8 24
Ġc rap
Ġst ay
Ġsim ple
ĠC on
Ġ8 74
Ġb o
Ġ48 2
Ġ57 4
Ġ55 7
Ġ8 08
ur y
Ġ46 3
Ġv ar
Ġcom ed
Ġ8 17
Ġ42 9
Ġ55 9
an ces
Ġ56 6
Ġ56 1
Ġte chn
gr ound
Ġpol it
Ġ7 11
il i
Ġ55 3
re al
Ġw in
Ġ57 7
Ġ8 79
o le
Ġ54 0
Ġcount ry
ck s
O R
Ġ53 4
l ic
Ġ56 4
Ġ44 1
Ġ8 75
ĠO r
Ġ8 92
Ġbu ild
end s
Ġf ut
Ġ53 9
ĠE very
Ġ8 68
Ġobvious ly
Ġ55 1
Ġev ent
Ġ58 6
Ġst range
ar ch
Ġshow n
Ġp ri
Ġ56 9
ang er
Ġhour s
Ġ58 2
ĠN ow
ent ial
ĠG r
Ġfe ature
Ġ56 8
a id
Ġp os
e an
Ġp arent
Ġ58 3
Ġf our
out h
Ġ58 1
k y
Ġ54 5
Ġannoy ing
Ġexact ly
ĠDa vid
Ġ55 8
!! !
Ġ58 0
ict ion
b ack
re ad
Ġp ay
A R
Ġ59 4
a im
w ise
itt ing
vis ion
Ġ8 13
ent y
ri d
.. .<
Ġsim ilar
Ġfe at
ĠEng lish
Ġl ar
Ġapp arent
Ġ56 2
ĠT om
Ġf oc
Ġhigh ly
un t
Ġ54 9
Ġ43 4
ĠJ ust
Ġ8 78
Ġ55 2
Ġend s
al d
Ġ37 0
Ġ8 65
Ġ8 72
Ġ49 2
Ġ58 9
he tic
Ġwr iter
Ġpol ice
es tern
Ġimport ant
Ġ53 3
Ġpre m
Ġsub ject
g o
Ġg ore
ou d
Ġh uge
Ġph ot
Ġ9 17
Ġ8 93
Ġsusp ense
Ġ59 2
Ġp ull
Ġopin ion
Ġan g
Ġhon est
Ġ9 03
ĠP et
Ġ8 76
Ġ56 5
Ġt reat
Ġ58 7
Ġsay ing
Ġopen ing
oo f
end ed
Ġyour self
Ġ8 98
Ġfind s
Ġ64 5
ich Ã©
Ġb ody
ain ed
Ġdou b
Ġg ang
Ġfem ale
Ġstra ight
Ġposs ible
Ġde v
Ġs ave
Ġh ot
Ġ59 5
Ġpr ot
Ġ9 09
Ġreal ity
Ġdocu mentary
Ġparticul arly
** **
Ġstart ed
Ġd est
Ġnum ber
Ġ63 9
Ġdisappoint ed
Ġsomew hat
Ġsomet imes
Ġj okes
Ġrele ased
Ġ50 8
Ġfilm m
Ġatt ention
r ise
Ġ ill
Ġa ge
Ġ64 6
r al
ou n
Ġch ange
us h
ou l
Ġne ar
Ġ6 99
Ġ62 5
Ġwho se
is ed
Ġturn ed
n ed
Ġus ual
Ġmo der
Ġ63 4
Ġli ving
ĠJ ames
Ġ55 0
Ġ8 95
Ġ58 8
Ġsu ff
ant s
b all
et y
for m
Ġrun ning
in o
Ġ57 0
ct or
tt e
Ġs illy
Ġsing le
Ġ63 8
Ġ66 6
Ġ7 07
Ġ62 6
Ġcinemat ography
Ġf ill
Ġ53 7
Ġmus ical
Ġ59 1
Ġ59 8
Ġshot s
Ġ65 9
Ġon es
Ġ9 12
ut ter
Ġ62 8
ĠA m
Ġ9 24
Ġn arr
Ġw ish
ll ing
Ġp ot
ĠWill iam
ĠA d
Ġ65 5
Ġ52 4
Ġcom ment
IN G
re ci
Ġa ir
Ġ62 2
ĠD o
ĠR ich
ire s
or th
Ġal one
y ond
Ġ65 7
l ight
Ġte am
ot ic
Ġt aking
Ġv ict
ĠP er
Ġkn ew
Ġ66 8
Ġ9 28
us ion
Ġknow s
Ġword s
! "
Ġcl ichÃ©
Ġle g
Ġhe ll
ĠP e
Ġloc al
it al
Ġdes pite
Ġ6 01
Ġproblem s
Ġ58 4
Ġ9 19
Ġ8 96
ous ly
Ġtou ch
Ġ66 0
Ġme et
Ġsequ el
Ġe qu
00 3
Ġs ent
s w
Ġ62 4
Ġ63 1
m osp
Ġpl an
Ġ9 02
Ġ68 6
Ġ53 0
Ġrem ind
u ri
Ġ66 3
Ġm iddle
Ġ65 3
Ġ63 2
Ġ8 94
Ġ73 5
ar is
Ġc art
Ġin n
Ġ9 16
Ġ63 3
Ġr ating
Ġl and
00 4
Ġ62 7
g y
Ġ8 22
Ġ ve
Ġbe l
Ġ9 10
Ġ64 1
Ġres pect
Ġ7 77
Ġ65 8
Ġh op
ap an
Ġam ong
Ġinclud ing
Ġset s
Ġ50 4
Ġus ually
Ġp ub
Ġ63 7
ĠG erman
Ġsub t
Ġev ents
Ġtell s
or able
Ġ9 18
wh ich
Ġ57 1
Ġcom pl
Ġ9 04
E N
Ġ62 1
Ġ48 5
Ġcle ar
Ġ7 74
Ġs ister
Ġat mosp
Ġtalk ing
Ġen g
ĠBrit ish
Ġd ru
ak er
Ġcon vin
att le
Ġmoder n
Ġcont ro
Ġsequ ence
i od
Ġs ign
Ġfor g
Ġm ist
Ġ68 3
Ġ64 7
Ġco ver
Ġintell ig
Ġ9 05
Ġ63 5
Ġpre vious
Ġ64 9
o f
Ġ9 06
S t
Ġ6 70
Ġ9 14
Ġquest ion
Ġt en
Ġhand s
w ork
Ġare n
Ġ57 5
Ġsur vi
Ġap art
Ġ59 7
Ġ65 6
or ld
Ġm ark
Ġ64 8
Ġ73 3
wh o
c le
ke y
Ġd ue
Ġun f
w r
w here
ĠC om
Ġ66 9
fic ult
Ġ55 4
Ġso ci
ater ial
Ġ9 79
Ġ64 2
Ġappe ars
ub b
Ġ54 6
Ġ68 1
Ġ68 8
Ġ65 0
Ġ9 78
am b
Ġ9 25
ĠP h
v al
Ġfut ure
i or
Ġ64 3
Ġsu m
Ġmost ly
A l
Ġn one
Ġ63 6
Ġ6 71
Ġ68 4
o or
Ġ9 08
irect or
Ġsc ary
Ġ62 0
Ġas pect
Ġdif ficult
e g
or ry
Ġh ate
tra ck
au ght
ar re
r ow
as c
Ġw ays
ar a
Ġ66 5
00 9
end ing
Ġ57 8
in al
ĠE l
Ġ10 24
Ġ65 1
Ġan t
Ġ9 11
Ġ7 99
ic es
Ġparent s
Ġ10 06
Ġ ult
Ġb ox
Ġ72 5
Ġhapp y
Ġrom antic
Ġd ull
Ġcom ic
Ġstory line
Ġapp reci
Ġ10 09
Ġ9 23
Ġ68 0
Ġ68 9
Ġe ar
ĠS am
M y
Ġpro g
Ġ59 0
Ġcle arly
Ġpredict able
Ġfl aw
Ġgi ving
Ġcam p
Ġ10 19
Ġab ove
Ġm aterial
Ġso ld
Ġ9 64
Ġha ven
Ġ59 3
Ġeas ily
Ġenjoy able
Ġ74 2
Ġ56 7
00 6
Ġ76 8
Ġ10 02
ut ion
Ġ9 85
ĠJ apan
Ġserious ly
as ons
Ġ9 26
ĠY ork
im p
op h
Ġtw ist
Ġ9 73
as y
Ġatt ack
bel ie
gg est
Ġad v
Ġepisod es
Ġsex ual
Ġ74 3
Ġm et
Ġbe yond
Ġ8 07
oo se
Ġtele vision
Ġperson al
Ġvict im
Ġ54 8
Ġ76 4
Ġ9 94
Ġsurpris ed
Ġf ast
Ġ10 03
Ġdoub t
ou ble
Ġb unch
Ġ6 91
Ġfall s
dd en
A L
00 7
Ġ72 6
i est
Ġ10 11
Ġ65 2
Ġ52 8
Ġdet ail
Ġele ments
w ell
Ġ10 10
Ġis s
us es
en ing
Ġ9 75
Ġ76 5
o e
se m
Ġ66 4
Ġsu ggest
ĠU S
r ated
Ġ8 66
a ur
Ġthem e
Ġ9 96
Ġ75 6
ens ion
Ġo dd
Ġey e
Ġsl ight
Ġup on
Ġmess age
Ġtri ed
ĠO sc
Ġple as
Ġeas y
Ġ74 6
Ġn amed
Ġ73 7
ĠA ny
Ġche ck
Ġthrill er
Ġ9 63
Ġ10 15
Ġ9 95
Ġsound track
? <
el ess
ress ed
Ġsong s
Ġ9 13
Ġper iod
Ġneed s
Ġsec ret
y e
Ġm il
im ent
Ġ66 1
Ġentertain ment
Ġ9 65
Ġ75 4
Ġ76 2
Ġke pt
Ġthe at
Ġre d
Ġ68 7
ĠF rench
Ġ75 5
Ġad ult
Ġ72 2
ul a
Ġbegin s
Ġr u
h a
ca pe
Ġ6 90
is ing
Ġst ri
atur al
Ġlar ge
Ġpoint s
' ,
m ore
Ġac cept
Ġtyp ical
Ġme ans
Ġ10 28
Ġvis ual
Ġrele ase
A n
Ġ10 16
Ġ10 23
Ġ74 1
i ally
Ġdis c
Ġ10 18
Ġshow ing
Ġwork ing
Ġ10 04
Ġ10 95
ĠAmeric a
ver age
Ġtr uth
Ġ9 76
Ġm ix
Ġ10 14
Ġcom b
Ġ73 9
Ġins p
com p
Ġfilm ed
Ġ10 05
Ġfeel s
Ġem b
Ġcre ep
Ġre ve
Ġlead s
Ġsp ir
Ġf ree
b s
Ġ76 6
Ġsupport ing
k ay
Ġ74 7
Ġ64 0
Ġ74 5
Ġview ers
ĠP aul
Ġ73 8
Ġ76 0
Ġwith in
ĠB er
Ġ59 9
Ġb ro
Ġcom ments
Ġ10 45
ĠN e
0 12
Ġ62 9
Ġ6 07
!! !!
b b
ĠI M
Ġbr ought
ĠGe orge
m in
Ġ7 97
Ġpo st
ce ed
S o
ĠA ng
Ġher self
Ġ75 7
Ġ9 93
Ġ9 44
Ġ74 0
Ġdec ided
Ġ11 08
Ġs il
Ġ9 45
Ġz omb
Ġs ens
Ġview ing
Ġ76 3
Ġ78 5
Ġ10 65
Ġ72 8
Ġwr it
Ġ7 70
i pp
ci ous
ĠRich ard
g ic
Ġ9 72
Ġn orm
Ġ73 4
Ġbus iness
Ġ10 08
Ġmo ving
op p
Ġc ity
Ġsequ ences
ĠN OT
Ġ9 15
h ic
Ġhe ar
Ġreview s
Ġ76 1
ab y
Ġact ual
00 0
ate ver
Ġ75 2
ĠC ol
Ġ75 3
O U
es y
Ġ83 4
Ġbelie vable
Ġover all
ĠD r
Ġ75 1
Y ou
Ġd ie
Ġ10 13
ĠB en
ri fic
Ġint rodu
! )
Ġcr ime
Ġ10 26
ĠFran k
W h
Ġ7 90
Ġra re
Ġ8 77
Ġ78 0
Ġp rison
Ġ72 9
ĠIt al
c her
Ġ10 43
a i
Ġ9 88
k n
ĠD is
Ġsuper b
Ġex ist
Ġ9 43
Ġcl im
Ġprem ise
re st
Ġ83 3
Ġus ing
t ime
Ġ10 76
Ġ11 04
Ġ85 5
Ġspe ak
Ġt ale
Ġne arly
Ġbu y
Ġ9 83
Ġback ground
Ġed iting
Ġexpect ed
in ing
Ġ75 9
Ġ78 3
R E
Ġ9 84
Ġ11 02
Ġreal istic
Ġgra nd
Ġ10 44
ick s
Ġ11 24
up p
Ġbas ically
Ġad apt
Ġ72 4
ver all
Ġ9 68
al ing
ir lf
Ġfig ure
Ġ9 48
ct ed
es ome
li er
Ġc ur
Ġg ay
ĠM or
? "
p iece
Ġ78 6
Â ħ
Ġfe ll
Ġ11 09
Ġ73 0
ĠO K
ĠL ee
Ġ72 3
Ġ8 27
Ġst ate
Ġ83 6
Ġ10 25
Ġkill ing
g es
Ġcre w
Ġ9 92
Ġ78 8
ive ly
irlf riend
Ġst ere
Ġ8 03
Ġ73 1
Ġav oid
Ġ10 63
c ame
Ġ11 15
re y
Ġ9 22
Ġ74 8
Ġ8 99
Ġ10 93
Ġw it
Ġ8 01
Ġ11 03
Ġ/> "
Ġ utter
ri es
ĠG u
Ġt re
Ġ10 17
Ġwe ird
Ġ88 3
Ġatmosp here
Ġ11 17
ĠMay be
ip s
Ġfam ous
Ġ *
Ġsitu ation
Ġ78 9
Ġ11 92
Ġb ar
Ġ10 85
Ġ9 98
Ġ10 12
Ġ10 72
Ġ7 01
Ġlot s
Ġ id
Ġwa it
u ro
z z
Ġ10 73
om in
Ġ10 92
Ġob s
Ġfor ced
Ġpro vid
ĠQ u
Ġdeli ver
Ġ83 2
Ġ85 7
Ġsurp rise
z e
Ġfr ont
hy s
Ġlea ves
Ġ10 96
Ġ10 98
ĠUn fortunately
Ġthe ater
og n
ĠJ ul
l ook
Ġf ive
Ġ9 00
Ġpoor ly
ĠT r
Ġ72 0
Ġ6 77
Ġparticul ar
Ġ10 35
C h
Ġfant astic
ill s
ĠO h
Ġres p
Ġcle ver
Ġex e
Ġmean ing
Ġ9 46
Ġ11 63
Ġ78 2
Ġ8 20
Ġg one
f riend
is f
Ġfor get
Ġa verage
Ġb ored
W hen
Ġ83 9
ur ther
Ġ68 5
r ing
Ġre fer
Ġ83 8
Ġgreat est
Ġ84 1
ĠOsc ar
Ġbe came
Ġ11 06
ven ge
Ġl ame
ĠS m
av y
Ġp ure
Ġwhe ther
p ar
Ġm ale
Ġ72 7
Ġ84 5
Ġ7 71
O ne
i ences
he l
ĠC an
Ġ74 9
Ġapp ro
Ġapparent ly
Ġult im
ag er
Ġ84 6
g ed
Ġ er
Ġ12 24
Ġ83 7
Ġ65 4
Ġfoot age
h ost
Ġd umb
Ġ11 18
Ġstere ot
Ġst age
Ġdo g
Ġall ow
Ġanim ation
Ġinterest ed
ĠG ra
i us
b ers
an ks
Ġin f
Ġsu dden
Ġ8 60
ĠAl though
Ġ83 1
Ġa ff
Ġ10 83
ĠP r
Ġ85 0
Ġw ood
Ġ10 66
as k
ĠPet er
Ġpub lic
Ġ9 07
Ġ68 2
Ġstru gg
Ġ11 44
Ġ12 13
Ġst un
Ġ85 3
Ġ11 68
is es
Ġ11 16
Ġ6 97
Ġ8 67
ll e
Ġpro ject
Ġmyster y
Ġmin ute
Ġmem orable
Ġsoci ety
Ġ10 74
c ers
Ġ88 5
ang u
ĠM art
ac ing
Ġvill ain
' .
ol f
Ġro ck
um e
Ġcred its
ch ie
p or
th is
Ġ78 1
w o
Ġ11 35
Ġ84 9
Ġl aw
ag on
Ġear lier
a vi
in c
Ġ11 13
Ġcon cept
Ġun ique
Ġ11 14
em y
ili ar
act ion
Ġwork ed
Ġ11 75
Ġemot ional
Ġ85 1
Ġvi r
Ġ85 6
ĠW ood
iv al
Ġl os
Ġfeat ures
Ġ10 64
Ġlaugh s
Ġneed ed
ĠF ilm
Ġt ast
Ġ74 4
Ġperfect ly
Ġquick ly
Ġche esy
Ġprof ess
ĠIM D
Ġpro p
Ġ84 0
Ġ88 2
re nt
Ġkeep s
Ġto wards
Ġsome how
h ood
Ġ73 6
ro y
ĠM ost
Ġsh ame
Ġdisco ver
Ġ10 00
Ġsp oil
Ġmon ster
Ġl iter
Ġg irlfriend
Ġ10 94
Ġexp ress
Ġcop y
rie f
Ġ11 85
T h
er v
Ġ7 91
Ġth ird
Ġag ree
Ġgener al
er o
ion ally
Ġd an
Ġ88 8
Ġpower ful
Ġ84 7
Ġ93 5
re ed
F or
Ġ10 48
ĠF rom
w ith
Ġ11 33
ur d
Ġ63 0
Ġl im
Ġscreen play
Ġs ick
Ġw ind
Ġ12 11
Ġh om
Ġinv est
k ing
on ic
Ġ12 02
Ġwe ek
Ġ66 7
Ġposs ibly
Ġme ant
Ġreal ize
b ert
Ġ85 2
Ġ11 26
Ġ9 99
Ġ11 43
Ġse tting
Ġtr ouble
ar ry
Ġ85 9
Ġread ing
Ġd am
Ġr ich
ĠK ing
Ġdist urb
n o
Ġcl os
Ġdes ign
Ġ11 45
Ġc at
Ġad vent
Ġ12 16
Ġpre t
ĠWh o
ĠJ im
ak ed
Ġ76 9
Ġ $
Ġ11 65
un ny
Ġhist or
Ġm ill
st ead
Ġ10 88
Ġrom ance
Ġ11 11
Ġ88 7
arr ing
Ġn ature
Ġy es
Ġvar ious
i ver
Ġany way
Ġ11 05
Ġold er
L E
y l
ud d
Ġpur p
Ġc ir
ri f
Ġc ap
Ġ11 28
Ġwh om
ac y
Ġwr ite
Ġin de
ĠE x
Ġ9 66
Ġ8 61
Ġ12 15
om an
Ġc ry
Ġam ount
Ġ11 83
b or
Ġwrit ers
Ġf ire
" )
Ġfor ward
ĠF l
Ġ83 5
Ġimag ine
i vers
Ġ12 12
Ġ12 08
Ġ88 1
Ġsle ep
Ġme ets
ĠY es
Ġtot al
Ġen c
Ġo per
Ġcon ne
Ġext ra
Ġ9 27
Ġ11 78
ar l
Ġ11 72
Ġ ...
Ġre pe
Ġcon cer
cess ary
and y
itt y
Ġpop ular
Ġbr ings
ĠIt s
itt ed
Ġsp ace
Ġ12 35
A ll
Ġ8 28
00 5
Ġdevelop ment
Ġbad ly
ĠBl ack
Ġ12 65
Ġ12 19
Ġ10 46
Ġ93 8
Ġ10 86
Ġ88 6
b o
Ġ64 4
ac her
Ġcoll ect
ĠA ust
ĠSc ott
Ġ9 20
Ġ11 79
a pe
Ġn or
Ġ9 01
Ġ76 7
Ġfair ly
Ġ10 33
04 5
Ġb attle
Ġinn oc
as es
for d
Ġan sw
Ġb are
Ġ8 70
all ow
ĠThe se
in y
Ġ9 29
Ġmaster piece
Ġact ed
Ġun like
Ġcon v
Ġman ages
Ġ12 10
Ġ66 2
Ġ75 0
Ġ10 22
Ġ9 77
Ġha ir
Ġre asons
Ġdirect ing
? )
Ġm ent
Ġ8 21
03 8
Ġadm it
Ġ11 74
Ġdram atic
e le
Ġm ad
Ġ94 0
Ġ11 25
ad es
Ġ93 9
ĠJapan ese
Ġ93 6
olog y
Ġ88 9
Ġocc as
Ġrec ogn
Ġ12 17
Ġ12 06
Ġexe cut
a f
i el
ber g
Ġincred ibly
Ġf asc
O O
b oy
Ġ12 68
Ġcoll e
m en
m ist
Ġne g
iz ing
Ġc atch
un e
k i
Ġ ident
Ġ88 4
ĠDis ney
Ġatt ract
Ġ12 73
Ġ9 91
Ġevent ually
Ġcart oon
Ġide as
Ġ11 55
00 2
ĠL ike
Ġ78 4
Ġ12 23
Ġ95 2
Ġfail s
Ġ12 28
ĠJo e
ĠC he
ĠW orld
Ġ84 8
h an
p ro
ag ue
Ġa ut
Ġdeser ves
Ġple ase
it ation
Ġ9 21
ĠA N
Ġportray ed
Ġ13 04
Ġ12 33
ud ity
Ġse ason
Ġwas ted
er ry
ol es
Ġ59 6
Ġ11 98
Ġ93 4
g ing
Ġ13 12
Ġ83 0
v il
Ġoff ic
Ġcre ate
Ġcomm un
Ġj oke
Ġlead ing
Ġpl ain
res h
ĠE m
Ġc ond
Ġfl ash
m ovie
Ġ ign
Ġ11 84
Ġ10 75
Ġfor mer
Ġ12 83
med i
Ġ12 75
it es
ĠB y
ĠG ood
Ġins ide
Ġ95 0
Ġ93 7
Ġ era
Ġ95 7
Ġ9 74
Ġmiss ing
Ġb and
Ġsp ent
ĠIMD b
Ġl angu
Ġ13 13
Ġout side
Ġcreep y
Ġ10 07
Ġim m
Ġ11 66
Ġcl aim
Ġ( "
Ġlaugh ing
Ġfl at
ĠS im
Ġrem ake
Ġ9 69
H ow
ĠB ill
Ġpot ential
r up
Ġfight ing
Ġexpect ing
Ġtell ing
Ġ13 16
ĠE uro
l o
Ġinde ed
Ġ12 43
Ġdirect ors
Ġar ri
Ġcreat ed
Ġ9 97
Ġpolit ical
Ġsy mp
Ġsc ient
Ġp hys
Ġ95 8
Ġ10 78
in ter
ĠE n
Ġpl enty
Ġc aught
Ġexpl o
e en
Ġtr ad
Ġfam iliar
Ġ13 33
ro om
Ġj our
Ġro b
ck ed
Ġso cial
Ġcomm on
Ġ12 63
Ġ11 19
Ġ11 73
Ġj ud
ĠL u
Ġ98 2
Ġend ed
Ġ11 53
Ġ12 79
ĠC ra
Ġwat er
arr ass
Ġsound s
Ġfilmm akers
Ġ11 76
Ġ8 97
Ġ12 85
Ġ13 75
Ġ12 09
Ġ13 11
Ġ94 2
wh ile
Ġs orry
ious ly
Ġexpl ain
Ġ11 22
ra ge
Ġ est
ut er
u ine
Ġ12 98
al th
s u
Ġswe et
Ġ :
Ġ12 72
Ġ13 10
com e
ĠM ad
Ġint ri
E S
Ġ9 61
Ġattempt s
le x
Ġ12 44
Ġwh atever
Ġ9 67
Ġacc ident
Ġ95 1
Ġ8 62
Ġrec ord
Ġid i
A D
m ar
Ġ11 88
Ġ9 60
c ap
a ving
Ġd ance
Ġ12 25
Ġre qu
st ers
Ġmar ried
Ġes cape
Ġpos itive
Ġ12 93
ĠM e
Ġ11 95
g est
m as
Ġ11 86
Ġcol or
Ġam b
Ġtalent ed
f i
ĠF irst
Ġ105 2
Ġspir it
Ġn udity
Ġ103 6
ing er
Ġ13 95
Ġsubt le
Ġ10 84
Ġ11 46
in ary
ĠN ight
Ġmem bers
en ed
Ġp ace
w ar
as her
Ġ12 94
Ġter ror
Ġ13 85
Ġnot e
Ġa chie
Ġ12 18
Ġ13 18
Ġcra zy
Ġ12 78
ĠA f
Ġemb arrass
Ġstereot yp
Ġ13 19
L Y
c ast
Ġc ute
Ġ9 62
um es
P O
T H
Ġ13 09
Ġdo ll
Ġp ers
Ġfun n
Ġb rief
g en
ap pe
Ġ8 71
Ġ13 17
Ġ19 50
if f
Ġ98 7
cl usion
Ġdep th
Ġp orn
Ġ11 12
ĠItal ian
ĠR uss
Ġ12 53
Ġ85 4
Ġ11 23
ill er
Ġtra vel
g l
se qu
Ġval ue
i vi
Ġ95 6
Ġcomple x
Ġ13 06
Ġ14 03
ce i
ĠD ra
Ġm id
Ġb ed
Ġ10 60
Ġb iz
Ġst ore
Ġst ep
Ġgen uine
Ġ ess
Ġ95 3
Ġus es
Ġdes per
ĠP at
Ġ10 69
pp ing
an a
ĠT ra
Ġ78 7
Ġ13 74
ĠI I
il t
Ġ11 96
Ġ12 45
ĠS w
ĠO ther
ĠIn stead
B e
Ġw estern
Ġf urther
ie ces
as hing
Ġ13 26
Ġentire ly
Ġpoint less
Ġbeaut y
Ġcred it
Ġ13 08
Ġ13 53
I S
Ġ10 99
Ġ105 0
ver n
is hing
Ġboy s
Ġslight ly
n ie
Ġr ad
Ġ13 94
ĠV an
Ġrec ently
ĠS er
Ġmed i
Ġ14 05
oss ible
Ġre vol
Ġ93 2
Ġim medi
ect ive
Ġ14 44
Ġdec ides
Ġhard ly
Ġ75 8
ic ed
Ġ10 40
Ġ12 64
Ġbra in
i ers
Ġ13 44
Ġun belie
Ġ8 91
ĠG reat
kn own
Ġmention ed
Ġ13 25
ib ility
Ġcontro l
O n
D on
ĠG l
iz ation
Ġimp ro
re g
ap er
Ġ13 79
ash ion
0 16
Ġin e
Ġf it
Ġm el
Ġtra il
Ġfollow s
Ġ14 10
Ġ103 0
Ġportray al
Ġ13 02
ĠP ro
Ġ13 84
st r
Ġb other
ly ing
Ġ19 80
Ġ14 09
ĠM on
Ġwa iting
Ġrel ig
Ġd ied
al t
Ġ14 08
Ġ11 10
ĠB ra
Ġsol id
o es
ir ty
Ġ12 84
Ġ13 05
Ġ14 26
ag ing
ott en
ĠEuro pe
Ġ12 26
Ġpart y
Ġfollow ing
Ġdel ight
Ġexc iting
Ġch oice
ĠD es
Ġm er
Ġ13 76
Ġconvin cing
A S
Ġm ass
Ġeffect ive
Ġm ere
or ror
Ġcast ing
d ing
Ġ13 83
Ġsat isf
Ġs pl
Ġ13 14
Ġ14 45
Ġ15 10
Ġ11 00
Ġ11 64
Ġ10 27
Ġ84 2
Ġdra w
Ġappreci ate
Ġ9 90
Ġv amp
Ġsitu ations
Ġ12 48
Ġ13 24
Ġ14 75
ĠD ead
Ġ13 72
Ġ103 7
Ġ12 76
Ġviol ent
Ġt ort
Ġ12 14
Ġse es
ĠF red
us ter
Ġmo d
Ġ103 1
m on
if ied
Ġwr ote
Ġ10 01
Ġ12 04
Ġ12 96
Ġmo ves
Ġ88 0
Ġacc ent
Ġ12 05
Ġ11 94
Ġ13 64
Ġlong er
Ġ84 4
Ġ12 22
Ġ103 9
ĠH ere
ĠL ou
Ġl ady
Ġ94 9
Ġmiss ed
ĠA ct
Ġintellig ent
e ven
Ġm atch
Ġ10 42
Ġt ension
Ġother wise
stand ing
Ġam using
Ġdo ctor
Ġ95 5
Ġgr ound
f ort
Ġdec ide
Ġ10 81
Ġ14 06
re ct
Ġ9 70
Ġ13 63
Ġ95 4
ann el
Ġrem ark
Ġ98 1
Ġbiz arre
Ġpurp ose
Ġf ol
Ġprodu ced
Ġ11 77
03 3
Ġlangu age
Ġc ru
Ġc ross
Ġl uck
Ġ9 71
Ġin fl
Ġ12 95
Ġ105 5
ĠHar ry
it ary
Ġ14 15
Ġsuccess ful
Ġ12 66
ur p
Ġ15 13
ĠW atch
a res
Ġsc i
ĠJ e
vi de
ĠM at
Ġ14 28
Ġsp end
Ġfe ar
Ġbr ut
E D
Ġ10 62
Ġr ate
Ġreg ard
Ġ `
Ġ13 35
Ġsc ream
Ġfant asy
Ġ15 16
Ġse arch
rib ly
Ġw all
Ġ14 43
ĠO F
l a
Ġhum our
le ct
k in
ar ily
Ġ10 41
Ġ13 15
Ġ105 9
Ġ113 2
p ed
Ġm ach
Ġcomp et
Ġw ild
Ġsus pect
Ġ15 25
st e
Ġ10 67
Ġ14 98
sh ip
Ġ11 01
ĠS ch
ĠB ob
Ġcont r
Ġs oul
Ġprodu cers
Ġbig gest
Ġcult ure
Ġopp ortun
Ġfoc us
Ġyoung er
er en
Ġd anger
Ġ11 48
02 5
04 3
c ock
Ġ14 13
ĠL a
Ġ10 20
Ġinvol ving
Ġ14 14
Ġst ick
ate ur
Ġquest ions
Ġfill ed
Ġ10 61
Ġ10 89
Ġ11 99
Ġ19 70
Ġtra in
Ġ105 4
Ġ10 97
Ġ15 18
Ġcomp any
r ont
Ġ10 70
res ent
Ġun fortunately
Ġ10 49
Ġ13 78
iz es
Ġdep ict
Ġman ner
ĠSt ar
Ġ12 92
Ġcolle ge
Ġf ake
ell y
Ġcr im
Ġ73 2
olog ical
Ġ14 19
ru ce
Ġinter view
Ġrec ent
Ġun less
Ġchang ed
ĠInd ian
mist ry
Ġ8 69
Ġ14 78
form ation
in ating
Ġ105 8
Ġcont ri
O M
Ġ113 7
Ġmin or
eng th
Ġ10 80
Ġ rap
Ġ14 17
Ġpat hetic
Ġb all
Ġ14 24
Ġ103 4
Ġlik es
Ġ13 03
ĠM ac
ĠL ove
Ġant i
le t
Ġ13 96
ĠM ovie
Ġ72 1
Ġt est
Ġs qu
Ġinvest ig
V ER
Ġ10 91
Ġ15 23
Ġincred ible
Ġb reat
N ot
r ound
O W
m o
Ġ15 03
ow ers
ĠH en
Ġ14 76
c ra
d own
Ġ11 29
Ġg host
Ġ14 11
ĠH ol
Ġshow ed
in i
Ġw eren
Ġ14 65
Ġcrit ic
Ġ14 84
Ġ93 3
Ġj ump
Ġ105 3
Ġval ues
Ġa uth
Ġimpress ive
re aking
Ġ14 74
Ġ14 93
Ġcontin u
Ġh ang
Ġ19 30
Ġis land
Ġ14 72
Ġ13 28
Ġg arb
Ġ11 07
Ġ16 55
Ġ115 2
Ġthink s
less ly
Ġbe at
Ġgl ad
Ġnot ice
Ġrun s
Ġdru g
Ġ10 82
Ġra nd
Ġ15 53
Ġmo od
Ġdis g
Ġaw esome
Ġcomp ared
Ġ13 73
Ġ15 76
Ġimag es
Ġb omb
Ġ14 68
Ġ103 2
Ġ14 96
Ġ8 29
Ġ13 66
ri ff
Ġ98 9
Ġtra ck
Ġ14 64
Ġiss ues
Ġsl asher
Ġ13 55
ĠC ity
Ġt ough
Ġgo vern
Ġ13 07
Ġk ick
Ġfa iled
Ġprodu ct
PO IL
Ġe arth
ott om
Ġ15 05
ar m
Ġsudden ly
y ou
Ġ15 73
ĠP ark
Ġche mistry
W ell
Ġbare ly
if y
Ġ14 63
Ġ14 83
Ġbook s
Ġ15 35
ri an
Ġ95 9
Ġ14 94
und er
Ġ13 99
Ġ13 48
Ġ14 92
Ġre pl
ir ing
ĠB oy
Ġbas ic
Ġocc ur
Ġ11 40
ĠH itch
m aking
j ust
Ġ13 23
th at
Ġcir c
Ġ10 79
Ġ15 02
re m
Ġ10 71
Ġ115 1
c ond
Ġ14 79
Ġ15 11
Ġre de
POIL ER
A fter
er m
p art
Ġ11 87
Ġ11 67
Ġ14 12
Ġsh ip
Ġro ll
** *
Ġ11 61
al es
Ġ14 33
Ġp un
ic he
Ġa ffect
Ġav ail
Ġsymp at
Ġdisturb ing
m m
Ġp ract
Ġnorm al
ĠA g
Ġca use
Ġ10 68
Ġ13 65
ĠM ary
d ers
Ġ93 0
Ġ10 90
Ġab ility
Ġ11 80
Ġrand om
Ġ14 73
Ġ14 25
f ace
Ġ12 74
Ġ13 88
Ġkill s
u k
Ġp ack
ens ive
Ġb ull
Ġ11 89
Ġ14 53
Ġcom pe
Ġgen ius
Ġ11 90
st it
Ġne ither
Ġ12 46
Ġ16 02
ĠG old
Ġappear ance
Ġth reat
Ġ11 91
Ġoff ice
Ġsm art
Ġprog ram
Ġ14 35
oo p
Ġcon clusion
Ġins ult
ĠAng el
Ġun ex
Ġstud io
Ġb ase
Ġlea ving
Ġgarb age
Ġdo or
Ġ103 8
Ġ113 0
Ġtast e
Ġb aby
ri age
Ġ11 42
Ġfav our
Ġ15 64
au g
Ġs pect
Ġsu c
ĠJ ones
Ġ10 77
Ġj o
Ġam ateur
Ġimp ossible
Ġshoot ing
n ight
Ġ14 16
il es
ly n
Ġacc ur
Ġfor ce
ep end
Ġcar ry
Ġ113 6
Ġb ought
Ġ14 02
Ġ15 19
ĠR ed
Ġ9 86
Ġ11 20
ir th
Ġro ad
Ġpres ence
cei ved
Ġ15 14
aw n
Ġconsider ed
Ġimmedi ately
l ict
Ġ15 43
Ġ105 1
ress ing
Ġsuc ceed
h ouse
Ġc old
Ġ13 92
Ġ93 1
i ven
t r
Ġ11 82
Ġ14 55
Ġresp ons
ver t
ale d
n ow
Ġ14 18
Ġ15 74
Ġal ien
Ġ12 07
Ġ123 8
ran k
Ġflash back
ain ing
and er
ond on
ex ic
rop ri
Ġ14 23
s he
a ff
Ġ12 99
Ġstre et
Ġ98 0
Ġconsider ing
and a
Ġrede em
Ġ10 21
Ġsu it
Ġ11 60
Ġdr ink
Ġ113 1
Ġind ust
Ġ115 8
and s
Ġtr ash
ĠSt re
ĠB ig
Ġf resh
Ġ14 88
Ġ15 24
it les
Ġ15 28
Ġ15 65
Ġ15 83
ĠJ ane
ab ility
h am
Ġcomp uter
Ġ113 8
Ġf at
Ġe vid
Ġpl aces
J o
Ġ14 95
Ġ15 92
Ġ15 55
Ġaud iences
Ġcl ot
ic ated
Ġstand ard
Ġ16 12
Ġn atural
Ġhe avy
Ġgo d
Ġultim ately
he art
Ġlike ly
ab or
Ġsing ing
Ġ13 68
Ġ16 98
Ġ17 19
est ival
Ġf ashion
Ġ16 09
Ġtw ists
ĠMart in
Ġun s
ĠChar les
Ġ17 08
Ġal ive
Ġ11 47
Ġre venge
Ġ15 95
Ġ17 16
Ġ85 8
Ġ11 62
w in
Ġg rap
th s
ĠAf ric
Ġ13 93
03 6
Ġd in
Ġl oud
ess ed
04 8
Ġh ost
Ġ16 13
Ġadd ed
Ġchang es
ĠSm ith
ĠB ruce
Ġ115 6
Ġ12 88
ir t
Ġintri gu
Ġ12 03
Ġ17 65
ĠM iss
ĠN or
Ġri de
play ed
Ġconf lict
ĠC or
Ġ15 17
Ġ15 96
Ġ16 25
Ġm ult
ill ing
Ġman aged
Ġcomed ies
Ġ13 86
W e
Ġ X
Ġt end
Ġ11 97
Ġ12 71
up er
Ġsex y
Ġmag ic
Ġbuild ing
it ude
ve y
ie f
Ġo kay
Ġ14 07
Ġdest roy
ĠPer haps
Ġutter ly
f ield
Ġ17 06
ĠR ay
Ġthr own
ann a
Ġ12 01
Ġboy friend
st em
Ġter ms
ĠM exic
Ġg ag
Ġ16 19
ĠT im
Ġauth or
I D
Ġtri p
ĠTh om
Ġavail able
Ġst arring
Ġimpress ion
Ġ12 42
Ġ16 68
Ġ16 85
ĠB ur
Ġ84 3
Ġ135 9
ĠE arth
Ġclim ax
Ġne igh
ok ing
s et
it ions
ĠH igh
ĠW ay
Ġnow here
Ġstun ning
" .<
Ġd ig
Ġ12 21
Ġ125 7
L L
Ġ13 45
Ġ16 16
Ġhistor ical
ĠA lex
ell ing
Ġlo ves
Ġappro ach
is on
Ġ15 15
Ġcinem atic
ill a
ĠL ondon
Ġadvent ure
Ġ16 44
Ġ15 79
Ġ16 75
Ġdem on
Ġwit ness
Ġd ro
Ġch all
ant ed
ivi du
m b
Ġ125 1
04 6
Ġappe al
Ġsupp ose
le ase
Ġg em
Ġpre p
Ġte acher
Ġ11 70
Ġ11 27
Ġadd ition
Ġgener ally
Ġliter ally
es ides
Ġ105 6
f ilm
Ġ15 78
T o
b udget
Ġ16 72
Ġ123 7
Ġdetail s
Ġt one
re l
Ġgovern ment
g ue
Ġh y
Ġ15 08
Ġemot ions
a a
ĠM el
T hat
Ġ13 47
led ge
Ġmyster ious
Ġconst antly
Ġ16 15
Ġrem ains
Ġ12 47
Ġ17 09
ĠY e
Ġprot agon
Ġinfl u
Ġs itting
op her
Ġ16 83
Ġ16 65
Ġpl us
Ġ12 62
Ġ12 77
Ġ12 29
ain e
m es
Ġ16 08
F irst
Ġsc ience
ĠRob in
Ġinnoc ent
w art
Ġ14 86
ĠS ci
ĠB ro
Ġmil itary
Ġ15 68
ĠR ock
Ġemot ion
Ġ14 85
Ġcom mer
Ġes cap
Ġdan cing
Ġ15 44
Ġ13 77
ĠChar lie
Ġc uri
Ġ17 13
pl oy
Ġbeautif ully
Ġ15 26
Ġter rific
en a
ĠC G
Ġ15 72
Ġscen ery
Ġ125 2
Ġ16 35
ĠD ou
Ġput s
Ġcost umes
Ġsil ent
u el
Ġ19 73
idd en
Ġ16 84
Ġ123 1
Ġ12 69
Ġoff er
Ġ16 96
Ġ16 53
Ġ133 6
ĠSt ill
Ġpain ful
Ġsurpris ingly
Ġn ames
g ood
Ġ16 79
Ġtouch ing
Ġm akers
ar ies
Ġ17 28
Ġ20 06
ĠChrist mas
Ġ !
app y
ĠAd am
Ġjour ney
Ġb oss
ort s
Ġdesc rib
u ous
Ġgo ld
Ġsomew here
H e
ĠS T
Ġphot ography
Ġl oose
Ġra ce
iv il
Ġcent ury
Ġ16 24
Ġdisc uss
I T
a us
Ġ12 20
Ġ13 98
Ġ13 41
Ġthr ow
Ġind ividu
Ġ19 60
Ġsur round
Ġzomb ie
o ices
Ġchar m
Ġ13 29
ain t
Ġint ended
Ġ133 7
Ġpass ion
Ġnarr ative
Ġleg end
o h
Ġ15 48
Ġ16 92
Ġ16 26
Ġ125 4
Ġ125 9
in n
Ġpresent ed
Ġ12 49
Ġlaugh able
Ġ12 90
Ġ16 95
Ġ16 45
Ġ19 88
ast y
a ven
Ġa st
Ġdri ve
Ġunbelie vable
Ġ16 18
Ġ17 44
Ġspe c
Ġchar ming
Ġ16 11
S ome
Ġ14 40
Ġ19 90
if t
Ġinter n
Ġhop ing
Ġaff air
Ġ16 05
Ġanim ated
ĠT er
ĠC r
k en
Ġd im
Ġn a
Ġhappen ing
Ġf ully
Ġke y
Ġsold iers
Ġ115 4
r as
Ġ17 15
Ġob ject
u gg
Ġb i
Ġdisappoint ing
Ġslow ly
Ġlove ly
Ġstand s
Ġ17 35
Ġl ength
ĠHitch cock
un ting
it or
Ġ12 81
Ġ15 45
Ġ12 89
Ġ13 21
Ġrecommend ed
Ġsy stem
Ġfeel ings
er n
Ġ17 75
Ġaspect s
Ġ16 64
Ġsp ot
ĠSt ep
Ġin it
Ġre sem
Ġ123 0
Ġfa ith
Ġ19 78
Ġknow ing
Ġ12 82
ol ic
ent ially
Ġ20 09
ri be
Ġ14 99
Ġ19 95
ĠH ard
Ġ135 6
it a
ĠB el
ĠR E
ars h
Ġopportun ity
Ġs ix
Ġ12 70
Ġ17 18
Ġact s
Ġ16 63
r ick
Ġd ad
Ġ17 73
pl es
Ġabs urd
Ġstud ent
Ġmedi oc
Ġ15 33
Ġ18 73
Ġ19 17
Ġp ieces
Ġ16 04
Ġ19 33
Ġ125 6
0 18
A C
Ġ12 86
ur al
w hat
ic ide
Ġexpect ations
Ġim pl
er al
Ġ16 23
Ġenc oun
Ġ15 88
Ġfilm ing
ook s
Ġfin ish
Ġ17 26
ac hes
Ġ12 27
Ġmar riage
Ġ16 06
.. ...
ĠD irector
ĠH am
Ġdr unk
b ad
Ġ20 00
Ġthem es
Ġdisappoint ment
Ġflick s
Ġ15 75
03 4
ĠH ouse
Ġ12 61
ĠM oo
Ġbeh avi
? !
ĠP aris
te xt
Ġexcept ion
osp ital
N ow
Ġ20 05
is ion
Ġb urn
Ġ14 48
Ġ16 14
se y
ĠB est
Ġ115 7
Ġdet ective
ĠSt an
Ġmist ake
ĠS ure
Ġ13 42
Ġt ired
Ġ18 45
ac hed
ĠOn ly
Ġ17 45
Ġd ate
Ġ19 76
Ġ13 40
Ġ135 7
Ġmor al
Ġint ense
Ġart ist
Ġadapt ation
Ġ15 09
02 4
Ġout standing
Ġlack s
ĠSte ve
I G
o om
Ġ17 74
ĠS and
ĠB ad
Ġ19 75
Ġequ ally
k a
Ġso ft
Ġri p
Ġ18 76
Ġp il
Ġlik able
Ġd ies
Ġ12 80
Ġ16 22
Ġ17 99
Ġpict ures
B C
n s
Ġ133 1
Ġexc use
Ġmill ion
O V
ĠG en
Ġpro cess
h and
Ġ13 20
Ġfasc inating
Ġa f
on ed
Ġ15 12
il ities
Ġ17 68
Ġli ved
Ġdis aster
Ġ16 76
Ġvictim s
Ġtrad ition
Ġinclud e
d is
Ġ12 87
Ġadd s
Ġvir t
Ġ17 76
on na
Ġ12 41
ĠBe cause
Ġ13 43
Ġ13 90
ĠL i
ge tt
ĠAn other
ict or
Ġ12 91
ĠP ol
od e
ĠAll en
Ġ13 81
ĠC al
Ġ14 66
Ġen er
Ġfa ult
Ġwalk ing
Ġ15 00
Ġ15 66
Ġ16 17
Ġ19 86
Ġ133 8
aug hed
o ved
Ġm outh
Ġ19 28
Ġ19 40
Ġpro per
od ies
Ġmag n
ar p
Ġ10 47
Ġ18 55
Ġ135 4
Ġ13 89
Ġ13 82
Ġc ell
Ġ18 64
Ġser ial
ĠJo an
Ġ13 69
Ġ15 84
Ġqu al
Ġ135 2
re nd
op s
Ġfol ks
Ġser v
R e
er ous
Ġ16 74
Ġ17 96
Ġst uck
04 2
Ġd read
Ġdevelop ed
Ġdisg ust
Ġ12 97
Ġ16 78
Ġ17 72
ab e
Ġ133 9
Ġrem ote
Ġprodu cer
Ġrelationship s
l ife
S h
U n
Ġ18 06
Ġconf using
Ġf aces
ĠI r
0 14
p ort
Ġ15 94
Ġ16 94
ĠW here
Ġnew s
p ret
Ġ11 49
Ġ113 4
g ar
ill ed
Ġ12 00
ur ch
Ġ123 9
wr iter
Ġ19 05
Ġse tt
x ual
Ġ15 29
ĠJe ff
p r
ic a
Ġn aked
Ġstud ents
Ġ19 65
Ġ133 0
Ġcur rent
ĠR y
Ġcont ains
Ġdis appe
Ġ19 85
Ġ19 45
od ram
Ġ133 4
Ġ19 12
ines e
j a
Ġl aughed
Ġ17 10
Ġlo ver
Ġf iction
Ġ17 43
02 3
Ġimpress ed
ĠMc C
ĠHen ry
Ġ12 67
Ġ19 83
Ġallow ed
O h
in ally
Ġ16 66
Ġ17 12
Ġ18 08
Ġbrother s
Ġneg ative
ar ant
Ġconf used
m iss
Ġ13 49
ĠR og
Ġcont ent
Ġpr im
ĠPe ople
ĠAust ral
al y
ĠCan ad
I C
s s
Ġ18 18
Ġ19 64
Ġindust ry
l or
Ġf right
ĠChrist ian
ĠS ee
Ġli f
as ing
Ġ19 68
ĠD ay
Ġseem ingly
ĠY et
Ġtra g
Ġ17 55
Ġ125 0
Ġ19 16
Ġrep resent
Ġdeli vers
0 15
l ock
Ġn umb
Ġ17 98
Ġ18 24
Ġ19 35
Ġ19 55
ĠJ ean
Ġfind ing
Ġind epend
Ġgi ant
Ġkid n
A meric
Ġ20 04
ĠO verall
omet hing
Ġ17 64
Ġopp os
Ġ18 13
Ġ13 91
Ġ18 75
Ġbreat h
Ġ18 04
Ġ19 79
ll ed
Ġ15 70
Ġ19 92
os h
Wh ile
Ġ16 10
Ġun us
Ġworth y
Ġ14 01
Ġsh are
Ġed ge
D e
Ġr out
Ġqu iet
i um
Ġ123 4
Ġir rit
O verall
Ġd i
Ġ15 39
ut s
ĠJ ew
Ġfall ing
ĠMoo re
W ith
Ġp aid
ĠW est
03 9
Ġcon vers
Ġdiffer ence
Ġ145 1
Ġ ug
Ġ18 14
03 5
Ġ143 6
s l
at ors
ĠM ore
in ct
av is
Ġ20 14
Ġ20 02
ĠM ark
ist ent
com pl
Ġoff ers
Ġdra wn
Ġbecom ing
Ġflaw s
Ġmult i
Ġ17 86
ĠS outh
Ġch ase
ag ger
orge ous
o res
ust r
Ġ143 0
Ġ19 98
Ġ125 8
ĠS ad
ĠB illy
Ġhigh light
Ġcle an
A t
Ġl a
Ġ18 72
se e
ĠW W
Ġ13 00
Ġ17 23
Ġ19 14
Ġ19 06
pect ed
ĠAmeric ans
s er
0 17
Ġ15 06
Ġ18 12
ĠCh ris
Ġmere ly
Ġ17 88
Ġany more
Ġh oles
an ic
Ġhas n
Ġ19 93
ough ly
Ġ105 7
Ġ ****
Ġ15 97
Ġ16 73
Ġs ight
Ġh ospital
I E
t a
Ġin formation
Ġ14 80
ĠT ony
Ġ18 85
Ġwonder ing
Ġdou ble
is hes
Ġb le
Ġ18 68
id ing
Ġ18 16
Ġcrit ics
Ġhonest ly
Ġcompe lling
ad ed
ĠL et
Ġthan k
Ġactress es
ste in
Ġspect ac
0 13
Ġ13 87
Ġ19 43
c ur
Ġ113 9
Ġ115 9
Ġ145 0
ĠN az
Ġ143 9
Ġcor rect
Ġm art
ĠT wo
az z
am ent
ess ion
Ġ135 0
Ġ135 8
Ġ13 67
Ġ20 08
Ġse g
ab l
Ġ19 96
ĠNot hing
Ġh ig
ĠV ery
gett able
f ather
Ġ16 28
Ġloc ation
c ons
Ġ19 13
Ġst ation
Ġevery body
Ġforg otten
Ġphot ograp
Ġg ri
Ġ19 99
Ġj oy
ĠE ast
Ġ155 8
Ġ19 44
ad ing
ul es
Ġsy mb
Ġinsp ired
r ough
Ġp en
ic ious
ye ar
Ġprovid es
ĠJ ason
Ġ11 81
Ġa head
Ġ16 93
Ġ17 84
Ġ19 02
Ġfor t
Ġ143 7
Ġmain ly
ele br
d o
Ġ18 83
Ġ17 94
ĠE r
Ġappe ared
Ġlight ing
Ġfore ver
Ġ18 25
ĠA nt
vi lle
ra id
Ġim age
Ġperson ality
Ġele ment
Ġd en
gg ed
B l
Ġ18 88
Ġcomp aris
e ch
Ġ10 87
Ġimp act
Ġhelp s
ĠB at
ag ers
Ġwill ing
Ġrent ed
Ġremind ed
ĠA b
ot ed
Ġ18 15
Ġwe ap
A ny
Ġ19 09
Ġ19 74
Ġshould n
ĠBr other
ĠTh ough
Ġmel odram
Ġ18 94
Ġdes ert
ĠWilliam s
Ġtra gic
Ġapart ment
Ġ15 30
Ġ19 66
ĠD u
Ġ18 43
Ġ19 63
Ġ20 28
ĠW estern
ard ed
m ark
p re
ĠV in
Ġcr ow
Ġadult s
Ġattract ive
Ġfunn iest
z en
ĠG o
app ed
Ġexpl an
or ter
Ġg orgeous
Ġansw er
Ġno body
Ġ19 72
Ġ17 95
Ġ18 26
ĠC o
ĠD ark
Ġpre fer
Ġn ons
Ġ20 78
Ġmark et
Ġ17 85
Ġ20 03
Ġun ne
Ġ155 7
ĠCh inese
Ġh ide
Ġ15 07
Ġ20 10
g ent
Ġf ood
Ġ13 22
all ed
Ġare a
ress es
Ġdra g
Ġmot ion
Ġ14 77
Ġ15 98
m i
Ġ15 93
Ġ15 01
ĠB ond
Ġzomb ies
ĠG ar
Ġr ound
ĠCG I
Ġ14 71
Ġpro vide
Ġm ir
Ġh am
Ġ18 22
Ġon to
Ġact ions
Ġe at
Ġe ight
ĠB oth
ention al
Ġmedioc re
as ure
Ġsl ap
Ġ18 09
Ġ18 86
N o
re qu
Ġ14 47
Ġput ting
Jo hn
Ġ19 04
est ing
Ġag ent
rup t
Ġread y
Ġimag ination
r ance
Ġm ember
Ġl ad
us hed
Ġ16 43
Ġ17 92
Ġ18 44
Ġ19 08
Ġhe ld
ab b
ĠRuss ian
b ur
it z
st al
ĠM ag
Ġb ene
ĠI S
Ġ14 00
Ġ14 89
ro g
ĠW il
Ġun real
er k
Ġas ide
if er
ĠD un
Ġdream s
c an
Ġ13 46
Ġ18 63
ĠM ike
enn is
ĠSte ven
Ġcollect ion
Ġo h
A M
Ġp ra
ĠL ew
Ġunder st
Ġ11 93
Ġ17 46
Ġ19 25
ĠThe ir
Ġun w
so ci
Ġcreat ive
A Y
Ġ14 69
Ġ18 11
Ġ19 15
ĠS l
Ġ145 2
Ġcontin ue
om en
Ġmur ders
Ġbo ard
Ġc elebr
Ġ18 19
Ġang ry
i os
Ġ19 20
Ġ145 7
Ġfell ow
. ,
Ġ15 86
Ġn asty
ot es
em por
Ġpr in
Ġcra ft
Ġturn ing
c r
Ġ14 91
0 19
Ġh ook
Ġ13 62
Ġ143 4
i ac
Ġre ach
Ġexpl os
Ġfollow ed
Ġtrail er
ĠM us
Ġsuper ior
Ġ18 79
Ġg ames
Ġ14 70
Ġ18 96
st ar
Ġcou n
Ġ15 21
Ġ135 1
Ġform ula
Ġw ise
Ġ14 27
Ġmo ved
Ġr an
Ġcom mentary
T V
Ġa im
Ġs our
Ġle d
Ġachie ve
Ġd ubb
oo per
ĠH ell
ĠP art
Ġstand ards
or ing
Ġ15 91
ĠM s
Ġun known
dd ie
Ġc al
an ish
Ġ13 97
Ġ15 67
Ġ16 03
Ġ143 2
le ep
ĠH el
Ġ155 2
ĠHow ard
Ġm ut
Ġ20 74
Ġwe aring
Ġb right
Ġsurpris ing
Ġth in
Ġl atter
Ġ17 63
Ġ20 26
Ġar gu
Ġ13 60
Ġkn ock
Ġsupposed ly
Ġask ed
u h
i ro
Ġpl ane
so ever
Ġdru gs
Ġ14 67
Ġ16 00
Ġ17 83
Ġ19 77
pect ive
an cy
Ġ15 61
Ġ15 49
Ġdesc ribe
Ġ19 24
Ġlo se
pp y
ropri ate
Ġ19 23
te en
Ġhelp ed
Ġpick ed
Ġth or
Ġ13 70
Ġbl ind
Ġ16 07
Ġ20 12
ĠN ever
Ġ15 42
Ġ22 17
Ġcent ral
Ġ15 81
oo s
Ġcomed ic
Ġ14 46
Ġshock ing
ĠAN D
Ġ16 46
ĠF e
Ġ123 2
Ġcreat ure
Ġp air
Ġtw ice
az y
Ġ17 93
Ġ20 43
Ġ21 05
Ġsecond s
Ġscient ist
Ġw ide
Ġ13 80
Ġjust ice
Ġpro ves
Ġ16 90
Ġ17 32
Ġ22 23
ĠV ictor
a ire
Ġ21 09
Ġtr ust
Ġgr ow
Ġ15 32
il os
Ġ19 84
Ġwhat soever
ĠYou ng
Ġintrigu ing
ĠKe vin
Ġintrodu ced
Ġfavour ite
Ġ20 96
th ur
ĠG irl
Ġem ploy
Ġtrag edy
ar io
Ġ13 01
Ġ15 71
Ġ18 17
ĠD avis
ad d
se ll
04 4
Ġbl ond
Ġ18 65
Ġ18 46
pl ot
look ing
Ġ18 10
ĠL o
um ble
Ġthan ks
Ġprofess ional
Ġvamp ire
Ġconf ront
ar get
Ġ21 13
Ġno ir
Ġb ottom
Ġaw are
Ġchild hood
ĠclichÃ© s
C H
r ors
ĠG reen
Ġprot ect
as hed
Ġ12 55
Ġ17 33
Ġ20 53
ĠB ar
Ġbl ame
Ġbe gan
Ġwood en
Ġwar m
k ins
Ġ14 20
Ġmo b
Ġ17 25
Ġ19 87
Ġ20 83
Ġwant ing
Ġbel ong
l s
Ġ15 40
Ġse ll
Ġne cessary
Ġcrow d
Ġ15 36
ast s
Ġunus ual
Ġ14 90
Ġ20 33
ĠSh ow
Ġth us
Ġ20 44
Ġ145 9
Ġperfor m
Ġra c
here nt
Ġph one
Ġstre ng
Ġphys ical
Ġ18 78
Ġins ight
Ġbro ad
Ġt our
Ġ11 21
Ġ18 28
Ġ21 83
her n
Ġcl ub
Ġreal ized
Ġteen age
Ġ14 97
Ġ20 11
Ġ19 19
Ġbor n
Ġ15 34
ud dy
Ġacc ount
Ġrepe ated
Ġunex pected
) <
c ont
e al
Ġ15 80
Ġaf raid
Ġ16 39
Ġ21 23
Ġ20 13
Ġbit s
Ġ ver
en ny
ĠR o
ĠO N
Ġrel ative
at u
Ġd ying
Ġclot hes
Ġmem ory
k ward
Ġp ath
Ġ16 82
Ġ17 17
Ġ16 27
Ġ20 93
ĠD id
Ġd er
ĠP re
Ġh at
Ġ18 23
Ġ19 41
Ġsu icide
Ġl oss
Ġ18 33
b ian
Ġf ool
Ġf reak
Ġb al
Ġ17 05
Ġ17 54
Ġ16 61
Ġ17 34
Ġug ly
he ro
Ġac compl
Ġ22 55
st ick
Ġch annel
ĠP al
Ġcop s
02 2
Ġhead s
ĠMan y
Ġbrut al
Ġ22 45
et ic
Ġep ic
Ġ16 33
ir k
Ġem pt
ĠChrist opher
u ct
Ġ15 69
Ġredeem ing
ĠS il
ĠL yn
ĠK elly
Ġplan et
Ġintellig ence
Ġ10 29
Ġ21 10
ĠJack son
an ity
Ġ21 84
Ġ12 40
Ġ21 19
am a
Ġyou th
Ġ16 49
ĠT oo
Ġ19 18
Ġ19 38
Ġwatch able
Ġsure ly
Ġspe aking
ĠAny way
Ġ20 75
Ġ20 35
und red
o ons
Ġ17 49
Ġ20 79
Ġ22 05
Ġ20 68
Ġas ks
Ġ155 9
Ġd iv
ent ious
ĠT re
Ġ19 34
ĠS ar
ĠM a
Ġ16 71
Ġman age
iv ity
Ġ11 71
Ġ18 48
Ġ21 94
Ġst at
Ġsu ck
s m
v ate
Ġdam n
Ġ19 10
Ġsub st
Ġunderstand ing
Ġmart ial
en cy
Ġ15 31
ell e
Ġstrugg le
Ġre lie
Ġde b
d on
Ġ16 51
Ġ19 48
Ġ21 76
ĠF ord
ĠPh il
Ġh ated
Ġ15 77
ĠF ox
Ġ115 0
Ġhor se
Ġlead er
Ġb ank
Ġs in
Ġ19 49
g n
Ġ15 63
Ġ18 00
ĠS n
ro c
Ġdep art
Ġsk in
Ġs ac
Ġ/> -
Ġ20 64
ĠB o
Ġinclud es
Ġc ivil
Ġ17 22
ĠO li
Ġmiss ion
at on
Ġh int
02 7
Ġ16 77
Ġst ock
Ġpart ner
Ġ143 1
I I
Ġ16 57
Ġ17 79
Ġ18 07
02 9
b les
Ġ11 41
ĠL ittle
Ġiss ue
Ġindepend ent
Ġ16 58
ow ell
Ġte ars
Ġfilmm aker
Ġb ur
Ġ16 34
Ġ16 54
Ġ21 06
Ġ21 85
Ġr ubb
Ġfight s
Ġsad ly
Ġ20 18
Ġse par
ro ll
ous y
Ġany where
ĠBr own
Ġlet s
Ġdeser ve
Ġhold s
E T
es h
Ġ16 29
Ġ19 57
Ġ22 26
Ġ21 65
Ġaw kward
Ġ20 25
Ġ22 65
v y
Ġ19 94
Ġst ink
03 2
Ġr ated
Ġknow ledge
Ġ15 85
Ġmot iv
Ġener gy
he red
Ġ16 99
ĠA li
Ġrad io
h um
Ġ17 67
Ġre se
Ġr is
Ġhero es
r ical
ĠT e
Ġ19 91
Ġ18 93
Ġ20 92
the re
Ġreturn s
ĠGr ant
ĠI N
un ter
ĠJ es
Ġb irth
ĠR us
Ġcour t
Ġhot el
Ġ21 33
Ġperson ally
Ġ21 08
Ġli es
Ġbl ock
t op
Ġanim als
f in
Ġt ed
Ġg oof
Ġ17 57
atur ally
Ġnumb ers
ĠV H
. '
Ġ16 38
ul ation
04 7
ĠJ on
Ġinv ent
Ġ20 19
ĠD ick
old s
Ġ17 11
Ġ17 61
ens ional
Ġvis ion
Ġrespons ible
Ġexplan ation
v a
ct ure
am er
Ġ94 7
Ġdeep ly
Al though
Americ an
Ġ15 47
Ġ19 00
Ġre act
if ul
ĠEvery thing
Ġrelig ious
k es
Ġ18 66
Ġ21 16
ĠR om
Ġt ight
Ġ16 20
Ġ17 37
Ġ145 4
Ġele ct
Ġlim ited
n atural
Ġp acing
Ġ18 37
Ġvill ains
Ġpleas ure
Ġaccur ate
Ġ16 01
Ġ16 67
Ġ20 94
Ġ22 44
ĠM en
ĠW alk
the y
Ġrare ly
ĠThom as
Ġ14 49
Ġ23 16
Ġsu cks
U T
Ġ16 36
ru ction
v it
re ck
Ġh yp
an ced
Ġ16 31
Ġ17 07
end er
ĠAn n
Ġ17 71
Ġ16 48
Ġ16 47
un ted
Ġde but
Ġar my
Ġh its
Ġh urt
Ġ17 20
Ġ19 71
Ġ21 64
Ġst y
ate g
Ġtw enty
gl as
Ġ16 87
ĠA pp
ĠB as
Ġart s
Ġnice ly
Ġ17 81
Ġ19 53
ĠS us
ac he
ian ce
at ory
Ġ16 30
Ġ22 68
ĠM o
Ġ ?
Ġ16 69
Ġ23 55
Ġmon ths
Ġjud ge
Ġthor oughly
u zz
Ġ20 45
Ġ19 27
aw ay
Ġsur real
Ġdeser ved
c ise
Â Ĺ
Ġ19 58
Ġ20 84
Ġ22 28
Ġ21 28
ĠJ r
sc reen
Ġs ch
Ġ16 80
Ġ21 95
ĠL ind
ress ion
Ġinc re
Ġtort ure
Ġfin ished
Ġ19 46
iet y
Ġfore ign
es pecially
Ġ15 41
Ġ18 71
Ġmurder ed
Ġm at
ad ow
Ġlist en
Ġmix ed
Ġ19 37
Ġcommun ity
Ġ14 62
Ġ19 39
Ġ20 17
Ġ21 55
ĠE ddie
Ġcall s
Ġ22 08
Ġlo ving
Ġfl oor
Ġgr ad
Ġexpl ained
R ob
Ġh undred
Ġ18 03
Ġ18 74
Ġ20 88
Ġcomp are
ord ing
Ġins ane
Ġsign ific
Ġ19 26
Ġch ick
ĠDes pite
c ula
u z
Ġ14 41
Ġ18 30
ĠJ erry
Ġplay ers
Ġve hic
Ġ14 42
Ġ21 17
Ġab and
The y
ann ed
v ant
Ġ18 84
Ġ21 66
ol a
ĠL es
Ġplot s
ĠJul ie
Ġ16 88
Ġ19 42
Ġ22 06
Ġcomparis on
Ġ20 85
Ġ21 12
ĠJ ud
Ġconst ant
Ġ22 15
un s
ĠB arb
Ġloc ations
Ġunne cessary
e ks
Ġt arget
Ġm ine
Ġthat s
76 5
Ġblood y
Ġoper a
Ġsm ile
it ous
Ġ20 23
ĠOn ce
d irector
Ġlack ing
Ġc ars
Ġgang ster
ĠRy an
Ġ11 69
Ġl ay
Ġ17 21
Ġ22 10
Ġ22 14
Ġ23 45
Ġun int
Ġart istic
as m
il st
Ġpro ve
b ell
p ir
Ġ15 60
Ġ18 02
Ġ15 89
Ġ18 99
ue en
Ġrem ain
Ġm ild
Ġl es
Ġ22 12
Ġ22 95
Ġ25 25
em an
ru ct
Ġ19 56
ĠSte wart
Ġ18 92
Ġ21 79
-- --
h or
Ġ22 83
Ġ21 43
Ġsc ared
th ony
ĠE ll
Ġlearn ed
Ġmach ine
n on
Ġf ield
Ġ18 29
Ġ22 16
Ġ22 94
ĠDe ath
Ġm ount
Ġ18 56
Ġ19 51
Ġ21 22
Ġpil ot
: <
Ġ17 70
Ġ20 01
Ġpro ceed
Ġbl and
Ġgun s
ĠLew is
Ġ22 35
os es
ci ent
Ġsurvi ve
Ġ20 16
Ġ20 73
akes pe
Ġcreat ing
ug s
Ġass ist
Ġeffort s
Ġ14 21
Ġ15 22
ch ing
Ġcapt ured
Ġ20 47
ĠN ick
ĠSt ory
Ġth ous
Ġ15 37
Ġ18 41
out s
Ġbl ue
Ġw itty
Ġconcer ned
Ġc ow
Ġ19 67
ĠA c
Ġ155 1
Ġcirc um
Ġ21 14
Ġcon text
Ġra pe
arent ly
Ġ21 93
Ġ21 25
p oint
Ġo pt
Ġ15 99
im al
Ġ143 8
fort able
Ġdanger ous
Ġ19 52
Ġ22 09
Ġ17 47
Ġ17 36
ul s
Ġlo vers
Ġvis it
alth y
Ġcrim inal
Ġ16 37
Ġ21 48
Ġdet erm
ĠEng land
Ġt ur
Ġ8 90
Ġn er
Ġ17 00
ĠH ay
ĠP res
c is
Ġ16 62
Ġ22 53
Ġ24 19
ĠVH S
r ays
y es
Ġ20 98
ĠM ax
Ġbelie f
Ġp aper
Ġ17 31
ĠW ild
Ġpri est
Ġ19 54
Ġdri ving
ĠStep hen
Ġwonder fully
Ġmem ories
Ġcontr ast
c ue
Ġ20 72
ĠL aw
Ġsk ills
Ġph ilos
iver se
g a
Ġ22 43
ĠD am
Ġown er
ĠWay ne
h ol
r ous
Ġ20 86
Ġinter pret
ĠWh ite
enn ifer
Ġmagn ific
c ore
Ġ14 82
up s
an o
Ġ16 86
Ġ19 69
ir m
Ġneigh bor
Ġbehavi or
Ġ16 21
ad s
Ġ23 92
ound s
Ġbig ger
Ġhuman ity
Ġresult s
Ġeng aging
Ġ15 20
Ġ22 22
Ġ21 92
Ġinst ance
Ġbel ow
Ġ24 13
Ġtreat ed
Ġment al
Ġoppos ite
Ġ18 05
Ġ22 88
ad emy
Ġ21 88
ins p
Ġh idden
Ġ16 59
Ġ20 22
Ġ24 18
Ġnot iced
Ġfr ame
Ġremind s
Ġfor ces
Ġdesper ate
W hy
Ġ17 24
Ġ19 31
ay be
Ġtechn ical
Ġrubb ish
Ġf lying
Ġ22 75
Ġ22 76
Ġ21 63
Ġ20 95
Ġ23 66
78 3
Ġnum erous
Ġremark able
is er
Ġp ark
Ġ15 46
Ġ23 44
Ġun con
Ġent h
Ġ17 90
Ġ20 21
Ġ23 43
ur s
ĠM al
ail s
ĠW al
04 9
ĠV al
.... ....
w olf
Ġ18 69
Ġ23 35
ĠD el
08 3
Ġgot ten
Ġoffic er
POILER S
Ġt ape
oo oo
id s
Ġinclud ed
Ġmis er
Ġhop es
Ġgag s
J ust
Ġ17 69
Ġ24 14
79 8
qu es
Ġkeep ing
ic ation
et her
Ġreve aled
us hing
Ġ22 19
Ġany body
as hes
Ġhum ans
Ġ20 51
Ġ21 68
Ġed uc
Ġl ab
Ġe arn
Ġ21 53
ay lor
ick ed
Ġ18 80
Ġ19 59
Ġ20 46
ĠMr s
Ġbo at
Ġ18 32
Ġ133 2
Ġencoun ter
Ġsymb ol
Ġ15 62
at ives
act ing
02 6
ose xual
Ġempt y
ed ding
Ġ19 81
Ġre nd
Ġreal ism
Ġplay er
ĠDou glas
Ġb oo
Ġexper ien
How ever
Ġ22 66
ĠE s
pl ess
Ġ145 6
Ġst ret
Ġ23 24
Ġ23 85
Ġ26 79
Ġhad n
Ġcircum st
Ġ18 77
Ġ19 07
Ġ94 1
iment al
Ġrefer ences
Ġ18 87
ĠL ife
ul f
Ġrel ate
Ġmar ry
al though
Ġ17 39
Ġ18 51
Ġ22 33
Ġ21 96
Ġ23 83
Ġsc are
Ġteen agers
E ven
d inary
Ġb an
Ġ18 47
Ġ23 28
Ġen vi
Ġexp ert
Ġ15 82
02 8
O K
Ġ17 40
ĠP lease
um ps
Ġdes p
Ġspe ech
ĠSp ace
ĠT ex
Ġ18 01
Ġ22 46
ĠC apt
Ġpro stit
Ġres ol
Ġsold ier
Ġ21 73
un n
Ġso ap
Ġop ens
Ġ23 75
Ġas soci
omin ated
Ġ17 91
ĠD en
Ġover ly
Ġprotagon ist
Ġ17 38
Ġ19 03
Ġ19 29
Ġfin ale
he nt
Ġ22 93
ĠH orror
Ġrec all
l ong
Ġ20 48
ĠW ars
um s
Ġ17 60
p ing
ll a
Ġ16 52
Ġ17 56
Ġ22 24
Ġ24 23
Ġthere fore
m are
s ome
Ġto ward
Ġ18 27
Ġ23 17
Ġbu ff
Ġve ter
Ġwind ow
Ġ18 62
Ġsa fe
Ġsw ord
Ġcommer cial
Ġf requ
ĠSp anish
Ġ20 65
Ġ24 05
Ġchar ism
v oid
Ġ20 77
Ġ22 98
08 4
Ġor gan
Ġ15 27
Ġshe er
Ġtri b
Ġanim al
bo ard
Ġ15 87
ĠR on
Ġcontri ved
m ind
ĠM ont
Ġj unk
Ġfriend ship
Ġreg ular
akespe are
ar ian
Ġgr owing
ĠAl an
ex t
Ġ ing
ĠS y
Ġsc rew
Ġtrans l
n am
Ġ18 20
ĠB arry
od d
Ġtal ents
Ġhumor ous
Ġ22 78
co ver
ic ate
Ġ17 41
Ġ20 66
Ġ20 39
Ġ21 98
Ġgener ation
Ġbreak s
Ġpull ed
Ġ15 90
Ġ20 99
urp hy
Ġindividu al
e ed
y r
ĠW as
Ġdis play
Ġstereotyp es
O L
a ud
Ġ25 10
le e
Ġar m
Ġcame o
Ġdeal ing
Ġstre ets
ĠV iet
Ġadv ice
Ġb ot
Ġ20 82
Ġs ed
Ġ22 73
ĠR os
Ġs al
ĠM er
ĠJ an
ĠEurope an
Ġnons ense
p at
Ġ20 30
Ġsh allow
pl ic
l aw
Ġ22 77
Ġ24 17
ul ous
Ġob sc
rif ying
Ġc ateg
Ġ23 95
03 7
Ġde als
Ġref res
Ġlevel s
Ġf rank
Ġc able
Ġ16 42
Ġ24 11
Ġpar ody
Ġf ate
Ġ21 37
ri but
Ġal i
Ġsp oof
ath an
Ġpers pective
Ġp ress
Ġ20 55
Ġpsych ological
Ġd ated
Ġ18 52
Ġ24 35
Ġv ol
Ġv ote
reed om
Ġchall eng
Ġ19 21
ĠB E
Ġfin est
Ġhero ine
ĠBrother s
) ;
Ġint ent
heart ed
ĠL uc
um m
ab eth
ĠCh ap
h ab
Ġ23 18
ĠC ent
ĠW at
Ġpro v
ĠAn ne
Ġsum mer
Ġg onna
Ġre ceived
Ġatt itude
Ġf if
Ġ18 57
ĠD or
ĠD ennis
ĠJohn ny
Ġevid ence
ll y
omet imes
Ġaw ard
Ġter ribly
Ġpr int
Ġstud y
Ġcra ppy
w orth
ar c
Ġ18 70
Ġ22 13
Y es
Ġ14 81
im ate
Ġ21 74
os aur
Ġcons ist
Ġ18 34
Ġ23 96
ĠBl ood
urb an
ĠS at
Ġsome body
." <
Ġmed ia
ard en
Ġman ip
Ġstart ing
Ġtheat re
i xt
ar i
Ġn et
Ġch ore
Ġr ing
ĠSe an
Ġdisco vers
Ġg ory
Ġ21 86
ĠD O
Ġreview ers
Ġwood s
ent le
ĠAr thur
r ate
Ġt ack
Ġ24 06
Ġ25 09
Ġ27 72
Ġvill age
y al
Ġ23 19
ĠN orth
Ġ18 39
Ġ18 58
Ġ19 01
Ġcontin ues
Ġunreal istic
Ġin comp
Ġal tern
ok en
Ġgra ce
Ġ22 25
Ġ24 92
Ġinvol ves
Ġcru el
Ġhig her
Ġ18 67
Ġor dinary
are n
Ġen s
cl ass
Ġenvi ron
he m
Ġ16 91
Ġ21 99
Ġwin ning
Ġrelie f
ĠL ast
Ġpret entious
m ade
Ġ18 90
Ġ25 28
Ġ23 13
Ġse at
ĠS ant
Ġdec ade
Ġsequ els
Ġca res
S p
v est
ĠI m
Ġ26 06
ĠH all
Ġr ange
Ġunf unny
Ġp upp
Ġ24 95
ang ed
Ġdiscover ed
is a
Ġf und
Ġ14 04
Ġ18 21
Ġ24 33
Ġ23 23
Ġmin i
ĠTh ose
Ġbro ken
Ġ13 71
ĠT hing
Ġ25 26
ro l
Ġdist ract
Ġremember ed
Ġcapt ure
Ġ14 61
Ġ22 85
Ġfeat uring
hent ic
Ġrefres hing
Ġ ur
Ġ14 22
Ġ16 41
Ġ23 48
Ġflashback s
Ġ21 75
Ġ21 26
Ġ23 64
ud es
clud ing
Ġl at
Ġ21 45
Ġ25 11
ch ar
Ġk ing
Ġre action
Ġ25 94
ĠF rance
ĠSt one
Ġgenuine ly
Ġg ru
Ġ16 81
Ġ17 50
Ġed ited
Ġfail ure
Ġste al
Ġirrit ating
g ra
Ġ19 22
oy d
the less
Ġmon sters
Ġ15 38
ĠT aylor
Ġ18 60
Ġ22 11
Ġ23 63
Ġ26 17
ur se
Ġass ass
Ġcap able
il ing
Ġ22 42
Ġ23 78
ĠJ er
og y
?? ?
Ġintell ect
Ġb odies
Ġbe ar
Ġ22 18
Ġ25 83
Ġv ac
ĠWh ich
Ġspe ed
Ġmeet ing
ĠDra cula
p rodu
Ġ17 51
Ġ24 09
Ġlos es
Ġ23 05
Ġ23 53
ĠW H
Ġte ach
Ġsat ire
n ox
t w
Ġ20 24
Ġ23 68
Ġ123 6
ord on
Ġkind a
d es
Ġg as
Ġ24 93
Ġ23 14
Ġfe et
R A
ĠM urphy
ĠR oy
Ġfam il
Ġ18 35
Ġ18 81
empor ary
n al
Ġ14 87
Ġ20 37
Ġdec ision
cra ft
ĠAnd erson
Ġres cue
S c
st ream
our s
Ġgu est
Ġcut s
Ġ17 29
Ġ21 90
Ġ23 65
ĠJ ose
Ġun able
Ġsa ved
Ġident ity
Ġdread ful
Ġs ite
it ter
all ing
ĠHol mes
Ġrese arch
Ġh all
Ġ20 15
ĠR ose
ĠF ar
Ġv s
Ġf ly
ri day
ĠS in
ĠS ince
ĠBat man
u x
Ġn in
Ġ17 89
ĠT w
Ġ25 48
ĠB rian
ight s
Ġar ch
Ġdes ire
ĠAn thony
Ġtreat ment
Ġspectac ular
Ġ23 76
Ġ26 12
ĠB og
Ġ17 42
Ġ17 87
Ġ24 07
Ġ23 02
Ġcon c
um ber
Ġdep ressing
Ġ20 91
Ġ25 33
ĠS an
Ġsh op
ĠR od
Ġv ul
Ġdocu ment
Ġcomb ination
Ġgrap hic
Ġp owers
Ġ19 61
Ġ24 94
ort ed
Ġvisual s
Ġ18 36
Ġ23 79
Ġ25 06
Ġconne ction
Ġcoun ter
y er
Ġf al
Ġ20 32
Ġ23 06
Ġ23 88
Ġ155 0
ĠEvery one
ĠCra w
Ġf ra
Ġ23 26
Ġmajor ity
Ġe mer
Ġk iss
Ġde g
ang ers
Ġorigin ally
ĠSh akespeare
Ġali ens
f it
Ġ24 16
Ġse a
ĠH op
ĠD E
74 5
ĠAfric an
l im
Ġ20 89
ĠM ur
Ġte xt
Ġfact s
Ġoccas ionally
Ġ24 44
Ġ25 35
72 3
Ġprin ci
Ġ20 54
Ġ24 73
ri de
ĠO ut
Ġdescrib ed
Ġg reen
Ġ18 50
Ġ25 12
Ġtyp es
Ġdeliver ed
Ġconne ct
om ed
um my
ĠFran cis
ĠCol umb
im m
ant e
Ġpe ace
Ġmor ning
Ġg ross
if orn
Ġso le
ĠDe an
Ġmod el
Ġb ath
Ġ21 11
Ġ21 54
ĠV er
Ġultim ate
Ġt or
Ġ24 83
Ġ23 98
Ġ26 68
Ġpro ved
ren ce
Ġmar vel
ivers al
p et
vi a
Ġ21 02
Ġse ven
ĠAs ian
Ġport rays
Ġt ick
Ġs ides
Ġ20 63
Ġ23 15
Ġstand ing
us ive
Ġ24 12
ĠAnd rew
Ġexist ence
Ġexecut ed
Ġ24 86
Ġc ash
Ġ24 98
Ġ24 85
Ġ27 64
Ġj u
Ġtalk s
ĠDan ny
Ġc yn
ĠI T
Ġ26 05
Ġteen ager
Ġstreng th
s pe
w orld
Ġs un
Ġg rew
Ġ25 44
ĠSe cond
a br
Ġ21 52
Ġunder rated
Ġtheat ers
S E
Ġf ame
Ġ17 78
Ġ23 46
Ġ28 09
Ġsing er
B I
Ġ22 99
Ġpr oud
Ġpass ed
g irl
in is
Ġ26 96
ĠM att
ac hel
ean while
m od
or ious
Ġ24 15
Ġ25 15
Ġ25 63
Ġsu cked
Ġsympat hetic
Ġs ake
Ġ13 27
Ġ19 32
Ġimag in
Ġh ur
Ġ21 34
ĠC oll
ention ally
Ġine pt
Ġs end
Ġw el
Ġ20 80
Ġ24 48
ĠE ric
be at
Ġted ious
Ġp it
Ġ18 40
Ġ20 27
Ġ24 88
ĠS E
ĠC ass
Ġch oose
ĠCar l
Ġref lect
am ily
ĠS pe
ag o
Ġcircumst ances
c or
d om
t ain
Ġin ex
Ġ17 97
Ġ20 56
ĠM aster
Ġad vert
ĠSt r
Ġask ing
d one
Ġd a
aur a
Ġ16 97
Ġ20 70
Ġ24 43
ĠC amp
Ġhy ster
E very
ĠE VER
Ġexplo itation
U N
Ġ24 08
Ġ23 93
Ġ25 55
ĠN O
Ġbrilliant ly
ĠT ime
Ġgr atu
Ġs oph
Ġ18 82
Ġ20 67
Ġ20 36
Ġ26 26
ld er
Ġsk ill
Ġcor rupt
Ġb ag
Ġl ower
Ġ25 14
Ġ26 45
Ġbu ilt
Ġreg ret
Ġhands ome
! ).
w ing
Ġb att
Ġ28 35
ĠM i
ĠG ary
ich ol
Ġthought s
Ġless on
ĠRE AL
ĠTex as
Ġc ant
Ġd ry
Ġ15 04
Ġ18 97
Ġ20 62
Ġall ows
Ġne cess
ĠJ ennifer
Ġlo gic
Ġtr uck
O f
for med
igh ter
Ġsuff ering
Ġfamil ies
an i
Ġ21 51
Ġ23 21
Ġsa ving
uck y
Ġass ume
ĠPat rick
Ġ17 27
Ġ20 76
Ġ22 92
Ġ22 56
Ġ23 33
ĠK ong
Ġclass ics
Ġmagnific ent
t elling
Ġ21 59
Ġ25 05
ĠD og
Ġemot ionally
S e
Ġ25 18
ĠM ic
ib al
ĠRus sell
Ġe ating
Ġ21 01
Ġ21 36
Ġ24 26
Ġ28 44
ĠD em
79 5
IG H
m al
Ġte ens
yn am
Ġcart oons
G E
Ġ17 02
ĠW in
ĠF estival
um ph
ĠY OU
Ġgr ade
Ġ ic
Ġ25 45
ĠLyn ch
il ty
Ġ21 60
ĠL ord
n ers
Ġ20 20
Ġgr own
rid ge
h h
r ad
The n
S he
m ary
Ġ26 72
Ġ27 18
Ġslap stick
ĠCraw ford
" ),
Ġ26 44
Ġprop ag
Ġaut hentic
Ġd ressed
Ġ17 53
Ġ25 74
Ġlaugh ter
Ġsatisf ying
L et
i j
en ess
Ġ22 21
ĠD ar
A r
Ġp unch
Ġ20 40
Ġ21 29
ĠH aw
ul ated
Ġbl ow
Ġbelie ves
Ġwar ning
Ġprom ise
Ġl one
Ġ14 60
st yle
Ġ27 63
IL L
it iz
ot ing
Ġ18 98
ĠP ar
ĠIs land
Ġprovid ed
Ġ20 90
Ġ25 75
Ġexc ite
Ġpain t
Ġembarrass ing
Ġ26 95
Ġwe eks
Al so
Ġ22 32
Ġ21 57
Ġ26 65
Ġ29 48
Ġcreat ures
eth od
Ġsubt itles
ĠAg ain
l ow
Ġ26 85
ĠH or
Ġhor ribly
Ġcreat es
Ġfr ustr
ĠStre et
R I
a ult
m ond
â Ģ
Ġ22 89
Ġ21 00
Ġ21 47
iz abeth
ung le
Ġste als
Ġt able
on a
Ġ20 31
Ġ23 73
Ġfor th
ur a
ĠCh an
Ġye ah
Ġcomp an
aus ible
Ġ25 73
Ġ30 00
Ġsh arp
ĠG ordon
ĠMexic an
Ġ22 64
Ġst om
An other
Ġvehic le
Ġenviron ment
Ġ22 36
Ġ21 78
Ġwh ilst
Ġ25 64
Ġ27 96
os en
ĠAnd y
Ġrent al
Ġadm ir
ĠLou is
m other
st on
Ġ25 46
ĠTH IS
Ġ22 01
75 8
og ether
k er
Ġ20 49
Ġ25 92
Ġan ime
ĠS und
Ġch urch
out hern
ac re
Ġprodu ce
Ġcra ck
Ġest abl
Ġess entially
iforn ia
Ġf reedom
ĠT urn
Ġ22 87
Ġ26 33
ĠC le
14 3
Ġextra ord
y m
Ġ22 63
Ġ22 70
ĠG ene
Ġna ive
_ _
Ġ24 53
00 92
d im
ĠR am
os ition
ree k
Ġpain fully
o ly
Ġ21 87
Ġ24 78
Ġ26 24
Ġpl ans
Ġnorm ally
Ġ21 50
Ġ27 19
ĠK enn
Ġview ed
Ġrep ut
atur day
Ġexpress ion
ĠLa ure
u ed
Ġ23 94
Ġsp in
Ġsn ow
Ġb re
Ġ22 20
Ġ21 24
Ġ23 84
Ġ26 18
Ġv an
fortun ate
Ġexc ited
h ard
Ġt em
Ġf are
Ġ22 50
Ġ22 57
Ġ25 66
Ġ27 95
ĠM in
Ġsy n
Ġshock ed
Ġ16 40
Ġ26 78
Ġ28 06
15 4
ĠK u
ass es
F i
o ir
ot ion
Ġ19 11
Ġ23 54
Ġ27 17
75 5
z o
Ġd u
Ġ20 81
ur ity
vious ly
ĠPl us
Ġqual ities
Ġ21 20
Ġ23 58
08 2
Ġles bian
h orror
Ġ27 25
e gr
Ġ21 18
Ġ25 34
Ġ27 09
Ġ27 05
Ġcon sequ
Ġac comp
Ġlarge ly
Ġinsp ir
inter esting
Ġvirt ually
o ard
en stein
ĠC ount
Ġtechn ology
Ġdoll ars
Ġamateur ish
Ġsour ce
us i
Ġ26 73
Ġ26 74
et er
ĠO ld
Ġwhen ever
ĠGu y
Ġc ab
Ġp al
Ġ26 63
Ġ26 22
Ġ26 35
08 8
ĠF er
Ġinvol ve
he tt
Ġ24 03
Ġ26 94
Ġ27 88
Ġter m
Ġbring ing
F rom
Ġ21 77
Ġ21 56
ĠA dd
Ġsc ar
Ġz ero
Ġwalk s
ed s
Ġ22 37
Ġ24 36
Ġ26 10
ĠL A
Ġtr ick
Ġpur ch
0 79
ic it
ĠI re
Ġ18 91
Ġ26 53
Ġ28 96
opp y
Ġ22 72
ĠC inem
ul p
Ġcor ny
Ġdelight ful
ĠChap lin
Ġ17 58
Ġ23 86
Ġ28 17
ĠL ong
Ġlad ies
Ġ28 55
ict ed
Ġluck y
Ġdisgust ing
Ġ22 31
Ġ28 18
ra ction
Ġ145 8
Ġapp ropriate
Ġ22 07
Ġend less
ĠU nd
Ġstop ped
Ġgratu itous
er ie
Ġ13 61
Ġ28 43
Ġ29 44
Ġexecut ion
Ġ26 83
Ġtheat rical
Ġt ill
Ġ22 84
Ġ25 77
Ġ27 15
Ġun cle
ig er
Ġlos ing
Ġ25 24
Ġ26 23
ol en
Ġmatter s
Ġca used
g on
Ġ23 07
Ġ23 77
Ġ25 23
Ġ25 65
ĠK ore
ĠBr ad
Ġlearn s
Ġine vit
Ġ22 39
ĠA p
Ġsp ends
oc al
Ġcuri ous
Ġ21 58
Ġ23 09
ri x
ĠM iche
Ġun com
Ġmy th
Ġtwist ed
Ġscream ing
c ol
ing u
Ġh arsh
le ar
Ġ25 84
Ġ27 35
ĠS H
ĠCom m
ĠP ac
sem ble
ĠCapt ain
c ret
Ġm ask
Ġ21 32
Ġ26 46
ĠM il
ĠWil son
Ġ24 64
ort ing
Ġcr ash
ĠTh ank
Ġcent er
Ġpleas ant
Ġrout ine
Ġblond e
Ġp an
Ġ29 24
Ġdis p
Ġag es
Ġsur face
Ġf ict
Ġ20 50
Ġhe aring
Ġ24 66
Ġ26 28
Ġ28 12
Ġ28 23
Ġli ft
0 78
Ġd ress
Ġ22 04
Ġ21 70
Ġ31 63
ian o
ĠRog er
Ġseg ment
z ed
Ġ19 36
Ġli e
ĠC ost
Ġqu ir
ĠKe aton
Ġrevol ution
Ġexperien ced
76 2
ĠL ook
Ġstrong ly
lyn n
P l
Ġl ink
Ġland s
Ġ )
Ġ22 86
Ġ24 70
Ġ28 14
Ġal co
EN T
Ġer otic
Ġh ol
Ġd rop
Ġ22 79
Ġ22 47
Ġ22 52
Ġhe y
Ġ26 11
Ġ27 44
Ġ27 43
up t
08 6
Ġun fortunate
Ġexper iences
wr itten
ĠWood y
w hel
Ġ28 68
Ġsh ark
ĠR en
Ġpre gn
Ġhold ing
Ġspeak s
f ire
Ġ18 42
10 4
Ġmake up
Ġreview er
Ġhom osexual
ĠAc ademy
a fter
en ced
Ġl ousy
Ġ23 52
ĠJ ess
Ġexcite ment
Ġf its
Ġre ce
Ġ28 33
Ġpr ice
ph as
Ġportray ing
Ġfeature d
u be
Ġ25 22
10 3
ĠD ian
08 5
Ġcon vey
a it
d en
Ġ21 80
Ġru ined
Ġsubst ance
Ġc as
Ġ18 54
Ġ21 03
Ġ21 30
Ġ27 24
ment ed
93 5
) :
in ated
Ġ21 46
Ġ24 34
Ġ27 98
Ġ27 22
10 8
allow een
Ġpract ically
ing ing
Ġ21 71
Ġ23 61
am ing
ĠU p
Ġfrank ly
b uster
i pped
or a
Ġ21 49
Ġ25 96
Ġ29 11
Ġ30 24
10 6
app ing
Ġdeath s
c il
i ents
Ġ23 60
10 0
ĠC at
Ġr ules
Ġend e
Ġcost s
ĠUS A
a ves
Ġ22 40
Ġ26 15
Ġ27 45
ĠR oman
74 8
ĠHar ris
Ġfal se
ot hy
Ġ20 41
Ġ22 91
Ġ27 04
ĠC ast
ress ive
Ġfact or
Ġtradition al
Ġ23 72
Ġ25 86
ĠS al
ĠS un
76 3
ig g
Ġreal izes
Ġbelie ved
ĠAn na
Ġwalk ed
Ġdepict ed
c ies
Ġ24 22
Ġ23 22
Ġ27 28
Ġ30 07
Ġar rest
Ġrelative ly
y a
Ġ21 67
Ġ24 72
ĠH ope
ĠW he
ag al
hen s
Ġcomm itted
Ġpropag anda
Ġw edding
Ġ24 63
Ġ29 55
Ġv oices
Ġentertain ed
e qu
u le
ou b
Ġd irty
Ġ23 25
Ġan cient
Ġ31 16
ĠLe on
ĠJack ie
Ġfoot ball
ĠBro ad
Ġconvers ation
Ġpra ise
Ġ23 39
Ġ26 92
Ġ27 11
14 5
ĠN ic
Ġpo ign
Ġidi ot
f est
Ġ28 15
Ġha ck
ĠB or
ĠSt ates
Ġpull s
a e
g un
Ġre vel
Ġ24 99
Ġ28 98
ĠH it
atch ing
Ġpur su
ĠAustral ian
Ġmulti ple
v an
z a
ch an
Ġ29 35
Ġ27 02
Ġwe ar
Ġeven ing
ĠInd ia
Ġ21 69
Ġ27 13
Ġ27 65
Â ´
Ġ22 61
ĠV ER
Ġvers ions
Ġ24 65
Ġ24 38
Ġ23 31
Ġas leep
ĠU K
b it
or ig
ion ed
Ġ26 64
Ġ28 24
Ġsuper natural
Ġsuff ers
B O
ĠR em
Ġen emy
ĠUn ited
Ġp a
Ġcl ue
Ġide al
Ġ22 38
Ġ21 82
com ing
Ġ26 86
id ence
if fer
75 4
79 3
att y
ĠDo es
ĠCal ifornia
ĠPres ident
at o
Ġbe ach
Ġ21 27
Ġfor gettable
72 5
Ġhand led
Ġprom ising
ipp ing
M an
ar ning
Ġ20 87
ĠTH AT
Ġdesc ript
Ġcritic ism
l oyd
Ġb ond
Ġp uzz
Ġ23 38
am ous
10 2
09 3
74 4
ran ch
Ġcomm and
L ike
V E
Ġ22 30
ad a
Ġ24 59
Ġ26 55
Ġrem inis
uc lear
Ġdemon str
Ġp aced
Ġ17 30
Ġ23 67
Ġtou ches
Ġstru cture
as ant
Ġ18 53
Ġ29 33
73 5
Ġdestroy ed
Ġlat est
D es
k ind
it ious
Ġ25 82
10 9
Ġde cl
um mer
Ġun for
ĠQ ueen
Ġpri or
Ġ18 95
Ġ24 37
Ġ23 47
Ġ25 42
09 4
ĠE vil
Ġoff ensive
Ġcomm it
Ġcut ting
ĠNaz i
Ġ29 13
Ġ29 18
Ġv ague
Ġpres ents
Ġ24 58
Ġ26 25
Ġ29 79
Ġex agger
ud ic
Ġr ough
ĠJohn son
Ġclaim s
Ġa br
Ġ25 17
ĠS k
ĠL ady
Ġfl esh
az e
Ġ23 56
Ġ31 96
ĠEd ward
Ġuncon vin
Ġ16 60
Ġ21 42
Ġ23 12
Ġcont emporary
umb ling
Ġinflu ence
Ġin ner
Ġ21 40
ĠM ass
ĠH aving
94 3
Ġdri ver
Ġsens itive
f all
Ġ16 70
Ġ16 50
Ġhe n
ol ph
Ġab use
ĠN ichol
ĠK im
Ġstate ment
Ġdubb ed
Ġ22 00
Ġac qu
Ġstay ed
Ġc ust
Ġ25 76
Ġ26 88
Ġj ail
Ġperfor med
Ġdev ice
en ge
Ġf estival
Ġ24 84
Ġ24 80
Ġrep et
Ġvar iety
Ġstereotyp ical
ĠBarb ara
Ġg entle
Ġ20 52
Ġ21 91
Ġ25 78
Ġ28 92
Ġ29 63
Ġdis ag
Ġcost ume
Ġmove ment
Ġveter an
g ie
p ent
he t
Ġm ethod
Ġ24 87
et ime
se ud
Ġch osen
09 5
Ġde fe
Ġsp ark
ĠMc G
Ġsuspense ful
ut y
Ġ17 48
Ġ23 34
am s
Ġ31 98
ond a
Ġcontro vers
Ġdin ner
! ),
I ON
o ch
Ġsc he
ĠR ick
z il
Ġ u
Ġf ish
Ġ23 50
Ġ28 05
Ġent er
ather ine
Ġcompl ain
Ġrelig ion
ĠAct ually
t aking
Ġc ook
ut her
Ġ22 97
Ġ22 60
Ġ22 81
Ġ21 44
Ġ24 24
Ġ23 69
Ġ25 88
Ġ29 25
Ġlo g
Ġser ves
Ġt ap
ĠT O
Ġ24 04
Ġsh ut
pp er
ne w
Ġrep orter
ĠViet nam
in cluding
Ġ25 90
Ġ19 89
Ġ20 71
Ġ23 51
ĠA re
ĠA ra
ĠF BI
96 5
Ġappe aling
Ġsuff er
ĠCanad ian
Ġweap ons
Ġbot hered
L e
b reaking
Ġc ore
Ġh arm
Ġ17 03
ĠT ed
Ġ21 61
Ġhe ck
Ġ24 45
Ġ24 46
11 5
Ġ155 4
Ġbit ter
ĠGerman y
ĠIr ish
Ġw ound
on el
Ġ24 62
Ġ23 99
ĠH ill
Ġover look
Ġcam er
Ġworth while
ug os
Ġconv ince
Ġhang ing
at ically
Ġr ise
Ġdirect ly
Ġpart ic
air s
U R
re es
Ġ22 62
Ġ24 77
st ory
Ġ23 81
Ġ25 27
em s
ĠK arl
Ġang les
ĠclichÃ© d
ĠPr ince
Ġfright ening
Ġaband oned
Ġ22 90
Ġ26 57
et he
Ġ27 12
ill e
Ġun c
Ġar ms
Ġtra pped
ĠJim my
or b
Ġd ynam
Ġre ject
Ġst olen
Ġ25 07
Ġ25 60
Ġsc ale
Ġout rage
Ġcont act
Ġb ound
Ġ18 89
Ġ19 82
Ġ21 81
Ġ24 29
Ġ27 14
16 5
75 3
Ġinc ident
Ġpolit ics
Ġ24 31
Ġ27 51
Ġpos ition
Ġconvin ced
Ġsurvi v
ĠEl izabeth
Ġ26 01
Ġwor ry
Ġne at
Ġfoc uses
Ġremote ly
f fe
Ġp ity
Ġ25 93
Ġ27 92
ĠSim on
Ġinit ial
in er
Ġto ler
Ġ17 59
Ġgu ilty
Ġsympat hy
Ġ26 93
Ġ27 46
Ġse mi
Ġgreat er
Ġvis ually
Ġclos er
Ġcry ing
ĠApp arently
Ġdeg ree
v o
Ġ26 04
Ġ29 74
Ġ30 78
Ġgu ard
Ġev ol
Ġ27 06
Ġ32 68
Ġevery where
ĠMor gan
Ġstat us
fin itely
Ġ25 89
Ġ26 07
Ġ28 07
Ġsp ite
Ġri val
Ġlegend ary
k ed
Ġp ile
Ġ24 00
Ġ25 13
un ning
18 8
Ġmind s
ĠCl ark
Ġass um
Ġreve al
c ar
Ġan ger
ag ney
Ġun se
ĠZ omb
Ġpri vate
Ġspoil ers
Ġarri ves
o iled
ĠF riday
ĠE ach
av ily
Ġsk ip
Ġ19 47
ir a
ĠH ong
Ġcon cent
Ġgoof y
t es
Ġ22 54
Ġ23 37
Ġ26 66
Ġ28 86
Ġ27 42
id ay
19 3
Ġpol ic
ĠBra nd
Ġreput ation
ĠB ell
ĠE nd
Ġ25 16
Ġ26 48
19 5
ĠF lynn
Ġinterview s
Ġf ix
Ġb ab
Ġ22 82
Ġ26 08
Ġ28 93
Ġ29 12
Ġ29 98
ĠCh uck
Ġmurder er
Ġrequ ired
Ġenth usi
h ib
i at
re hens
Ġ20 69
Ġ23 08
Ġ26 14
Ġad op
ĠAs h
ĠBe fore
Ġdri ven
ĠCar ol
ĠVin cent
Ġb oot
Ġ30 65
Ġgr itty
Ġem phas
Ġacc ents
ĠCom p
Ġmelodram a
I M
f un
Ġis ol
Ġ17 62
ul ate
75 6
Ġfar m
Ġprevious ly
Ġaccident ally
ĠT or
Ġ24 02
Ġ24 74
Ġ23 00
Ġ28 63
Ġ28 22
Ġ27 66
Ġas h
d ie
s ub
ut ed
Ġex cess
ost er
Ġra ised
Ġcapt ures
Ġh ired
Ġ20 61
Ġ22 58
Ġ25 20
Ġ26 16
Ġ26 98
Ġ26 84
Ġ26 34
Ġha unting
if orm
Ġcou rage
Ġsurpris es
Ġfig ured
Ġ23 70
Ġ25 95
Ġ25 58
15 3
ĠRe ally
Ġimpro ve
il ogy
Ġ27 84
ĠL loyd
ĠN E
Ġman s
ĠK ate
Ġmain stream
I R
on est
Ġ22 80
Ġ23 29
Ġ25 43
Ġ25 59
Ġch oices
Ġat ro
Ġscen ario
Ġfunn ier
ĠHel en
f ess
Ġ20 34
ĠS aturday
Ġ33 28
Ġdeep er
Ġrecogn ize
Ġserv ice
Ġw itch
Ġb esides
Ġ27 76
Ġ30 13
ĠW r
Ġno stal
ĠJew ish
insp ired
Ġ24 50
Ġ23 20
ĠA LL
ĠAl bert
Ġright s
ĠWar ner
ĠEs pecially
Ġconc ert
" ).
in als
Ġ24 42
Ġ26 41
10 5
11 7
Ġcateg ory
Ġa in
ing e
Ġ17 04
Ġ25 81
Ġsit com
b a
Ġ22 67
Ġ22 59
Ġ23 42
Ġ26 67
Ġ27 79
Ġse ction
ashing ton
Ġdrink ing
Ġ ice
75 2
Ġcompl icated
Ġgrap h
Ġdiv or
A m
j ud
Ġ29 92
Ġ27 68
ĠJose ph
w en
Ġ29 73
Ġ27 38
ĠM eanwhile
ĠC H
09 6
Ġsort s
ĠDon ald
Ġcover ed
, '
Ġ22 41
Ġ23 57
Ġ26 91
Ġ31 43
Ġobs essed
ĠJes us
ĠVER Y
g ia
w alk
Ġl udic
Ġhe avily
Ġ24 76
Ġ25 71
Ġ25 30
Ġ28 28
ĠP owell
pl ays
ign ed
Ġamaz ed
Ġsoph istic
i ving
at ra
ĠA st
Ġv ast
Ġexpl ains
Ġ17 82
Ġ25 49
Ġ26 36
Ġ28 19
Ġ29 14
Ġch ose
ink ing
dim ensional
Ġg ar
Ġ17 14
Ġ29 23
Ġ27 29
ĠS on
ĠK at
ĠRobert s
Ġs ne
Ġ29 83
Ġ33 35
ĠC ooper
Ġdo gs
os ity
ĠK ill
ass ion
Ġfavor ites
Ġcapt iv
Ġquir ky
I s
l ig
Ġ20 42
Ġ22 71
Ġ28 53
Ġ28 62
Ġ27 00
Ġ27 30
Ġ30 35
ĠS up
Ġscreen ing
Ġoccas ional
ĠTre k
G M
c hen
Ġ21 04
ig r
Ġob nox
Ġcrit ical
Ġdisag ree
ethe less
c ase
om ination
Ġ23 71
Ġ25 08
Ġ26 62
Ġ29 37
Ġ27 93
as p
Ġ22 29
Ġ23 91
Ġ25 72
Ġ26 52
Ġpl aced
Ġshe riff
Ġser ve
iven ess
Ġstom ach
o oth
r ich
Ġ24 68
Ġ24 41
Ġ34 64
Ġdec ades
Ġforg ot
Ġ23 30
ri er
Ġ31 17
ĠB BC
Ġli ber
06 5
Ġbet ray
ner y
Ġn ominated
Ġ29 16
ĠS her
Ġsc r
Ġun interesting
ĠO b
Ġsp orts
ĠTh ree
Ġmass ive
f rom
Ġst alk
Ġ25 03
Ġ29 94
Ġ29 28
Ġ30 92
Ġ30 25
ĠC agney
Ġj eal
Ġdis belie
Ġ24 71
id ents
Ġ30 14
ĠL and
Ġdist ribut
Ġcamp y
c al
Ġ14 29
Ġ24 54
Ġ23 90
Ġ29 03
Ġ29 30
Ġoriginal ity
Ġlight s
Ġb reaking
ar able
ĠT ur
Ġ27 83
Ġ34 45
Ġsub sequ
ĠGra nd
Ġ27 77
11 8
urn s
Ġenjoy ing
Ġkind s
Ġext ras
Ġchang ing
Ġpartic ip
Ġb at
as hy
Ġ24 21
st one
Ġ28 84
Ġ29 19
Ġdown right
Ġunlike ly
s en
Ġt iny
ĠT y
Ġ23 62
Ġ26 37
Ġ29 64
ĠW ashington
ĠN one
ne tt
ty pe
Ġexper iment
Ġprof ound
Ġclos ing
Ġaccomp an
Ġ28 08
Ġ30 79
ĠM oon
73 3
Ġdist inct
t im
Ġf ranch
Ġd ed
Ġ24 25
Ġ24 52
Ġ29 90
Ġ27 69
Ġ27 57
Ġ32 63
Ġha unted
ĠP ict
IGH T
ĠJ ac
ĠCh annel
Ġdem and
B y
D o
Ġp et
le ction
Ġn uclear
Ġ31 85
Ġ33 44
ĠW ind
ĠL ater
ĠV ir
Ġ21 15
Ġ24 90
Ġ29 26
13 5
ĠP ri
Ġthr ows
Ġkill ers
ĠAr t
ĠAny one
Ġsucceed s
Ġdepart ment
Ġextraord inary
Ġunconvin cing
ut ch
Ġ27 16
act ic
Ġwe althy
72 2
ĠF in
ĠF inally
ĠN Y
ĠTh rough
Ġcontinu ity
Ġh ar
Ġ24 89
Ġ26 27
Ġ28 00
Ġ28 79
Ġ28 52
Ġse asons
74 3
be it
Ġru in
ĠJul ia
Ġt ask
Ġ25 91
Ġ25 53
Ġ27 59
ĠW all
17 4
Ġdeli very
Ġpay ing
ĠSad ly
Ġt itles
Ġg re
Ġ23 89
Ġ23 41
Ġ30 96
ĠM iller
Ġfl ow
Ġtra ining
Ġt ong
Ġ29 76
Ġ32 05
ĠH art
if ies
irect ed
ron ic
Ġfore st
b al
d ram
Ġ24 40
Ġ28 83
Ġ35 94
ĠM uch
11 3
ĠD ep
ĠF re
Ġeffect ively
Ġcontri but
ĠMexic o
M ichael
Ġh ole
Ġ25 04
Ġ28 16
74 7
w or
Ġm ature
Ġ25 02
Ġchar ge
Ġun iverse
Ġun iform
Ġche er
Ġnarr ation
ĠSw ed
ĠSus an
Ġ24 82
ro ph
Ġstrugg ling
Ġunderst ood
le cted
Ġ24 69
Ġ27 52
ill ion
ĠAnd re
Ġcar ries
Ġform at
Ġenc ou
ĠAfric a
ĠSar ah
ĠBroad way
Ġw and
Ġ18 49
Ġ27 70
Ġ33 45
ĠB ack
ĠC ann
Ġch uck
Ġbl own
Ġjo in
Ġfict ional
Ġn ude
ĠA void
ĠS O
11 2
ĠY our
Ġsim pl
t oo
Ġ20 07
Ġ29 46
Ġsc ares
ant age
Ġexam ples
Ġwin ner
Ġprep ared
Ġf ram
Ġ29 22
am or
Ġtim ing
Ġoff ered
Ġbu ying
ĠSh ar
ĠPl ay
Ġnecess arily
C K
c alled
Ġy ell
Ġ27 99
Ġ30 75
Ġ30 64
Ġ31 95
Ġcr is
Ġcall ing
Ġ24 49
Ġ25 29
Ġ28 01
Ġlo yal
ĠEn ter
er ved
Ġ26 80
Ġ26 49
Ġan tic
Ġ31 88
ĠL arry
74 2
ĠU s
Ġmag ical
Ġ/> *
Ġ23 82
Ġ28 02
Ġ29 42
Ġcont ain
i ques
Ġ #
Ġn aturally
Ġ27 90
Ġ30 55
13 3
Ġmist akes
Ġansw ers
Ġf ab
Ġin hab
Ġ25 32
Ġ26 82
Ġ28 04
ĠC ap
ĠO ur
Ġca uses
Ġdesper ately
Ġ25 79
Ġ28 21
Ġ29 45
Ġ31 23
98 3
aw s
ĠMar ie
ĠSe agal
Ġatro cious
ou ch
Ġ24 28
Ġ24 27
Ġ28 82
Ġ27 21
11 6
Ġwe ars
Ġcont est
ĠBr ooks
Ġcond ition
ĠPark er
Ġintellect ual
Ġobnox ious
Ġ ut
is her
Ġ23 87
Ġ28 26
Ġ29 95
Ġstory telling
Ġpr ime
ex cept
ĠBe aut
Ġrefer ence
Ġgru esome
re p
at a
Ġc ous
Ġmo ck
Ġ27 94
ĠF ull
ound ing
ac le
Ġbl at
Ġser ved
Ġspe ll
ĠHit ler
H ere
k ick
Ġ25 36
Ġ32 43
ell o
Ġte ar
Ġstar red
ĠPh ill
u ke
Ġb ore
Ġre du
Ġ26 19
Ġ28 46
Ġ27 27
ĠS uper
72 8
Ġcan n
Ġsee k
we et
w y
Ġs ke
Ġ32 65
ĠO ver
Ġint egr
Ġvi a
Ġdep iction
Ġattack ed
Ġtre mend
Ġ24 32
Ġ25 51
ri g
74 6
Ġpre vent
Ġhand le
ĠAr gent
Ġsever e
Ġregard ing
W ill
e ase
Ġ17 77
Ġ19 62
Ġ28 97
Ġ30 44
17 3
Ġover whel
Ġmet al
ivers ity
Any way
Ġ26 69
Ġ30 53
Ġ34 65
ĠD et
ĠP enn
25 3
Ġproper ly
B S
M r
n oon
Ġ25 31
Ġ28 94
Ġ29 27
Ġ30 85
ĠW or
Ġjob s
Ġmild ly
Ġw id
Ġ31 06
for ward
ific ation
Ġfoc used
Ġreve als
s pect
Ġ26 38
act er
Ġsec urity
Ġattempt ing
Ġsw im
che ll
ĠWith out
Ġdesign ed
Ġsearch ing
Ġcrim inals
C om
Ġw ins
Ġm as
Ġ26 75
Ġ26 76
Ġ27 85
ĠAl ice
Ġco inc
ĠDan iel
d ri
Ġre un
Ġ26 51
Ġ30 66
15 8
Ġj ungle
Ġdo zen
ĠE ver
aw a
Ġrel ated
Ġsk et
Ġpass ing
Ġ26 70
Ġ28 49
Ġ30 19
13 8
Ġimag ery
Ġpsych o
Ġsister s
Ġdeterm ined
ing ers
ad er
ĠH a
ĠCh ina
Ġsound ed
Ġwar ned
Ġsum mary
Ġlaw yer
inc ere
Ġlone ly
ub lic
ib ilities
D a
Ġ26 77
Ġ26 47
Ġ28 85
ĠL ost
ud ge
are t
Ġgr im
Ġcar ried
Ġpregn ant
Ġreminis cent
com edy
Ġ25 39
Ġ30 73
ĠS ometimes
ĠM OV
ĠC urt
13 4
09 7
ĠL aura
Ġru le
Ġsignific ant
O kay
s omething
w rit
Ġt ax
Ġp ed
Ġin j
ĠA ir
Ġ31 45
Ġ34 08
15 6
17 9
z an
it o
il a
Ġ22 48
Ġ24 61
Ġ25 68
Ġ32 66
Ġthr owing
Ġacc ording
Ġmet ap
ĠLu cy
arant ino
b ar
h old
re le
ent ed
Ġ22 03
Ġ29 85
Ġ27 75
ĠP a
93 3
ĠCh ild
Ġte eth
Ġra w
Ġfig ures
ĠAm az
seud o
78 5
43 5
Ġdeli ber
ĠOther wise
t ogether
Ġst ates
Ġ30 46
Ġbut t
ĠM GM
12 8
Ġp ool
Ġ24 57
ĠA L
Ġ32 26
ĠB ull
00 64
12 3
Ġext ent
ograp her
cept ion
OO D
Ġ24 30
Ġ26 32
ĠH E
19 7
05 3
94 5
Ġche ese
ĠBl ue
Ġcol ors
p ower
an ny
Ġ21 89
Ġ26 89
Ġ28 40
Ġ30 63
ack ed
ĠYe ah
Ġludic rous
Ġdisbelie f
Ġt ree
om s
ĠK han
ĠCh ic
Wh o
s uper
Ġ12 60
Ġ25 99
ch y
Ġ29 75
Ġ29 21
Ġ30 83
Ġ30 80
73 6
Ġdis s
Ġposs ess
Ġrent ing
Ġcomb ined
Ġexpress ions
Ġrob ot
a iled
Ġ24 81
Ġign or
Ġ28 76
Ġ29 04
Ġ29 66
Ġ31 14
Ġ31 53
Ġ38 23
ĠD uring
ĠO ff
Ġhor rific
Ġbas is
P er
h i
w ater
Ġ26 99
15 2
18 5
Ġstr ict
go ing
ĠWW II
ĠEast wood
Ġ24 97
Ġ26 39
Ġ28 99
Ġ27 03
Ġcom ical
72 6
ĠL os
Ġcomp os
Ġamaz ingly
Ġsty lish
u ght
Ġ26 60
Ġ33 37
em pl
ĠP itt
96 3
Ġbor der
Ġstop s
d ra
Ġ21 21
Ġ24 79
Ġ31 24
Ġ33 14
ĠW es
26 5
Ġnovel s
Ġfaith ful
Ġ22 02
Ġst ays
ri al
Ġ29 52
Ġattack s
Ġf ond
ver se
Ġ24 20
Ġst orm
Ġ31 25
Ġpre view
Ġview s
Ġinc or
Ġsk y
Ġappreci ated
Ġproduct ions
Ġdescript ion
m ate
Ġc and
ĠT ake
Ġ30 94
ĠM ST
Ġsh ape
19 6
Ġevery day
Ġfin an
Ġadd ing
Ġcount ries
Ġsin ister
Ġ19 97
Ġ20 59
Ġ29 91
06 3
" ?
E x
Ġw rest
Ġn ative
Ġre ward
Ġ29 80
Ġ27 36
se x
11 9
Ġent ry
ons ider
Ġcr ude
Ġbra ve
Ġintrodu ction
ĠGen eral
Ġfranch ise
il s
17 5
th an
95 5
hand ed
Ġrac ist
Rob ert
orig inal
ad ays
Ġ26 40
Ġ26 87
Ġ28 61
Ġ27 20
Ġ33 16
ak i
76 6
Ġfa cial
Ġe lder
Ġ24 10
Ġ24 51
oc he
Ġrest aur
olog ist
ĠBrit ain
Ġ29 58
Ġ27 40
Ġ27 39
ĠH alloween
05 5
93 4
ĠK id
Ġpresent ation
Ġamong st
D irector
Ġ21 38
Ġ29 02
Ġ29 96
Ġ32 16
Ġal ter
Ġr ank
Ġrob ber
Ġcyn ical
Des pite
un es
Ġ31 64
Ġ31 55
Ġ34 63
ĠB aby
12 9
ast e
Ġsur f
Ġflaw ed
bb ed
b our
Ġ28 27
Ġ30 08
Ġ31 92
ĠC ru
Ġr ub
ĠV amp
Ġspoil er
ĠAN Y
ĠWal ter
f its
Ġ26 71
am ie
ĠS id
Ġ32 13
Ġch ief
73 7
Ġassist ant
ĠUnd er
C T
Ġ16 32
Ġe th
Ġ28 71
98 4
Ġwere wolf
Ġdis gu
Ġtou ched
Ġpoign ant
Ġ26 21
Ġ27 01
Ġ31 35
Ġgreat ly
Ġbl ah
Ġdead ly
Ġign ore
Ġchall enge
b ox
Ġb ik
Ġp age
Ġ20 60
Ġ23 32
10 7
Ġ37 63
Ġle arning
65 5
ster y
Ġinspir ation
I A
Ġb uddy
Ġ27 82
12 5
el ine
ag n
09 8
78 4
78 9
Ġpo et
ian c
Ġmin imal
ĠUn like
Ġ21 07
Ġ27 50
id ers
Ġ33 68
ĠAr my
Ġpar all
ĠFran co
Ġadv antage
v ably
Ġ29 05
Ġpl astic
ĠN at
ĠCl ass
Ġdin osaur
b id
ar ter
Ġ28 72
Ġ27 67
Ġ30 45
Ġfl o
oc r
Ġpick s
Ġtur key
ĠSund ay
A A
p al
or c
17 6
76 8
ell a
Ġnew sp
.) <
Ġuncom fortable
Ġf et
Ġn ut
Ġ28 31
Ġ34 26
73 8
ĠL at
Ġmind less
Ġgra ve
con om
M ar
Ġ27 61
Ġex er
Ġall eg
Ġfl ight
sh ot
Ġcult ural
ĠTom my
j o
n or
Ġt on
ĠT arantino
Ġ28 51
Ġ27 87
ĠF air
Ġconf usion
Ġtechn ique
Ġcap ital
Ġsed u
C on
it chell
Ġ28 37
Ġ30 16
Ġ30 77
ĠG reg
ens ity
ĠWatch ing
Ġintern ational
Ġinit ially
U L
b u
Ġ urban
Ġ30 68
Ġinter act
ĠSat an
Ġash amed
ct ions
Ġ22 69
Ġ25 61
Ġ30 48
Ġ31 68
Ġch a
Ġra in
-- -
Ġhelp ing
Ġcol our
Ġwel come
b ook
g al
Ġ22 49
Ġst unt
Ġ28 90
Ġ27 48
Ġ27 81
11 4
ĠC ry
Ġhalf way
Ġrevol ves
ugos i
Ġth ro
Ġ21 35
Ġ25 80
Ġ25 54
Ġ31 08
Ġ32 99
ĠB u
ĠC arr
... "
iel berg
h ill
Ġp hen
Ġd ude
st op
ĠS chool
Ġ33 65
00 68
ant i
ĠJ ay
Ġocc up
Ġsett ings
m ates
Ġf ac
Ġh ipp
om er
Ġn ational
st ra
Ġ30 81
Ġ34 95
Ġsh adow
ĠL ane
qu is
the w
Ġstupid ity
Ġcor por
iam ond
Ch rist
U ST
i ber
Ġc ock
Ġ28 59
Ġ29 67
Ġ27 32
Ġ33 53
ment ioned
00 93
ĠM et
ĠD ream
ĠG er
Ġlist ening
Ġstrugg les
Ġ30 62
Ġ32 53
Ġ32 62
14 7
ust y
73 4
96 6
ĠBer n
l ove
Ġ/> (
ĠM id
Ġnot able
ck et
12 6
Ġex ch
Ġex ists
Ġra ise
ĠChar l
Ġb ird
Ġ22 51
Ġ32 84
Ġ35 26
ĠD i
ak y
25 5
Ġart ists
Ġrating s
Ġbal ance
ĠBas ically
w atch
ent ric
Ġ23 01
Ġ26 13
ĠS ir
Ġ32 10
Ġ32 23
Ġ32 64
Ġ34 92
Ġ36 26
ĠC as
04 1
05 4
Ġcred ibility
Ġatmosp her
l ist
m itted
or ation
Ġ28 03
op ath
78 8
ĠN orm
ĠK en
ĠK night
Ġret arded
Ġcred ible
Ġprofess or
Ġweek end
Ġast on
Ġgri pping
ĠMic key
d s
Ġ25 50
Ġ26 56
Ġ31 75
Ġ32 45
ĠC andy
Ġne ck
Ġtr ilogy
Ġvi g
cl aim
rill er
Ġsle azy
Ġb ow
Ġn ation
Ġ22 74
all ey
Ġ30 74
Ġ39 35
14 8
78 2
ĠR a
98 5
ish ment
Ġ155 6
Ġshort s
ĠPl an
Ġang le
Ġembarrass ed
ĠTurn er
C l
Ġw anna
Ġh ip
il ton
Ġ31 42
17 2
85 5
ĠAr n
Ġpure ly
Ġjour nal
M ost
Ġl aid
Ġ28 60
Ġ27 80
Ġ31 22
ĠB ollywood
Ġwe ight
pl ace
ĠK ane
Ġcl own
Ġperfect ion
vis ed
Ġescap es
Ġris k
ĠLind a
ĠKenn edy
Ġf il
Ġ29 10
Ġ29 97
Ġ30 18
Ġ32 55
12 2
08 9
95 3
ord s
ĠDe vil
im ents
Ġ29 71
Ġ33 24
Ġgu arant
ang le
Ġscript s
ĠBe ing
Ġtong ue
Ġantic ip
w hen
br a
Ġ27 07
Ġ31 33
Ġ33 13
Ġ36 24
79 6
ĠP rodu
Ġle tting
Ġguess ing
ĠSand ler
Ġt ense
Ġ29 84
Ġ34 46
Ġ35 43
ous es
79 4
og ue
Ġscreen writer
ĠSc ar
Ġdri ves
bl ance
Ġinnoc ence
Ġidi otic
Ġbase ball
Un fortunately
M aybe
in ate
Ġ16 56
ch ant
ĠSt ud
gg ing
Ġnet work
Ġgraph ics
Ġh iding
Ġ22 34
Ġ24 75
ĠS u
Ġ31 19
Ġ33 64
ab s
ple te
Ġoffic ial
Ġkidn apped
a ude
c ul
Ġc ases
Ġ26 29
Ġ26 31
Ġ28 69
Ġ36 55
ĠB on
ĠH unter
Ġus eless
Ġri pped
Ġback d
s chool
Ġc ave
or row
Ġ30 60
Ġ31 15
Ġ31 18
Ġch ap
ĠF onda
Ġro lling
ĠMar g
Ġinn ov
Ch ar
Ġsurround ing
ĠAnt on
Ġsepar ate
ĠMo vies
e tt
l ers
Ġf le
Ġf irm
ĠT ar
ad o
Ġ28 70
Ġ28 42
Ġ30 05
Ġ31 69
ĠB esides
Ġli br
ust rated
Ġact iv
06 8
ist ically
ook y
Ġcl ips
z illa
im ag
Ġst ated
Ġ27 86
ce llent
id a
Ġ31 71
Ġ33 84
Ġ36 28
Ġres ist
Ġter rit
av or
Ġexcept ional
Ġcarry ing
Ġfrequ ently
G ood
ri p
Ġ30 43
lin ers
Ġequ al
ĠOli ver
Ġ28 57
Ġ31 44
Ġ33 22
Ġ37 65
Ġun be
Ġad equ
Ġafter noon
red ict
Ġtop ic
ield s
Ġstru ck
Ġbelong s
u gh
Ġ29 41
Ġ27 31
Ġse vent
Ġ34 10
Ġ35 24
Ġ38 92
ĠC a
ĠH off
ĠP ort
96 2
pt ic
ab les
Ġvi vid
Ġpres ident
Ġsuggest s
Ġvamp ires
Ġ28 41
Ġ29 40
Ġ29 38
Ġ32 72
Ġ33 18
ĠWell es
TH E
al i
Ġ31 00
Ġ31 11
Ġ31 46
Ġ32 93
19 2
ag g
Ġacc ess
Ġnight mare
ĠMar ia
ĠBer g
A d
Ġo il
Ġ25 47
Ġ29 86
Ġ29 89
Ġ30 30
ĠB L
ĠP ower
Ġdis like
ĠIn ter
Ġbel oved
Ġprotagon ists
Ġthous ands
Ġmarvel ous
ĠMOV IE
Ġ23 59
Ġ27 23
Ġnot ed
ĠG riff
Ġstun ts
hum an
Ġfab ulous
Ġt une
at isf
Ġ29 57
Ġ32 88
Ġ32 87
Ġ39 24
Ġob lig
Ġinst all
Ġcar ing
oint ed
Ġann oun
Ġweap on
? ).
a ver
he st
Ġc ard
vi et
Ġwas ting
Ġ28 56
Ġ31 86
Ġ32 11
Ġ36 44
ul k
if ying
el ve
Ġcons pir
Ġind ie
i els
Ġb on
Ġc y
Ġg ain
Ġ33 25
ĠR and
pl o
Ġport ra
ĠCon nery
n es
Ġw ond
ad ows
ĠS ol
Ġ31 31
Ġ32 44
Ġ39 08
78 6
Ġar rog
Ġag ed
J ack
f act
it ar
Ġf ulf
Ġst iff
Ġ30 11
Ġ31 97
Ġ36 53
ĠW onder
09 9
78 7
ĠL OV
Ġaw ards
Ġel abor
oil er
opp ing
Ġinterpret ation
mind ed
B ra
Ġf inger
as ingly
Ġ28 39
Ġ30 10
Ġ32 75
Ġ32 92
Ġ34 44
ĠK irk
erson ally
Ġfair y
ĠItal y
W here
re c
Ġ33 26
Ġ35 45
ĠC are
Ġme at
28 5
Ġun p
Ġen orm
Ġqu een
Ġimm ense
Ġs incere
Ġ29 59
Ġ31 30
ĠR ain
ĠG reek
Ġunder ground
Ġdev il
ĠAb out
G r
T ER
f ight
s n
al ph
ce an
ĠM itchell
05 6
ĠL ugosi
ĠG et
Ġup set
Ġless er
Ġtrib ute
L D
ĠI ce
Ġ25 87
ĠH A
Ġj umps
ĠK urt
AN D
gy pt
Ġestabl ished
Ġt ag
oo ps
Ġ29 93
Ġ31 12
Ġ31 37
Ġ33 63
ĠM om
79 2
ert y
Ġcast le
ane y
ĠSp ielberg
Ġaccept ed
Ġment ally
Ġdisappe ar
Ġhe s
Ġ27 34
Ġ32 94
ag an
Ġcons ists
ĠBl air
Ã© e
Ġshoot s
Ġsleep ing
Ġrepe at
Ġthe ory
Ġl azy
us hes
Ġ25 56
Ġ28 77
Ġ28 91
Ġ28 38
Ġ27 41
Ġ34 83
Ġ34 66
Ġ35 91
Ġ35 69
Ġch air
Ġcon ven
ĠO kay
ci a
Ġv ent
Ġsp y
ĠIn tern
Ġtrans fer
Ġweak ness
vide o
Ġexplos ions
Ġth irty
Ġ29 56
Ġ31 93
Ġ32 85
Ġ38 43
73 9
ĠR achel
Ġsp ending
Ġco ach
umb s
Ġattempt ed
imp se
Ġbored om
ĠFred dy
d a
Ġ29 17
Ġ27 33
ĠS omething
15 5
ĠR un
74 9
Ġsuccess fully
Ġsol ve
Ġstri king
ĠThing s
Ġatmospher ic
i able
n ic
ed er
Ġ23 04
Ġ26 03
Ġ28 58
Ġ27 56
Ġ32 91
00 1
el ing
Ġgl impse
Ġmis cast
W ow
Ġ28 36
Ġ28 34
Ġ30 01
Ġ33 95
Ġ33 33
14 2
Ġpl ant
ĠR ing
Ġkn ife
ON E
Ġsexual ity
Ġpersonal ities
Ġbreath taking
N e
Ġt orn
Ġd ign
Ġ32 07
Ġtr icks
Ġperform ers
B LE
Ġ30 99
Ġ31 94
ĠB AD
Ġsm ooth
Ġfall en
ĠAustral ia
Ġsophistic ated
S S
p ut
Ġw reck
ĠI ra
Ġ29 06
Ġ30 54
Ġ35 99
18 3
65 6
ru cted
011 8
Ġult ra
Ġmil es
Ġcolor ful
ĠPhil ip
Ġt empt
Ġp iano
Ġd ump
ay ing
Ġ31 82
Ġ31 38
Ġ34 62
ck er
ĠH ad
ĠK rist
Ġtri umph
Ġmag az
Ġir ony
Ġtechn iques
Ġrepl aced
w hy
Ġ24 39
Ġ30 93
Ġ30 41
Ġ31 47
Ġ33 66
ĠR oss
ĠK ar
Ġcr imes
Ġopen ed
Ġunf old
H aving
Ġf est
Ġ28 81
Ġ28 50
Ġ35 16
Ġmed ical
Ġadvent ures
Ġconne cted
Ġmir ror
Ġ31 62
Ġ33 83
Ġ35 64
Ġ35 38
ĠC ome
ĠD ie
Ġj ack
Ġsee king
Ġsp oiled
ob b
Ġir onic
Ġphys ically
Ġspl end
Ġmans ion
i ently
he y
im um
Ġ34 05
Ġ35 00
Ġj erk
Ġle tter
we ight
Ġcont ract
ĠUn iversal
Ġcomed ian
Ġdest ro
Ġhom age
d og
m et
n an
o ca
Ġc itiz
Ġ31 99
Ġ32 28
Ġ32 48
Ġ32 47
Ġsh ines
ĠG oth
Ġover come
ĠCanad a
amer on
Ġmiser ably
O D
l if
Ġa ired
Ġc andy
Ġ25 67
Ġ33 99
Ġ33 62
Ġ37 96
Ġ37 23
75 7
ĠP G
Ġqu ote
Ġgr ows
Ġbro ke
ĠDun ne
Ġimagin ative
Ġrestaur ant
i pe
Ġ32 46
ath olic
Ġpr oof
ĠMar c
Ġbra nd
ĠFrank enstein
Ġmill ions
Ġspirit ual
Ġbatt les
ĠHoff man
C E
all o
Ġ29 36
Ġ30 34
Ġ30 59
Ġ31 70
Ġ34 24
16 3
est ed
18 9
Ġcan ce
ĠBe tty
Ġinst antly
Ġvide os
Ġref uses
Ġpsych iat
!!!! !!!!
cons cious
Ġrepet itive
S POILERS
t an
Ġ29 31
Ġ30 42
Ġ31 21
Ġ34 35
Ġ36 14
ĠH ome
el a
art s
65 3
ograp h
Ġclose ly
Ġcuri osity
Ġcharism a
Ġvac ation
pent er
Ġ25 01
ke ep
act ers
ĠL ion
Ġun inspired
Ġgo al
Ġcare fully
ĠInd ians
wy ck
c orn
w ife
Ġt rap
Ġ28 32
Ġ30 02
Ġ30 69
Ġ33 85
Ġ35 55
Ġ36 47
end a
Ġab ilities
ĠL I
Ġle gs
Ġill eg
Ġsent imental
ĠPr in
rif ied
ĠMass acre
Ġt ied
in ist
Ġp ush
Ġl ying
Ġ18 61
Ġ26 54
Ġ29 08
Ġ27 58
Ġ35 19
Ġ37 25
ĠD ad
act ed
72 4
ĠR et
Ġhand ful
AN T
Ġste aling
ĠAngel es
i h
Ġ23 40
Ġ30 97
Ġ31 84
Ġ34 53
Ġ33 03
13 9
15 9
Ġcommer ci
ĠLes lie
ĠSup erman
Ġg al
Ġst yl
Ġ30 33
Ġ30 67
Ġ32 12
Ġ32 50
ig an
Ġlo vable
Ġsa v
ograp hic
Ġed itor
Ġterror ist
O P
Ġto ile
Ġd omin
Ġhe aven
Ġ27 54
ĠA ward
Ġ30 87
Ġ31 50
Ġ34 55
13 6
Ġsp read
Ġri ver
Ġexpl icit
Ġobs ession
ĠMus ic
an ing
Ġ20 97
Ġ34 25
Ġ36 23
Ġ37 19
Ġch ases
ors es
Ġsp oken
ĠBe at
empt ion
Ġpat ient
Ġtre asure
Ġconsequ ences
writ ers
i ar
14 4
ĠD ri
Ġal right
Ġcompet ent
Ġhook ed
Ġincre asingly
Ġ29 72
Ġ36 96
Ġch oos
ĠF amily
og an
Ġpo ster
Ġsub plot
Ġappear ances
Ġtrouble d
Ġconcer ns
Ġarri ve
Ġ23 03
ĠA tt
Ġ30 57
ĠM ir
05 2
Ġlo cked
ĠK aren
Ġgu ilt
Ġcre ation
ĠLe g
S te
Ġn u
Ġ24 55
ĠA lf
Ġ31 39
Ġ34 56
Ġ35 30
Ġ36 64
ple asant
iz z
bb ing
Ġess ential
Ġneighbor hood
is ation
on ly
Ġbe er
Ġ26 61
Ġ29 60
Ġ35 92
Ġ35 28
Ġ38 78
16 4
Ġk ung
09 2
Ġlar ger
ic op
Ġ28 88
Ġ29 07
Ġ34 06
ĠR ep
Ġint ensity
Ġopp osed
Ġrepeated ly
Ġs ize
Ġth ick
Ġ32 57
Ġch illing
94 8
cc entric
ĠCl int
ps es
Ġimport ance
Ġaccept able
Ġspec ific
Ġinevit able
ĠChic ago
U S
h appy
Ġbe ating
Ġ21 72
Ġ29 47
Ġ29 87
Ġ27 78
Ġ27 55
Ġ30 12
Ġ33 59
ĠC ont
ĠH ave
Ġj ew
98 8
Ġfe ed
Ġintern et
Ġcraft ed
Ġrac ism
ĠKore an
Ġoutrage ous
Ġh ill
Ġ30 89
Ġ37 85
ĠW olf
18 6
ang ing
Ġelse where
Ġdevelop s
Ġrid ing
Ġcapt ain
Ġprostit ute
Ġabr upt
on se
Ġe erie
Ġ32 03
Ġ32 49
Ġ34 28
Ġ34 99
Ġ34 85
Ġ33 55
Ġ36 79
ĠM itch
Ġen semble
Ġcr inge
Ġself ish
Ġsuff ered
ĠREAL LY
Ġterrit ory
ĠBerg man
m us
Ġc ig
ic ing
ch ild
Ġ31 36
Ġ32 08
Ġ32 90
Ġ33 75
Ġ38 25
Ġexp ensive
Ġthrill ing
Ġident ify
Ġamb itious
Ġinvestig ation
ĠMiche lle
Ġ31 79
Ġ31 20
Ġ32 70
Ġ37 76
63 3
Ġprison ers
Ġpack ed
ĠSant a
Ġe conom
Ġ28 80
Ġ27 97
ke l
Ġ35 88
db oard
Ġsu its
65 2
pl ots
Ġtri al
ĠDo ctor
Ġamb ig
mo vies
Ġdro pped
Ġobsc ure
w oman
Ġ26 42
Ġ30 15
Ġ32 31
Ġ33 96
Ġ35 25
bl ood
min ute
Ġphilos oph
Ġe ager
Ġst umble
Ġ27 60
Ġ30 56
Ġ31 61
Ġ33 74
ĠL isa
ĠE gypt
Ġpre ach
ac cur
Ġbeing s
ĠU l
Ġfriend ly
Ġcar ic
ĠNe il
Ġrepl ace
ĠAli en
ĠBog art
Ġ29 50
Ġ31 02
Ġ31 26
Ġ32 36
Ġ36 07
Ġ37 44
00 95
ĠM ort
Ġkill ings
Ġenjoy ment
Ġnow adays
ĠSe cret
fic ial
Ġachie ved
Ġlif est
Ġcontrovers ial
Ġcous in
r ation
an ch
ĠT odd
Ġ18 38
Ġ21 39
Ġ29 01
Ġ30 72
Ġ34 69
Ġ33 98
Ġ33 48
Ġ35 44
Ġ35 62
Ġ36 99
16 8
ak a
ob e
ĠSo on
Ġour selves
Ġess ence
Ġmount ain
G reat
Ġ21 62
Ġ29 20
Ġ31 89
Ġ32 96
Ġ38 76
Ġ40 92
Ġk icks
ĠR ad
Ġtr ou
ob i
Ġhor rend
Ġrel ax
Ġstep s
Ġbroad cast
Ġintent ions
T om
p ost
Ġ34 78
Ġ33 71
Ġ33 69
Ġ35 21
19 4
Ġint ention
Ġtra um
Ġmon th
Ġdra gged
Ġimport antly
ey ed
Ġgrand father
Ġaut om
ĠPac ino
f ree
m aster
Ġto ss
Ġ29 39
Ġ30 21
Ġ32 17
Ġ32 29
Ġ34 93
Ġ34 88
ĠH ug
ĠH BO
13 2
16 6
Ġr at
Ġman ager
Ġsa ves
ĠVir gin
in ent
Ġg ee
Ġ22 27
Ġ28 74
Ġ30 37
Ġ31 34
Ġ35 18
Ġnot ch
ĠD ave
pl ane
ib l
cher s
Ġexer cise
Ġphen omen
T wo
Ġw ra
Ġ31 57
Ġ34 84
Ġ37 83
ĠW ere
28 3
ell ar
for ce
Ġhapp ily
Ġappe aring
ĠLuc as
w l
Ġl ust
Ġ31 10
Ġ32 73
Ġ32 69
Ġsh y
Ġsh out
ĠW ould
ĠW OR
Ġant ics
Ġmeaning ful
Ġign ored
Ġscient ists
ĠHard y
uther land
Da vid
L a
p ol
Ġa fore
Ġp ig
Ġ27 73
ĠA ud
Ġ30 49
Ġ32 02
ĠM AN
ĠTh anks
.... ..
ĠLu ke
ser ies
Ġhundred s
is ions
Ġ27 91
Ġ30 22
Ġ35 14
Ġ36 33
Ġ37 84
Ġ38 12
Ġ416 8
Ġele g
Ġdark ness
Ġthrill ers
af ia
Ġunfor gettable
s ky
Ġ26 50
Ġ30 91
Ġ30 39
Ġ32 71
Ġ35 48
Ġ36 92
ĠP ot
ĠF ore
ĠN ext
ertain ly
oil ers
Ġdest ruction
rif ice
Ġinex plic
? ),
Ġto w
Ġ32 20
Ġ32 21
Ġ39 28
ĠH ud
98 6
Ġno se
Ġche st
Ġhel icop
Ġinf amous
Ġ20 58
Ġ27 08
Ġan al
Ġ30 70
Ġ30 32
Ġ31 80
Ġ34 79
Ġ35 04
Ġ35 68
Ġ35 89
Ġ37 09
Ġ38 06
ĠK iller
Ġrem aining
ĠGra ce
Ġmad ness
Ġdoll ar
A K
Ġh ood
ĠT op
Ġ18 31
Ġ27 10
Ġ30 38
Ġ32 86
Ġ35 83
Ġ36 85
Ġ37 18
ĠC am
ĠV eg
Ġreason able
Ġtalk ed
Ġcor ner
unk y
Ġinsult ing
E l
G e
Ġin fect
Ġ24 91
Ġ25 69
Ġ32 59
Ġ33 05
Ġ33 94
Ġ35 98
Ġ35 33
Ġ37 45
Ġ39 14
Ġch amp
24 8
Ġup per
ink s
Ġpoint ed
Ġsex ually
Ġinc ons
ĠWill is
Ġstrange ly
Ġspl it
Ġhyster ical
oca ust
Ġs ings
Ġs ends
Ġw ishes
Ġ29 53
Ġ33 39
Ġ36 88
66 6
Ġbl ows
ĠV i
Ġdram as
Ġda ily
en es
Ġd om
Ġ27 89
id el
Ġ35 39
ĠR es
07 7
Ġhapp iness
av al
ĠCar penter
Ġhon or
c ult
Ġ ***
Ġhe alth
Ġ25 85
Ġ26 58
Ġ28 89
Ġ29 54
Ġ35 06
ĠH ot
95 8
ap es
ĠAl ong
Ġperson a
ann abe
ĠAr m
Ġvul ner
c op
e z
Ġc orn
Ġst ood
ĠS qu
ĠS uch
Ġ34 11
um an
ĠE ve
Ġtr ite
Ġhope fully
vent ually
ĠStan wyck
Ġmelodram atic
r ase
Ã ¡
Ġf ianc
ic an
Ġ26 02
Ġ31 32
Ġ32 04
Ġ34 68
Ġ36 63
Ġall owing
ĠR ee
Ġr uth
orm al
Ġvir gin
Ġble ak
s ch
Ġth read
Ġ33 97
Ġ39 33
ĠC ole
Ġchild ish
ism s
Ġsw itch
Ġse lling
Ġ31 48
Ġ31 58
Ġ35 50
Ġ37 58
Ġal b
ans on
Ġinst ru
Ġpres um
Ġnon etheless
Ġeng ine
ĠDu ke
Ġmotiv ation
Ġmanip ul
b us
Ġ20 38
Ġ30 82
Ġ31 90
Ġ32 77
Ġ34 19
Ġ33 56
Ġ35 74
Ġ36 19
Ġ37 69
ĠW oman
96 8
gg er
It s
Ġreason ably
Ġreturn ed
Ġincomp et
Ġt it
ĠI nt
Ġ25 98
Ġ35 78
Ġ38 75
ĠF le
Ġun pleasant
Ġstr anger
ĠDe finitely
Ġresp onse
Ġbeat en
Ġthous and
Ġassoci ated
b reak
e es
p se
Ġf ro
Ġg uts
Ġe ccentric
Ġ33 57
Ġ37 26
ĠW ater
Ġv icious
Ġindividu als
F inally
l ines
Ġg ut
Ġ28 25
id al
Ġ31 74
Ġ34 73
Ġ37 73
Ġ39 64
ore n
Ġwat ches
Ġsp ots
Ġlack ed
Ġsad istic
ĠBur ton
ĠArn old
h ar
p ieces
Ġb udd
Ġh ung
Ġn urse
Ġ27 71
Ġ30 09
ĠS orry
Ġ31 49
Ġ33 49
Ġ36 75
op hy
Ġr anks
ĠO z
ony m
head ed
Ġpleas antly
Ġvir us
Ġ: )
ĠS U
ĠS POILERS
Ġ32 81
Ġ34 57
Ġ33 73
Ġ36 00
Ġ39 94
ĠR uth
ĠF ather
Ġem br
Ġapp la
Ġlim it
Ġghost s
Q u
Ġg ather
Ġ27 53
Ġ34 91
Ġ34 31
Ġ37 12
Ġbu ried
Ġless ons
Ġannoy ed
Ġbus y
ov ich
Ġbrief ly
Ġtend er
Ġbackd rop
e very
Ġm ont
an c
Ġ33 31
Ġ35 20
Ġ36 29
el son
ak s
ud os
Ġshe l
Ġcar dboard
Ġreve aling
ĠBob by
ĠKarl off
f oot
br ick
ay e
Ġ28 47
Ġ34 34
Ġ33 34
ĠB all
Ġ39 92
ĠH ood
15 7
Ġr ushed
Ġwar n
Ġcreat ors
Ġgl ass
Ġtort ured
ĠRog ers
ĠOb viously
K e
Ġin se
Ġ30 04
Ġ33 08
Ġ33 01
Ġ35 42
Ġ36 20
Ġ37 43
Ġ39 74
Ġ48 53
17 7
Ġpl ague
ĠJ osh
ort ion
65 4
Ġatt raction
Ġter rifying
Ġbu cks
ĠCar ter
Ġdubb ing
A IN
a ust
Ġp ir
us ions
Ġ30 26
Ġ32 58
Ġ34 74
Ġ42 28
06 2
ĠG host
66 2
ier ce
Ġmedi um
Ġaccompl ished
ĠTar zan
Ġ26 43
Ġ31 29
ĠB rid
Ġ37 07
Ġ37 90
ĠC row
ĠC ameron
95 4
ap h
ell i
Ġcount less
Ġfour th
Ġstereot ype
E n
Ġm aker
Ġ32 25
Ġ34 98
Ġ35 85
ĠB urt
Ġ37 22
Ġ39 26
ĠM ill
Ġ38 08
Ġ40 53
ĠC ind
05 8
Ġhop ed
Ġcompet ition
Ġoccur s
ĠSin atra
onest ly
b ig
Ġh ype
Ġbe ast
Ġst aff
Ġ37 80
ĠW itch
Ġcon ce
Ġup s
Ġper pet
ĠIn c
Ġdra gs
ĠWalk er
Ġoverlook ed
s uch
Ġin co
Ġ30 61
Ġ30 40
ĠS utherland
Ġ35 36
Ġ37 75
Ġ40 35
19 8
Ġcom fort
Ġim it
Ġsurvi val
ĠAct ing
Ġbur st
Ġbre asts
r d
Ġd are
Ġ23 80
ri or
ĠS ex
Ġ31 59
Ġ37 28
Ġ37 48
os ing
Ġoff ering
Ġrevel ation
g ain
Ġ35 59
Ġ37 53
Ġ39 48
if ically
ĠD ays
em ies
ru it
ĠBe tte
Ġele v
velop ed
Ġpat ri
ĠMat thew
Ġportra it
0 76
P aul
b urn
k et
le g
Ġ32 76
Ġ34 96
Ġ33 46
Ġ33 80
Ġ36 12
Ġ36 09
Ġ40 21
ind s
res ents
... .<
Ġag ents
ob ic
Ġcharacter ization
ip es
Ġforg ive
ĠEm ily
Ġunint entionally
ĠColumb o
Ġnewsp aper
Ġf aced
ll i
le tt
Ġ32 89
Ġ34 40
Ġ34 32
Ġ33 20
Ġ35 41
Ġ36 89
Ġ39 96
00 88
Ġsh all
Ġpre cise
wh ite
Ġrele vant
Ġeng age
Ġproject s
P e
h alf
it ches
as ion
Ġ28 30
Ġ31 66
Ġ32 01
Ġ34 30
Ġ33 47
Ġ35 86
Ġ36 01
Ġ36 48
Ġ38 09
ĠC age
Ġch asing
18 4
Ġal beit
ie u
Ġfar ce
Ġtrans port
ĠII I
Ġwestern s
Ġresem bles
Ġcab in
Ġsubsequ ent
r r
Ġb ott
Ġin ject
Ġre vi
Ġ24 47
Ġ33 17
Ġ35 67
Ġ36 05
Ġ37 70
Ġ42 77
ag a
ab lish
Ġshow er
Ġreal ise
Ġatt end
gr ade
Ġmer it
Ġwall s
ĠJon athan
d em
Ġ33 00
Ġ33 87
Ġ35 87
Ġ36 98
Ġ37 98
Ġ39 53
Ġ40 63
ĠC all
Ġr amp
Ġar gue
Ġdialog s
Ġstrong er
Ġreturn ing
ĠGerman s
ĠChe ck
m it
Ġ venge
re et
Ġ25 52
Ġ31 27
Ġ37 79
00 84
ĠC atherine
ĠP oor
ĠR ome
Ġr hy
red ator
Ġstri ke
Ġcomb at
Ġfol k
Ġsuspect s
l an
he w
Ġd ub
Ġmo on
Ġ29 77
Ġ29 32
Ġ32 74
Ġ33 02
Ġ36 78
Ġ38 94
Ġ38 83
Ġ43 55
ĠH al
ĠR alph
ĠN ancy
Ġobs er
ĠLi ving
Ġsurviv ors
Ġs and
re tt
Ġin accur
st ep
Ġ35 09
Ġ35 53
Ġ37 11
Ġ37 20
Ġ39 85
ra ce
ĠM arsh
ind a
ĠV en
Ġsl aughter
ĠHar old
Ġaff ord
Ġstret ch
Ġlog ical
Ġtoile t
t own
ot a
Ġ34 20
Ġ34 51
Ġ36 66
Ġ39 00
Ġ43 03
ant om
95 2
ide o
Ġrem oved
Ġstr ing
Ġdr own
ĠInd eed
Ġeng aged
Ġdocument aries
Ġlibr ary
or al
ch a
Ġ31 51
Ġ32 24
Ġ36 10
Ġ39 78
ĠM ed
ĠL em
Ġ416 4
oub ted
Ġtremend ous
i ation
k o
Ġin fer
Ġe tern
ver ty
Ġ31 09
Ġ33 78
Ġ33 54
Ġ35 66
13 7
ĠF ul
Ġstud ios
Ġdeal t
Ġtre nd
OM E
Ġjump ing
Ġhighlight s
O ther
b ased
Ġb ill
Ġ28 64
am an
Ġ31 76
Ġ33 04
Ġ36 34
Ġwe bs
Ġfe ars
ob s
Ġrest ra
Ġplan ning
ĠCom edy
Ġelect ric
Ġfif teen
Ġwond ers
f ast
h igh
p o
u ate
Ġw icked
Ġp seudo
Ġ27 74
Ġ31 72
Ġ32 78
Ġ32 35
Ġ32 27
Ġ32 52
Ġ35 05
Ġ35 81
Ġ40 18
ĠC ub
ne ver
iv an
atter ed
ains aw
Ġpain ting
Ġbrill iance
Ġmist aken
Ġattract ed
gen er
ĠCamp bell
ĠCinem a
' .<
Ġp in
Ġ20 29
Ġ33 79
Ġ36 77
Ġ37 02
Ġ37 99
Ġ39 47
11 1
Ġ38 74
ĠH as
Ġsh oes
23 5
ĠK n
Ġmot or
ĠGold en
ĠJess ica
S ee
b orn
d ated
e ff
Ġc e
Ġl abor
Ġ27 37
Ġ30 88
Ġ33 09
Ġ37 01
ra el
ĠW oo
15 1
ag ine
ĠR ight
ĠN et
Ġwork ers
Ġwonder ed
Ġdri vel
Ġlands cape
ĠZomb ie
p aced
id ly
Ġ32 06
Ġ34 38
Ġ37 62
Ġ37 52
Ġ38 65
ĠG RE
Ġbl ast
Ġsl ick
Ġins ist
Ġca using
Ġimm igr
Ġrequ ires
Ġinvestig ate
Ġencoun ters
Ġelder ly
en berg
ic ient
Ġg if
Ġ34 77
Ġ34 90
Ġ35 34
Ġ36 60
Ġ39 22
ul oid
18 2
Ġpl anned
Ġlo ad
Ġhor rid
cl ub
ĠSo viet
ĠQu aid
Ġalco hol
Ġg ift
Ġ26 30
Ġ30 71
Ġ30 86
ro b
Ġ33 77
Ġ44 55
17 8
Ġman iac
Ġmy st
Ġres our
Ġcare ers
ER E
Ġcame os
Ġside kick
Ġrequ ire
ĠPol ice
Ġreact ions
A ct
Ġ31 87
Ġ34 36
Ġ33 93
Ġ33 07
Ġ33 88
Ġ33 41
Ġ35 75
Ġ36 22
Ġ39 37
Ġ38 01
Ġ38 33
Ġ45 55
Ġal ike
ĠG un
ind u
res p
Ġconf ess
Ġsuper ficial
ĠRe yn
Ġgener ous
Ġthrill s
ĠSome one
Ġer rors
Ġidi ots
Ġfort une
Ġcow boy
ffe e
ĠHud son
Ġt all
Ġm ic
on i
Ġin form
ĠM other
Ġ38 50
Ġ38 54
ĠC ould
73 2
94 9
ack y
ott ing
Ġposs ibility
Ġflaw less
Ġadapt ed
Ġprovid ing
Ġrap ed
Ġbase ment
ĠIra q
g reat
h ist
Ã ¨
Ġh orses
ic ian
Ġ30 03
Ġ34 12
Ġ37 16
Ġpo verty
Ġmain t
Ġgrou ps
**** ****
ĠTr ue
Th ough
ĠNaz is
A ST
J ames
he im
oo led
Ġ33 30
Ġ33 51
Ġ36 71
Ġ38 68
Ġpre cious
ac c
Ġinter action
Ġext ended
ĠCl aire
Ġtal es
Ġdaughter s
Ġwid ow
b an
Ġ34 52
ĠB ros
Ġ39 84
Ġ43 44
Ġ46 44
Ġwho ever
Ġab ys
be cause
Ġdirector ial
Ġsm oking
Ġrel uct
atch able
Ġmeaning less
Ġende aring
wor ks
plo itation
m aybe
Ġm es
il ted
ĠT en
Ġ27 47
Ġ31 28
Ġ35 76
Ġare as
ĠL ake
ĠG ive
Ġcl ues
Ġargu ment
Ġhol iday
h o
j ointed
k ish
as er
Ġ/> '
Ġst ead
Ġ30 06
ĠS pecial
Ġ32 51
Ġ34 49
Ġ39 88
Ġ38 31
ĠF R
ĠG ib
ĠN ob
ere k
Ġcomp assion
Ġbuild s
amb ling
Ġcommerci als
e er
ĠA k
Ġ34 15
Ġ34 37
ĠB art
Ġ42 79
Ġ42 74
ĠC aine
Ġwhe el
Ġme asure
Ġdis plays
Ġri ve
Ġmen acing
Ġstri p
Ġpret end
Ġoffic ers
ĠSer iously
Ġaffect ion
Per haps
Ġ30 84
Ġ32 30
Ġ39 16
ĠC ur
24 2
Ġbl ank
Ġdiffer ences
ĠRe al
Ġrep resents
ĠMc D
Ġmusical s
Ġadv ance
Ġdrunk en
Ġafore mentioned
E L
Ġ30 27
ĠS en
ĠS ur
Ġ32 39
Ġ34 41
Ġ33 52
Ġ35 29
Ġ36 83
Ġ39 03
00 86
Ġ38 55
Ġ40 29
qu er
ĠN ational
ons on
Ġeas ier
Ġadm ire
Ġridiculous ly
St ill
Ġprog ress
Ġcharism atic
Ġt ons
Ġf u
Ġ30 36
Ġ34 02
Ġ33 82
Ġ36 08
Ġ37 55
Ġ39 25
92 4
ell er
ph an
Ġpop ulation
Ġlos er
T oo
t le
at ched
Ġth rew
Ġ34 89
Ġ35 73
Ġ39 19
Ġsecret s
Ġoccur red
redict able
! .
n est
w ind
it udes
it chen
Ġ38 45
14 6
Ġwor ried
ĠJ amie
23 4
Ġsm oke
sh ow
Ġgener ic
Ġmess ages
Ġdev ast
Ġevid ent
Ġ =
en ger
Ġ32 38
Ġ36 86
Ġ37 71
00 44
Ġ38 53
ick ing
ep ing
Ġlik ing
Ġbor row
Ġsurround ed
AC K
Ġcal m
Ġhe ight
Ġ36 16
Ġ36 95
Ġdis ease
ER S
Ġcheck ing
Ġterror ists
Ġtravel ing
Ġunbelie vably
Ġbull et
Ġphotograp hed
Ġcann ibal
oubted ly
R ich
Ġm aid
Ġh itting
Ġre li
Ġ25 41
Ġ25 57
Ġ28 29
Ġ29 62
Ġ34 09
Ġ36 18
Ġ39 18
Ġ38 14
Ġ43 25
ĠC ary
Ġ44 48
Ġ45 72
23 7
ors ese
Ġhor rors
old en
Ġhard er
Ġfr ustrated
Ġdem ands
Ġtravel s
miss ion
T r
V ery
b ow
r um
Ġ30 98
ro ck
Ġ34 75
Ġ33 67
ĠB ay
ĠB uck
Ġ42 43
Ġ38 72
Ġ38 63
Ġ40 26
pe l
ĠO wen
od ge
Ġen emies
be c
the n
Ġprodu cing
Ġscript ed
Ġsac rific
Ġhorrend ous
ot o
Ġn erv
ĠA T
Ġ34 04
Ġ34 07
Ġ34 59
Ġ36 97
ĠB us
Ġ37 57
Ġ38 28
Ġ38 56
Ġ44 08
Ġ45 17
Ġr ow
ĠK ath
Ġoff ended
Ġatt ached
Ġra cial
Ġexpl od
ĠDra gon
ĠTe chn
Ġmiser able
Ġs ons
Ġto ol
Ġ27 26
Ġ32 09
Ġ35 07
Ġ35 84
Ġ36 57
Ġ37 37
Ġ37 51
Ġ42 35
Ġ40 84
Ġ44 06
em ark
ĠF ire
Ġcar n
Ġconvers ations
h our
r un
Ġn ine
Ġ31 05
ur istic
Ġ38 17
Ġ46 28
94 6
ĠN ol
Ġbl end
Ġdec isions
Ġcare d
ĠGod zilla
Ġill ustr
Ġnarr ator
Ġpub l
urp ris
rel ated
Ġconspir acy
u mentary
Ġt om
Ġf ed
Ġto y
Ġin her
Ġ32 60
Ġ33 86
ĠB a
ĠM od
Ġ42 89
Ġ38 49
Ġout come
96 4
43 6
hat tan
Ġapp alling
Ġexpl ore
Ġpick ing
upp et
ĠPro bably
Ġcontinu ed
ixt ure
Ġisol ated
Ġruth less
Ġ30 28
ĠS ally
Ġ39 89
ge on
Ġdis miss
Ġsp ooky
ĠCh aney
Ġbelie ving
ĠFor ce
Ġescap ed
Ġsymbol ism
Ġw ake
Ġre aches
ĠS ub
Ġ34 01
Ġ39 75
Ġ42 64
Ġ42 45
Ġ38 29
Ġ40 32
ĠR ow
um sy
23 3
ort al
33 3
Ġpre de
ĠU N
Ġind ul
ĠUn cle
olute ly
St ar
Ġtick et
Ġjeal ous
b ie
Ġf ired
ri en
Ġ35 54
Ġ36 13
Ġ36 46
Ġ37 61
Ġ39 77
Ġ39 54
Ġdialog ues
ĠMar ch
Ġcoll abor
ĠMc K
ĠSci ence
ĠPre tty
ĠFul ci
Ġf rench
Ġst ole
Ġ31 73
Ġ32 18
Ġ34 70
Ġ38 64
Ġ43 28
15 0
ard o
Ġdet ailed
Ġpass es
Ġadm itted
Ġtyp ically
Ġir on
bl ack
ĠGe or
Ġswe ar
orth y
Ġunw atchable
Ġresol ution
ĠFre eman
ĠSwed ish
c at
d ep
Ġs ill
Ġ16 89
ver ted
Ġ26 59
Ġ31 83
Ġ34 16
Ġ34 58
Ġ37 81
Ġ39 72
Ġ39 70
ĠW end
ĠD rew
Ġtim eless
Ġadd ict
Ġ412 0
Ġsubject s
Ġsent ence
uri ous
Ġphotograp her
Ġsac rifice
Ġredu ced
Ġc ens
Ġd ire
Ġd aring
ĠT erry
Ġ36 36
Ġ37 68
Ġ45 53
ĠF OR
Ġworth less
Ġacc used
av a
Ġdan cer
ĠFl or
( ..
ĠT ru
ĠA w
Ġ30 76
Ġ35 08
Ġ35 32
Ġ37 04
Ġ39 82
Ġ46 92
06 6
94 2
Ġgu ide
Ġperfor ming
Ġgot ta
icul arly
aster n
Ġ419 9
ĠRe g
Ġlist ed
ĠMur ray
f aced
Ġg ro
Ġ17 52
Ġ36 91
ment al
Ġ37 10
Ġ39 46
Ġ39 39
Ġ46 63
65 8
oc ative
ortun ately
Ġcor pse
Ġhat red
Ġexagger ated
Ġmetap hor
Ġrobber y
Ġaston ishing
Ġprede cess
c am
al so
Ġbe w
ĠS ing
Ġ35 97
ĠB ald
Ġ45 26
Ġde ce
ĠF u
ĠF ant
93 2
24 5
iz ations
per fect
Ġ410 3
Ġdet ect
Ġsad ness
Ġple ased
Ġing en
Ġbath room
Ġlifest yle
Ġinco herent
d an
p in
Ġl it
Ġ36 76
Ġnot es
Ġ38 07
Ġ43 63
ĠW ow
Ġdo omed
ĠF urther
Ġdis jointed
Ġrec over
Ġabs ence
Ġ410 6
ĠBl ock
Ġdefin ite
Ġmark s
ĠNor man
Ġimpl ausible
Ġcell uloid
Ġachieve ment
ĠReyn olds
G od
t wo
or ic
tt a
Ġ23 36
Ġ35 12
Ġ36 06
Ġ36 49
Ġ37 60
Ġ43 26
Ġcom fortable
Ġde ar
ĠN elson
Ġdist ance
Ġmis under
Ġnear by
ĠFilm s
Ġdiscuss ion
Ġstink er
Ġgrad ually
uls ive
N ight
Ġc ried
Ġ24 96
Ġst aged
st ars
Ġ29 69
Ġ34 03
Ġ35 02
Ġ35 46
Ġ36 62
Ġ36 82
ĠB ush
Ġ37 82
Ġ38 58
Ġ40 62
ven ile
ĠJ u
ĠK er
aw are
Ġgen res
ex istent
Ġ419 2
uff y
Ġred emption
ĠStre ep
Ġcas ual
m akers
s k
z ing
Ġs am
Ġb old
Ġ34 97
Ġ34 86
Ġ37 77
Ġ38 46
Ġ47 14
Ġ48 77
ĠP o
og ical
Ġag ing
Ġent ers
ash a
Ġpolit ically
Ġcompl aint
Ġsign s
Ġdeliver ing
Ġresp ond
f unny
t alk
Ġt ie
Ġp sy
Ġhe ist
Ġ36 30
Ġ37 66
Ġ39 12
Ġ42 63
Ġ40 27
24 3
ere lla
Ġfun eral
Ġfl u
Ġnever theless
Ġ412 7
Ġ418 8
Ġpull ing
Ġinsp iring
d est
m un
ic ations
il arly
Ġ28 11
Ġ31 03
Ġ31 40
Ġ34 43
Ġ43 50
Ġ47 75
Ġr ural
Ġno ble
our t
ang es
Ġposs essed
Ġaffect ed
ĠHigh ly
Ġrece ive
B ad
Ġw ont
Ġh un
am eless
Ġ34 48
Ġ33 38
Ġ42 33
Ġ42 61
Ġ40 83
Ġsh if
ĠG ill
ob al
ĠAl most
Ġkid ding
Ġdev oid
Ġrecogn ition
ĠStan ley
Ġbirth day
Ġproceed ings
Ġcris is
at ures
Ġbe ats
Ġ28 95
ĠS a
Ġ31 91
Ġ32 32
Ġ34 27
Ġ36 39
Ġ40 64
Ġ48 92
ĠW ard
th riller
Ġun e
Ġpo ison
Ġcons erv
Ġ419 7
Ġhero ic
Ġunf air
Ġintri gue
Ġcamer as
Ġinstall ment
m aker
Ġh unting
Ġd uty
Ġg all
Ġ30 52
Ġ34 22
Ġ33 06
Ġ36 54
Ġ37 35
00 98
Ġ38 86
Ġ38 89
Ġ40 22
ĠC ase
ul arly
Ġ46 54
Ġhum ili
Ġco vers
Ġing red
C he
p a
r im
Ġf itting
al a
Ġe gg
ĠT ri
Ġ31 41
Ġ32 40
Ġ39 57
Ġ40 99
ĠH olly
est on
Ġpro ps
ĠN in
ĠHe aven
Ġhard core
Ġ412 2
umb les
ĠIs rael
Ġconv entional
Ġfort un
ĠLaw rence
Ġarrest ed
H ey
Ġh ire
Ġh unter
Ġ34 47
Ġ33 36
Ġ42 10
Ġ45 64
Ġ52 76
Ġal together
Ġtri o
Ġco ffee
Ġ416 3
Ġexp osed
Ġpop corn
Don ald
Ġdig ital
Ġf oul
Ġb og
om ers
Ġg imm
Ġ28 10
Ġ28 73
Ġ37 72
Ġ37 36
Ġ39 27
Ġ42 26
Ġ38 73
Ġ38 30
Ġ45 28
Ġheart s
Ġsent iment
Ġobs erv
ĠDam me
f an
Ġw rap
on er
Ġd re
Ġ23 10
Ġ35 80
Ġ36 73
Ġ40 67
ĠC atholic
iz able
Ġafter wards
ĠWh atever
onic a
ĠCra ig
ĠBoy s
worth y
ĠHop kins
ocal yp
c ingly
j i
Ġs en
ĠS ister
Ġ33 60
Ġ37 40
Ġ39 95
Ġ39 67
Ġ38 00
Ġ38 62
Ġ38 47
Ġ38 37
Ġ40 89
Ġ40 36
ĠP am
94 4
ci ence
iz ard
Ġwhere as
Ġ411 1
Ġfan cy
rib ute
Ġscream s
Ġcaptiv ating
Ġfinan cial
Ġw ard
it able
Ġ30 58
Ġ34 50
Ġ35 63
Ġ35 37
Ġ36 42
Ġ37 00
Ġ37 39
Ġ39 73
Ġ42 84
Ġ38 05
Ġ38 80
Ġ40 10
ĠW y
ĠF i
Ġme chan
ĠE N
Ġcl ic
ull ivan
Ġaud io
ograp hed
ĠSc orsese
ĠAt l
ĠHam mer
Ġur ge
ĠKu brick
ĠAlf red
" ;
Ġt ail
Ġw est
ou p
Ġin app
ot te
Ġ25 38
Ġ34 71
Ġ39 10
Ġ39 59
Ġ40 44
Ġ40 85
Ġ45 16
Ġ46 85
79 7
ĠG al
Ġsp are
Ġsl oppy
Ġgra b
Ġburn ing
Ġbene fit
Ġphilos ophy
ĠIre land
Ġelabor ate
w ill
Ġp ushed
Ġ33 21
Ġ33 27
Ġ36 69
Ġ43 14
Ġ45 08
ĠW I
Ġ412 4
ok ed
Ġ400 8
Ġdep ressed
Ġdark er
Ġmor ality
Ġmot ives
Ġhonest y
Ġprim arily
Ġdign ity
ocalyp se
r ict
Ġb ust
ent h
oo ge
Ġ33 40
Ġ33 58
Ġ35 90
Ġ37 42
Ġ39 76
Ġ38 10
Ġ49 63
19 1
Ġwe b
92 5
Ġcl umsy
Ġover done
Ġhead ed
Ġill ness
Ġunf olds
Ġsymp ath
Ġrecord ed
Ġdraw s
rehens ible
Ġadequ ate
it ual
br id
al o
oo ges
Ġ39 09
Ġ38 97
Ġ40 23
Ġ40 20
ĠC ow
04 0
Ġag reed
Ġtra cks
Ġ412 5
land s
Ġgl ory
Ġ413 0
ĠChrist ie
che ck
Ġslight est
Ġconcer ning
ĠMat th
Ġbull ets
ĠMus lim
---- ----
Ġassass in
ĠCurt is
Ġs outh
Ġp ants
Ġst icks
Ġ33 15
Ġ37 56
Ġ40 47
Ġ44 68
Ġ46 53
ĠE X
Ġtr ade
ĠV is
Ġcons um
Ġdem ons
Ġopin ions
Ġdev oted
Ġprog resses
ĠRobin son
Ġinvolve ment
le ton
le ading
ad ine
Ġ28 20
Ġ34 42
ĠB ry
Ġ37 14
Ġ39 30
Ġnot orious
Ġ38 36
Ġ40 95
Ġ47 76
93 8
45 5
45 8
Ġins ert
Ġodd ly
Ġclim b
Ġsubtle ty
war f
ĠRuss ia
ops is
ĠWild er
Ġstrict ly
Ġenorm ous
a ith
r ink
w as
Ġw annabe
Ġth ief
ĠS outhern
Ġ32 95
Ġ32 37
Ġ35 57
Ġ39 49
Ġnot ion
ĠH ills
Ġch ain
ĠP en
ĠP ersonally
Ġun original
Ġgr otes
ĠSh ort
Ġ414 4
Ġstri kes
ĠMor ris
Ġgold en
Ġloose ly
Ġdynam ic
Ġunse tt
z er
Ġt ires
Ġa ck
Ġh unt
Ġ29 51
Ġ33 11
Ġ36 90
Ġ36 81
Ġbut ton
Ġ40 75
Ġ44 44
Ġ45 65
Ġ45 35
ĠD erek
!! !!!
li k
Ġbra ins
Ġsuperb ly
Ġdisturb ed
Ġscient ific
Ġtrad emark
Ġest ate
On ce
ĠEll i
p an
t urn
Ġ ..
it ched
ou red
ĠT R
Ġst one
Ġ34 82
Ġ38 27
Ġ38 48
Ġ40 78
Ġ40 28
Ġ45 75
72 7
ĠL amb
... )
Ġabs orb
Ġdet ract
ĠCl ub
Ġresem blance
rele vant
Ġmagaz ine
Y e
Ġ28 75
Ġ28 67
am y
Ġ37 17
Ġ39 05
Ġ39 98
Ġ39 07
Ġ38 69
Ġ40 54
Ġ45 22
Ġ48 25
06 9
Ġor ders
ĠJ ake
ĠAl t
Ġsa il
Ġ416 5
Ġ410 7
ĠSp ain
Ġclot hing
Ġburn ed
Ġseg ments
Ġinvent ive
Ġsche me
ĠArgent o
Ġdeliber ately
C M
O r
Ġm ixture
Ġp itch
Ġl ake
ot al
Ġre ached
Ġ32 82
Ġ39 80
Ġsh ine
ĠL ang
oy le
Ġcl osed
Ġpre jud
ass ed
Ġco herent
Ġ416 1
Ġsmall er
Ġsil ver
Ġilleg al
Ġack now
' )
H ING
i ere
Ġ ;
Ġa x
Ġf i
Ġbe friend
Ġ28 13
Ġas p
Ġ34 81
Ġ36 80
Ġ37 27
00 76
Ġ42 98
Ġ38 24
Ġ40 38
Ġ43 74
Ġ43 43
ĠC IA
el ic
23 8
ane ously
Ġ419 0
sych o
ON G
Ġstay ing
Ġcur se
ĠEm ma
Ġexplain ing
Ġaim ed
ĠNever theless
Ġfra g
ĠFrancis co
Ġinhab it
Ġw et
Ġ26 09
am ber
ir ts
Ġ32 98
Ġ34 61
Ġ35 58
Ġ39 01
00 63
Ġ42 57
Ġ38 99
Ġ38 32
Ġ43 35
Ġ44 30
Ġsh irt
19 9
ĠR ic
ĠR aj
Ġcon clud
68 5
ik o
Ġodd s
ĠMat rix
Ġlif etime
ĠGirl s
ĠNE VER
H igh
Ġ35 77
ĠD own
ĠE ventually
Ġro ot
Ġcomment ed
âĢ Ļ
W atch
f ront
n ame
Ġ **
ent in
ke ys
Ġ36 50
00 83
ĠM eg
ter day
12 7
25 4
Ġno ise
use um
uck er
ross ing
Ġpsych otic
Ġsil ence
Ġgrand mother
Ġimpro ved
ĠBarry more
ĠAndrew s
ĠIre ne
m is
v ity
Ġc ards
Ġg ig
Ġ36 11
Ġ36 37
ĠB ac
Ġ37 33
Ġ42 46
Ġ48 63
ĠF iction
68 4
43 8
Ġfun ction
ĠCh urch
Ġenjoy s
Ġcreat ivity
Ġmiss es
che t
ĠNe ed
Ġintrigu ed
Ġdistract ing
Ġdivor ce
Ġblat ant
Rich ard
Ġnerv ous
f u
o cc
Ġh ates
Ġ36 51
Ġ36 56
Ġ37 34
Ġ39 11
Ġ42 01
Ġ38 66
12 4
ĠL in
45 3
for ms
de ad
Ġthought ful
Ġmain tain
Ġ400 0
Ġmurder ous
Ġsimilar ities
Ġgang sters
Ġpot entially
ĠOsc ars
Ġcur s
ival ent
Ġinflu enced
Ġfrustr ating
Ġliber al
ĠGriff ith
ĠI ng
Ġ25 97
Ġ36 38
Ġ38 79
Ġ38 41
Ġ43 97
ĠH ann
Ġ45 25
Ġ47 18
Ġ48 44
Ġ48 85
Ġdef end
commend ed
Ġequ ip
Ġest ablish
Ġregard less
Ġcurrent ly
ĠWalk en
ĠWall ace
0 75
S POILER
u able
Ġbe ars
ĠT imes
se cut
Ġ34 76
Ġ34 67
Ġ35 47
Ġ39 65
Ġ39 36
Ġ39 34
Ġ44 60
ĠD awn
ĠR oll
ĠR ather
ĠE p
Ġro cks
Ġund oubtedly
Ġcons cious
Ġ411 8
Ġtechn ically
Ġdu o
h s
Ġs arc
ic ol
ĠI an
Ġe go
Ġ27 62
ĠS yl
Ġ34 87
ĠB aker
Ġ39 87
ĠC old
ĠD oll
ap ed
26 8
Ġrel ent
Ġclass ical
Ġ411 3
Ġhope less
AR D
ĠWood s
Ġprofess ion
ĠRom ero
Ġthro at
a ign
l on
l aim
Ġb es
ll o
Ġe g
ch o
Ġ29 78
Ġ35 11
Ġ37 41
Ġ38 11
Ġ40 56
Ġ46 22
ag ain
ĠG i
ĠN ik
Ġad oles
Ġag rees
Ġimp erson
Ġcou ples
oss ibly
Ġ412 3
Ġmove ments
ĠAngel a
ĠMi ike
Ġrub ber
" ...
s ay
z el
Ġt aught
Ġp atter
ct ic
vi er
Ġ39 20
Ġ42 55
Ġ40 66
ĠH ung
14 9
Ġ49 64
Ġ46 13
rom a
ud ed
Ġend ings
Ġ410 0
Ġmon ot
Ġdevelop ing
Ġpsych opath
Ġprim ary
ĠLOV E
Ġhelicop ter
" -
A ng
Ġ33 61
Ġ37 88
Ġ37 91
Ġ39 68
Ġ42 93
Ġ42 41
Ġ38 20
Ġ48 90
ĠD irect
Ġcom ics
ĠP age
72 9
ĠF all
Ġam use
Ġperfor mer
yp ical
Ġ418 4
Ġhilarious ly
udd led
Ġamount s
ĠEVER Y
ĠVamp ire
Ġarrog ant
E d
r in
Ġ [
re ep
Ġin ane
ct ors
Ġ31 60
ur g
Ġ40 11
Ġ40 42
Ġ43 96
Ġ46 69
Ġpl ausible
Ġ419 3
ann els
Ġsoul s
yr ics
Ġsole ly
Ġju venile
b ound
l en
Ġs ales
Ġo ught
Ġg arden
Ġ36 31
Ġ39 55
Ġ39 38
Ġ43 08
Ġ48 16
Ġ48 64
ĠJ ord
ig e
Ġtw in
Ġag g
ĠBr onson
Ġ400 3
ĠLe igh
Ġrecogn ized
Ġvul gar
O ST
r ows
en cies
at ics
ir ley
Ġ35 95
Ġ39 06
Ġ38 67
Ġ40 43
Ġ43 88
ĠC us
Ġ44 51
Ġ49 59
Ġ50 26
ol ves
ist an
Ġint im
ars on
Ġem pat
Ġ400 5
Ġdist ant
ĠCl aude
Ġprom pt
ĠGr ade
Ġthank fully
ĠDian e
Ġut il
Ġs ixt
ĠT al
ĠA ri
ĠA bs
ĠS ky
Ġ39 83
Ġ42 38
Ġ40 79
Ġ40 74
Ġ47 79
Ġ46 01
ĠF riend
ĠN iro
ang el
Ġem p
Ġtitle d
oke y
vol uted
Be fore
Ġbene ath
ĠWat ers
ĠLaure n
p arent
Ġb ridge
or ia
Ġ23 27
Ġ33 19
Ġ37 29
ĠM ars
Ġ40 12
Ġ40 19
Ġ48 01
16 9
24 4
23 6
Ġun even
ru ci
Ġra ge
Ġhand ed
Ġ415 5
ĠSe ason
ĠSc ream
Ġtrans formation
Ġthreat ening
Ġwitness ed
ĠWat son
Ġchore ography
Ġguest s
Ġinnov ative
Ġpsychiat rist
m ail
an im
Ġst abb
Ġ36 21
Ġ38 39
ĠC op
ĠH ist
Ġ47 53
Ġ47 54
Ġdo z
Ġex hib
ol k
92 2
Ġdis li
ens ions
Ġacc laim
Ġshort ly
Ġpar an
ma res
Ġconst ructed
Ġsuggest ed
Ġmod els
Ġsucceed ed
De ath
Ġblock buster
ĠPrin cess
Ġphilosoph ical
r s
w ed
Ġ28 65
Ġ36 32
Ġ36 52
Ġ39 32
ĠM ason
Ġ44 28
Ġ45 68
ĠHe y
Ġ400 9
Ġmon olog
Ġass ault
ĠMy ers
arre l
Ġkick ed
Ġexplos ion
ĠPict ure
Ġpoet ry
Ġunbe arable
Ġmes mer
M any
b uck
l am
u ated
Ġ34 17
Ġ39 45
Ġ42 14
Ġ42 95
Ġ40 58
Ġ43 31
ĠH ust
Ġ47 38
Ġch ances
qu el
ĠF oster
Ġ41 10
Ġtw ins
Ġpart ies
Ġsa f
ĠCar rey
Ġbuild ings
Ġconsist ently
Ġwebs ite
i ri
Ġ36 04
Ġ36 65
Ġ38 38
Ġ46 27
Ġsc ores
Ġdo ors
06 4
ĠR ud
64 8
Ġshe lf
Ġv oy
Ġfl ag
ĠBe ast
Ġart ific
Ġ419 6
Ġstr ang
Ġ414 9
ĠMan hattan
Ġstra nd
Ġeight ies
Ġcitiz ens
Ġequip ment
P eter
ĠA le
Ġ30 95
Ġ37 67
Ġ39 15
Ġ39 44
Ġ40 40
Ġ43 29
ĠH y
Ġor che
ind er
sp ir
Ġexplo it
ĠCent ury
Ġded icated
Ġsimpl istic
d in
Ġt ad
Ġ22 96
ĠS C
Ġnot ably
Ġ42 15
Ġ42 65
Ġ38 02
Ġ38 44
Ġ40 41
Ġ45 04
ĠL en
93 6
Ġdis played
Ġpr ay
Ġ412 9
Ġ411 4
Ġ414 8
Ġsusp ic
head s
ĠCass ave
L ook
p son
Ġs its
Ġs outhern
Ġf acing
ĠA my
Ġ35 35
Ġ35 31
Ġ36 40
ĠB urns
Ġ39 97
Ġ42 72
Ġ38 61
Ġ44 11
th ink
ĠR ub
Ġbl owing
ĠCh ase
ĠV ideo
Ġport ion
Ġuse ful
st age
Ġ37 31
Ġ43 13
Ġ43 23
Ġ43 33
Ġ46 31
ĠD utch
92 6
92 8
Ġle ague
68 9
ick en
man n
ex p
Ġdep end
Ġcop ies
Ġsurvi ved
Will iam
Ġgrotes que
ruci ating
S er
l ad
es is
Ġp ays
Ġd ict
Ġg est
Ġst ro
ĠA W
Ġ34 94
Ġ37 87
ĠM ade
Ġ43 80
Ġ43 47
Ġ50 55
Ġgood ness
Ġsp ort
Ġinst ant
ĠBl ake
Ġir relevant
Ġbrut ally
Ġneigh b
r at
v all
y ll
Ġc up
ĠT em
Ġ32 97
Ġ32 41
Ġ33 10
ur ance
00 65
Ġ38 15
Ġ38 91
Ġ40 72
Ġ46 76
ĠR oth
ĠF X
per or
Ġexpl ored
Ġgl oss
ĠGra ham
rup ted
Ġarri val
aa aa
Ġchalleng ing
Ġpurch ase
P lease
b one
m el
y o
Ġh o
Ġ35 72
Ġ36 25
Ġ42 12
Ġ40 13
Ġ40 14
Ġ44 83
Ġ47 64
ĠW omen
ĠL ots
ĠF ro
ĠN avy
Ġform s
Ġdisco very
ĠPr ice
Ġdam age
Ġrob ots
Ġaltern ative
P ro
c s
u ity
it anic
Ġf ighter
ĠI ron
Ġe ars
Ġ25 21
Ġ34 80
Ġ37 89
Ġ42 05
Ġ40 52
Ġ45 41
ĠW ong
Ġ49 78
16 2
ous ing
ĠP R
Ġcon voluted
24 6
ind ing
ack s
45 4
43 3
Ġend ure
Ġdown hill
iv able
Ġ416 2
Ġ415 4
?? ??
Ġporn o
Ġpract ice
Ġunex pl
Ġpassion ate
Ġpupp et
b ury
Ġ39 69
ck ing
Ġ45 51
ĠF our
68 3
Ġcl iff
Ġcomp osed
Ġinst it
Ġel im
Ġ418 3
Ġtrans c
Ġintrodu ces
Ġobs ess
Ġdescrib es
Ġdim ensional
ĠRo ad
ĠHop per
Ġdoz ens
ĠI mp
Ġn ail
Ġ17 66
Ġ25 62
Ġ33 42
Ġ35 96
Ġ43 05
Ġ43 30
Ġ44 39
Ġ48 23
Ġ49 08
ĠP oint
ĠL ow
Ġpart ly
Ġ51 10
Ġcont ained
Ġrel ies
ĠBr ook
Ġ410 8
Ġfail ing
uc ci
AT CH
ĠMon ster
Ġrespons ibility
ĠSil ver
fun ction
Ġcha os
a gh
f le
n umb
Ġ39 29
Ġ42 42
Ġ44 26
Ġ53 97
Ġk itchen
ĠF inal
Ġinv is
Ġ415 0
Ġ418 0
ĠHar rison
Ġdepict s
Ġresem ble
Bl ack
Ġproceed s
ĠLaure l
Ġt ame
Ġl yrics
Ġst ellar
Ġ32 14
Ġ39 52
Ġ43 22
ĠH oll
Ġsh adows
Ġ46 55
Ġex otic
ĠP y
85 3
ab out
Ġcl ock
Ġres ur
Ġtra ined
Ġ416 9
Ġ414 7
ug ust
vent ure
ĠHar vey
ik a
ĠWar ren
Ġcountry side
opp ed
Ġwind s
Ġsett le
Ġhig hest
__ __
ĠGoth ic
o ad
Ġt ank
Ġw ave
Ġf ooled
ĠA z
ĠS av
Ġ35 61
Ġ39 40
Ġ42 24
Ġ42 50
Ġ40 96
Ġ43 73
Ġ47 65
Ġ47 46
Ġ46 33
ĠL or
85 4
Ġsp aces
Ġru ins
Ġexist ed
Ġarri ved
Ġdesp air
Ġcig are
Ġ user
Ġf art
Ġ42 27
Ġ42 34
Ġ42 37
Ġ42 31
Ġ42 58
Ġ42 59
Ġ40 88
Ġ44 78
Ġ45 06
Ġ47 35
Ġ46 67
est ic
ĠR iver
Ġcon ve
Ġjust ify
99 9
64 3
Ġgu itar
Ġ413 4
Ġ417 6
Ġdist ingu
vol ution
Ġsatisf ied
Ġformula ic
Ġparall el
Ġwra pped
ĠVeg as
P S
p en
Ġa unt
ĠI d
ut t
un o
ĠB UT
Ġ39 61
Ġ42 17
Ġ40 55
Ġ43 83
Ġ43 71
Ġ47 47
ell ig
ĠK h
Ġlead ers
Ġimag ined
udd en
Ġtrail ers
Ġremark ably
Ġunint entional
Ġteach ing
ĠSid ney
Ġexch ange
ĠMitch um
P h
Ġ42 87
Ġ43 37
Ġ44 01
Ġ47 26
ĠP ay
ĠE le
Ġaw e
Ġdef ense
Ġunderstand able
ĠGod father
ĠPro fess
Ġspec ifically
ĠVictor ia
Ġprov oking
Ġtem per
v ation
Ġwh im
Ġst ir
Ġ36 72
Ġ42 21
ĠC onsider
ĠH ack
Ġ45 94
Ġ45 63
Ġ45 69
Ġ49 01
ĠP L
qu est
Ġout s
Ġor phan
Ġrec y
Ġ419 4
Ġ411 5
Ġgl amor
Ġphot o
Ġpret ending
Ġpers ons
ĠJew s
hett i
ĠAra b
Ġsplend id
Ġbudd ies
G o
f ly
Ġa id
Ġs ust
Ġp unk
Ġ18 59
tt es
Ġan x
Ġ32 56
Ġ42 76
Ġ42 83
Ġ42 90
Ġ43 04
Ġ43 77
Ġ43 56
Ġ45 20
Ġ47 10
Ġ47 61
Ġex ter
ĠP an
ĠG re
ĠN ice
ac ies
Ġco ast
Ġ412 1
ĠDe v
Ġ519 9
Ġsol ution
Ġcamp aign
Ġhen ce
ĠBald win
ĠMatth au
p erson
vi al
Ġ26 90
ri pp
un ior
Ġ38 77
Ġ43 57
Ġ44 88
Ġ45 15
Ġ45 85
Ġ46 47
ĠG arb
93 9
Ġlo ads
ever ly
ĠShe p
Ġ415 6
Ġgl or
Ġlack l
Ġtrans ition
Ġsusp icious
Ġtre es
Ġcru cial
ĠAlex ander
Ġhyp not
Ġcompan ion
Ġaccompan ied
s im
Ġo cean
Ġb in
Ġmo de
Ġhe at
Ġ39 62
00 79
ĠC her
Ġ44 12
Ġ44 98
Ġ45 44
Ġch annels
Ġ48 73
Ġ48 52
94 0
86 9
ip er
Ġsl ave
Ġ519 2
ĠCon f
ĠEx cept
Ġcontr ad
ĠThom pson
ĠWhe ther
Ġoverwhel ming
Ġunsett ling
D an
U M
Ġ _
Ġc ure
Ġg or
Ġ35 15
Ġ39 56
ĠM ach
Ġ42 36
Ġ43 24
Ġ45 05
Ġ46 97
18 7
28 8
aw ful
ĠHe art
Ġdes ired
gg y
Ġleg al
Ġprison er
Ġcirc us
ĠON E
Ġearn ed
Ġencou ra
ĠHug hes
d am
d ig
Ġd ust
ĠT alk
Ġ37 59
Ġ43 90
Ġ43 53
Ġ44 24
Ġ47 15
Ġj e
Ġhel pless
Ġ419 5
Ġuns atisf
char acter
L ove
o is
Ġc ake
Ġd ile
Ġ37 32
Ġ42 96
Ġ40 73
Ġ40 65
Ġ44 17
Ġ44 43
Ġ46 98
05 7
26 3
Ġsee ks
Ġad orable
Ġsl ice
Ġunder lying
Ġread s
Ġ410 9
Ġ415 9
Ġ413 5
Ġexc ruciating
Ġsyn opsis
B as
C an
Ġb oun
or ney
ĠT own
ch i
Ġ30 50
Ġ39 31
ĠM TV
Ġ42 11
Ġ42 52
Ġ43 21
Ġ44 36
ĠH unt
Ġ45 61
Ġ45 50
ĠW alt
Ġ46 41
ĠL y
23 9
28 9
ĠK ap
Ġconsider able
tr ans
Ġunderst ated
ĠRem ember
dram a
Ġmont age
Ġinapp ropriate
Ġst aring
am in
ĠA M
Ġ34 60
Ġ35 17
Ġ40 98
Ġ44 58
ĠW AS
Ġ46 66
op ran
The se
iss ion
Ġ400 2
Ġroom s
pro v
imag in
Ġst ark
00 74
Ġ42 99
Ġ40 34
Ġ43 54
Ġ45 95
Ġ45 77
Ġ45 49
Ġ45 57
Ġ47 52
13 0
Ġj azz
ĠR O
Ġatt itudes
Ġrec on
ĠShe riff
con ne
Ġcat ches
war ming
Ġfat al
iffer ent
ĠBern ard
c oll
or der
ĠA bb
Ġ34 14
ra h
Ġ40 97
13 1
ight y
35 6
urn ing
ĠDan iels
Ġpri de
ropri ately
ĠCor man
Ġpress ure
D r
s a
Ġb one
es c
Ġc ats
ĠT CM
Ġ35 27
Ġ43 65
Ġ45 07
Ġ45 43
Ġ48 00
76 4
ĠJ enny
int s
Ġap olog
ork y
Ġcinemat ographer
Ġdim ension
Ġinfer ior
A G
d id
u eless
v or
im a
ĠT od
Ġy a
Ġ34 29
Ġ36 74
Ġ39 42
Ġ42 92
Ġ42 97
Ġ43 89
Ġ49 32
if ully
ĠG il
Ġtr ashy
ĠK a
ry ing
cc ording
Ġtri be
ĠUn less
gu y
Ġfant as
ĠKe ith
ĠEll en
ĠMarg aret
ĠGRE AT
g i
Ġa ka
Ġd ent
Ġg igg
tt ers
Ġ29 34
Ġ33 50
ĠC ivil
Ġ45 70
Ġ45 97
Ġ47 22
Ġ47 88
Ġ52 12
Ġ52 71
Ġ50 99
Ġab du
os ure
Ġpart ners
Ġres cu
arr ow
ĠUn ion
Ġtreat s
str ong
Ġdisappe ared
ĠJes se
ĠJer emy
ĠComm un
Bra zil
Ġrive ting
h olic
p op
r ome
oo db
ĠB ow
Ġ42 91
Ġ43 93
ĠC ertainly
Ġ45 79
Ġ45 40
Ġ47 96
Ġ47 41
ul ter
ĠP redator
ĠJ une
26 6
Ġcan cer
ĠSt ra
Ġsl im
Ġfact ory
iss a
Ġnew ly
ott ed
Ġ411 2
Ġresult ing
Ġcond itions
Ġhide ous
Ġadvert ising
Ġdefe at
m ake
w an
Ġt act
or se
Ġ37 38
Ġ39 93
ĠM as
Ġ42 86
Ġ44 42
Ġ44 38
Ġ44 59
ĠH anks
Ġ45 14
Ġ45 45
Ġ45 33
Ġ46 68
Ġ46 30
95 6
Ġcl iche
Ġqu it
Ġsp oke
ĠTh ink
sh ine
Ġ415 1
Ġlow est
Ġalong side
Ġsat ir
Ġoccas ion
Ġbed room
ĠDor othy
b ly
f ar
f illed
u ation
Ġw ars
Ġp ale
Ġd ys
al ie
ur ai
Ġ39 04
Ġ42 94
Ġ45 81
Ġ49 38
Ġ50 66
ag hetti
08 7
35 7
oc aly
Ġ412 8
Ġabs ent
ret ched
ery l
Ġ602 5
Ġsens es
ĠLou ise
ĠYe ars
ĠSteven s
ĠSy d
T er
it i
Ġn omination
Ġ36 68
Ġ43 12
Ġ47 32
Ġ49 48
Ġ46 65
ie ve
ĠG ay
46 2
ick y
iz er
Ġund ert
Ġgr asp
Ġcomp ens
ĠBe ck
ĠCl ay
ĠRe ed
enn a
Ġsle aze
Ġfund ament
ĠChild ren
Ġfil th
Ġimmense ly
Ġbott le
. .<
i ors
Ġin du
Ġ29 00
ĠA part
Ġ35 23
Ġ39 50
Ġ45 98
Ġ45 84
Ġ45 47
Ġ46 61
74 1
Ġbl ur
ier re
ĠMag gie
Ġhint s
Ġmotiv ations
Ġnin ja
Ġbon us
b ling
l ay
in ers
re he
Ġf ought
Ġd irt
ĠS P
Ġ34 18
Ġ35 01
Ġ39 43
Ġ40 70
Ġ47 33
Ġ49 17
Ġ46 03
Ġ50 72
op les
th rough
ĠL ive
Ġsu ited
Ġhor rifying
Ġavoid ed
Ġrecord ing
Ġembarrass ment
ĠBra zil
Ġabys mal
at hetic
ic eless
Ġwh is
Ġ32 42
ĠB ates
Ġ39 99
Ġ42 04
Ġ38 81
Ġ49 76
Ġover t
ff ic
Ġdirect s
Ġri ot
Ġcons istent
Ġ413 9
Ġnight mares
Ġmon key
Ġsty les
Ġvague ly
Ġnostal gia
e ment
o ven
Ġs ung
Ġb anned
Ġc roc
Ġth ugs
Ġre bell
Ġ32 19
ĠB ark
Ġ38 95
Ġ47 48
Ġ46 45
ĠD al
act s
and ra
55 3
ac ity
Ġte a
Ġgr anted
Ġres ort
011 4
Ġmaster ful
Ġequ ivalent
Ġclaim ed
Be ing
ĠEr nest
ĠMag n
E m
s ur
Ġt ends
Ġw ished
Ġp ad
Ġ43 72
Ġ48 65
Ġ46 23
Ġ46 99
Ġ52 46
ĠF ell
35 3
Ġpo etic
Ġover rated
ĠWh it
Ġ513 5
Ġprinci pal
Ġnostal gic
Ġbe ll
ĠC ox
Ġ44 94
Ġ45 59
Ġ47 24
Ġ48 67
Ġ50 78
ĠL iz
ĠJ ol
ĠG ang
pt ion
pect ing
Ġrem ained
ĠSt ate
Ġbu ck
ĠTh ird
Ġph rase
Ġmention ing
OR E
Ġclim actic
ĠAust en
TH ING
Ġpers u
ĠAdam s
ĠSand ra
Ġeduc ation
ĠMur der
Ġignor ant
ĠCarr adine
Ge orge
F rank
b i
r anged
ar ity
il ight
Ġst ilted
Ġ26 00
ro be
un ts
Ġ39 81
Ġ38 40
Ġ40 39
Ġ47 84
Ġj aw
ever al
ĠAs ide
ĠSh aw
Ġ416 0
Ġ400 1
Ġposs ibilities
Ġvis iting
Ġhome less
ĠMy stery
Ġguess ed
Ġcent ers
ĠNOT HING
Ġconcer n
ĠHam ilton
Ġrece ives
ĠBrand o
ĠPlan et
d oc
Ġm al
br ow
ĠS now
Ġ36 27
ĠM iddle
Ġ40 94
Ġ43 99
Ġ44 96
Ġ44 23
Ġ47 09
Ġ47 31
Ġ46 52
Ġ50 48
Ġ53 64
Ġ53 55
ĠP ink
ĠF ortunately
07 1
Ġar med
Ġsim ult
Ġclass es
ĠSh irley
ann on
Ġpain ted
vol ta
ĠGr anted
Ġleg it
ĠQu inn
Ġble w
ĠIntern ational
aust roph
Ġtires ome
s es
in ations
Ġw acky
Ġm und
om y
ĠT ob
ĠB ible
Ġ39 79
Ġ42 40
Ġ38 19
Ġ40 30
Ġ44 19
Ġ45 37
Ġ48 68
Ġ48 48
Ġ48 60
Ġ49 28
Ġ52 09
Ġ54 04
ĠL am
ĠR ating
Ġun it
ĠE xt
ens ical
ĠSt u
Ġche ated
Ġcomp aring
011 3
011 6
arth a
Ġang st
ha ust
Ġclos est
Ġconv ict
Ġstink s
ĠNY C
spect or
ĠLat in
ĠGreg ory
g ian
Ġth umbs
ke tt
ro ad
Ġ42 20
Ġ44 84
ul ations
Ġ48 21
Ġ49 89
Ġ46 32
Ġ50 40
Ġ54 01
05 9
ĠG ro
ĠO per
Ġcharacter istic
Ġfl op
Ġche ek
ash i
Ġ412 6
ball s
Ġdisappe ars
Ġjew el
Ġpresum ably
Ġc ul
Ġd iamond
us p
ĠS el
ĠS ullivan
ĠB ugs
Ġ42 19
Ġ42 80
Ġ42 30
Ġ47 51
Ġ48 09
Ġ49 46
Ġ49 62
Ġ46 79
16 7
Ġ53 19
and al
Ġne p
25 8
ĠE ither
35 5
Ġrep ort
Ġprom ises
ĠCon n
Ġsevent ies
Ġvulner able
s pecial
in ity
Ġ32 67
Ġ33 92
Ġ42 71
Ġ43 42
Ġ45 11
Ġ47 55
Ġ46 75
Ġ46 64
Ġ50 85
Ġ53 74
Ġcon vent
Ġman kind
83 9
Ġche ating
Ġpr iceless
Ġ417 3
Ġgener ations
Ġheart breaking
ĠPe ck
Ġtast es
Ġroll ed
Ġfrequ ent
lif ting
Ġincompet ent
Ġsaf ety
d el
d irect
Ġw ig
Ġ48 41
Ġ46 86
Ġ54 39
Ġint r
83 5
ac les
ian a
!! <
Ġtri pe
Ġ414 3
Ġwa ited
Ġpopular ity
Ġdro ps
Ġbelief s
Ġcorrupt ion
Ġdinosaur s
m otion
Ġ ven
Ġ29 82
ĠS POILER
Ġ40 46
Ġ40 87
Ġ43 02
Ġ43 51
Ġ49 45
Ġ46 94
Ġ53 28
23 2
ĠN ative
Ġr um
ound ed
ab el
ĠSt ooges
!! !<
Ġpr ince
Ġ419 8
Ġweak est
min ator
Ġdraw ing
Ġjo ined
Ġjournal ist
Ġhes it
Ġingred ients
ĠJord an
b oth
p rise
Ġs appy
ar on
Ġ17 80
ĠT roma
Ġre ly
ĠS aw
Ġ40 49
Ġ43 75
Ġ43 78
Ġ43 34
Ġ45 82
Ġ45 52
Ġch ased
Ġ48 11
Ġ49 19
Ġ52 77
Ġ53 26
Ġpl at
ĠG abr
ĠU nt
Ġconvin cingly
gen cy
AS E
Ġcompos er
ĠCry stal
ĠAlt man
J ul
Ġ âĢ
Ġ21 97
Ġan th
Ġ34 54
Ġ38 88
Ġ40 69
Ġ43 79
Ġ44 62
Ġ44 47
ĠH urt
Ġ48 57
Ġ49 09
Ġ50 23
Ġcom mend
and o
Ġgreat ness
irst y
ile y
au er
Ġfl ies
ĠV on
ens on
ru ck
Ġtra vest
Ġob li
Ġ410 2
ph ant
Ġnight club
ĠZ one
Ġref lection
mp ire
ĠBer lin
Ġjud g
On ly
Ġhen ch
Ġwound ed
H is
is y
Ġl un
Ġ32 33
Ġ36 67
ĠB ach
ĠC art
Ġ44 97
Ġ45 42
Ġ47 69
Ġ48 95
Ġ48 43
ĠD in
Ġ50 11
Ġ54 44
act or
92 3
ĠE v
od er
Ġv om
Ġsur g
Ġworld s
Ġ418 2
off s
Ġpar ad
Ġref uge
Ġval uable
go ers
AL L
ĠRock y
Ġobject s
ĠJud y
Ġens ues
Ġeleg ant
Ġdile m
D ead
H H
Ġa est
Ġ32 22
00 75
00 96
Ġ42 82
Ġ43 84
Ġ43 86
Ġ43 60
Ġ44 63
Ġ44 21
Ġsh ake
ĠD irty
Ġ50 88
Ġex quis
Ġpl od
ĠL OT
Ġr oof
Ġdis h
Ġwork er
Ġgl asses
Ġsecond ary
Ġadv ise
Ġdesper ation
Ġcontr ary
Ġmarket ing
Ġconfront ation
Ġcivil ization
ĠDian a
Ġemphas is
" !
L ast
c row
h op
m id
ad get
ĠA ugust
Ġli ps
Ġ43 40
Ġ45 54
Ġ47 59
Ġ52 65
Ġwe alth
06 7
ang o
de veloped
ah l
ĠMar io
ows ki
Ġclever ly
Ġcatch ing
Ġsuit able
Ġfrustr ation
Ġswim ming
ĠAmaz on
Ġalb um
B ig
e f
g ate
en er
Ġb ump
es que
Ġre ck
Ġ30 51
Ġ33 81
Ġ36 45
Ġ39 91
ĠM u
Ġ42 03
Ġ42 22
Ġ42 70
Ġ38 03
ĠC ook
Ġ44 03
Ġ45 10
Ġ48 05
Ġ49 36
Ġ46 80
Ġ52 42
ĠP in
ast ard
ĠR ead
92 9
Ġshow case
li a
Ġview ings
Ġang el
Ġwrit es
Ġbackground s
ĠRay mond
Ġcorrect ly
Ġfool ish
Ġalco holic
Ġchap ter
ĠNob ody
ĠCus ack
ĠCassave tes
Ġm ile
Ġp ushing
ĠS upp
Ġ34 21
Ġ39 41
ĠC D
Ġ44 37
Ġ45 83
Ġ45 67
Ġ47 77
Ġ49 29
Ġ46 17
Ġ50 49
ess a
Ġal as
ĠR h
Ġover acting
Ġvis ible
Ġsecret ary
OU S
Ġkick ing
Ġhost age
Ġcelebr ity
Ġmount ains
Ġbuff s
Ġcounter part
ĠNichol son
onym ous
N ever
T itle
Ġs an
it ors
Ġl ur
Ġ32 79
Ġ37 21
Ġli p
Ġ43 67
Ġ44 45
Ġ46 57
26 4
ĠSe a
play ing
ys is
ĠAng els
Ġsatisf y
Ġroll er
Ġopt im
ĠClass ic
Ġcorpor ate
A P
A W
h ile
m ad
or ient
an ne
Ġto pless
Ġe ase
ri ent
Ġ40 51
ĠC ong
Ġ47 37
Ġ49 86
Ġ49 61
Ġ46 90
end o
Ġ50 38
Ġdo d
Ġ54 18
Ġ54 09
ag s
Ġr itual
ĠSt range
de f
Ġlaugh ably
Ġ516 9
Ġpat ience
Ġdev ices
ĠAust in
ĠPro ject
Ġjo ins
Ġna use
ĠVal ent
Ġhall uc
Ġarch ite
Ġvenge ance
ĠFlor ida
Ġinvis ible
c reen
g io
m ain
Ġs ink
Ġw olf
re ens
ic idal
ĠT ak
ĠS F
Ġ31 78
Ġ32 80
Ġ36 87
00 78
ĠM ount
ĠW orth
Ġ49 50
Ġ46 43
Ġ52 55
Ġ50 24
Ġ50 29
Ġ54 92
and ering
76 7
ĠL ight
ĠG ame
Ġtra ve
az ing
Ġsub stit
Ġcare ful
ĠSh a
uck ily
Ġ416 7
Ġ518 0
ĠLe o
ik er
ĠPer ry
Ġsevere ly
Ġmund ane
A li
Ġst ress
ĠA ff
Ġ36 41
Ġ40 81
Ġ43 11
Ġ44 49
Ġ50 17
Ġ55 36
ol ate
Ġpl ight
ag ues
25 6
ook ed
68 6
ĠK r
Ġcl austroph
Ġag enda
ĠSt ock
Ġgl obal
ĠCol in
ĠEr rol
Ġwarm th
Ġdemonstr ates
= =
H er
n amed
Ġf ingers
Ġd ating
oo by
ĠB eth
ĠM Y
Ġ42 81
Ġ40 57
Ġ43 36
Ġ44 69
Ġ45 23
ĠD ON
Ġ52 98
Ġsc ope
Ġ50 34
Ġ56 43
Ġpro l
85 6
Ġen h
Ġra ises
Ġ418 7
Ġ413 2
Ġ414 2
Ġ417 2
Ġbeh ave
Ġfoc using
Ġant agon
Ġoccas ions
Ġmod est
Ġauthor ity
Ġast ron
Ġbehavi our
Ġrepresent ed
Ġton ight
Ġtrou bles
Ġartific ial
d aughter
f are
Ġw ore
ĠB ook
Ġ39 17
Ġ44 80
ĠH ind
Ġ47 07
Ġ47 58
Ġ52 06
Ġ52 78
Ġ50 59
Ġ66 43
ast ically
ĠR ings
ĠR oche
28 6
fe ld
Ġhum ble
ĠTh us
Ġsense less
Ġph ony
Ġmen ace
ĠSp ike
Ġconst ruction
yl um
Ġcond em
ĠGl enn
Ġfault s
iser ies
u y
Ġa pt
en i
om p
Ġ28 66
ld om
Ġ37 54
Ġ43 00
Ġ44 40
Ġ45 29
Ġ47 72
Ġ46 29
th ought
Ġwor n
Ġr ude
ott a
Ġ414 6
Ġ514 0
ĠSp ring
Ġ511 2
ĠChar acters
Ġill ogical
Ġadapt ations
Ġhistor ically
ĠDou g
Ġaccompl ish
mod ern
Ġhur ts
Ġpuzz le
Ġincor por
? '
w ord
Ġt ies
Ġf o
Ġon line
Ġ24 60
Ġ32 61
Ġ32 34
Ġ33 29
Ġ42 02
Ġ42 78
Ġ38 18
Ġ40 91
Ġ44 31
Ġ48 38
Ġ46 06
Ġ50 61
Ġ56 59
Ġ57 63
Ġgl im
ĠSe ven
Ġass igned
Ġpass able
AR N
amb o
ĠMad onna
ĠIm agine
Ġgif ted
lik able
d ies
u ary
z es
Ġt v
he ld
Ġc ities
ĠS ong
ĠS ound
ĠS ummer
ĠM ake
ĠM ann
Ġ40 71
Ġ47 89
Ġ48 35
Ġ49 10
Ġ49 90
Ġ49 39
Ġ46 56
Ġ52 05
Ġ52 96
Ġ50 96
Ġ58 51
43 4
Ġaw ake
Ġvi br
Ġdes ires
Ġmin imum
Ġsub plots
Ġ519 7
Ġcapt uring
over n
Ġfut uristic
amb i
ĠDu vall
Ġder iv
Se cond
onel iness
ĠTur kish
I nd
M art
i i
m at
w all
Ġh ouses
id y
Ġ30 29
Ġ35 52
ĠB and
Ġ37 50
Ġ39 86
ĠM un
Ġ42 62
Ġ40 68
Ġ45 73
Ġ47 13
Ġ47 05
Ġ49 25
Ġ52 19
Ġ52 24
Ġex cl
our ne
Ġaw hile
Ġ515 9
Ġpsych ic
Ġappreci ation
lo ad
Ġwild ly
ĠSee ing
ĠThrough out
ĠBeaut iful
Ġflo ating
Ġguarant ee
b idden
p ion
Ġb ride
an che
ĠB uster
Ġ42 23
Ġ43 81
Ġ49 92
Ġ46 89
Ġ46 40
Ġ54 31
op ard
art hy
Ġ62 44
ĠG os
ĠG rey
ĠN ed
Ġint ric
Ġfe e
ĠK ay
Ġgu ards
ĠV ar
Ġins anity
ont o
Ġ417 1
Ġ518 4
Ġhouse hold
ĠNe ither
ipp er
Ġpun ishment
Ġconflict s
ĠCharl otte
ĠProfess or
ĠGarb o
) ...
h ind
Ġb aff
Ġ29 81
ĠA BC
ĠB attle
Ġ45 38
Ġ46 21
Ġ52 88
Ġ54 48
ant ing
Ġat roc
79 9
ĠF at
ĠCh amp
Ġ411 7
ĠPl ot
eng ers
erv ice
Ġmat ches
ĠLeon ard
Ġmethod s
Ġcand id
keep er
Ġtravest y
, <
C ar
T e
m uch
y our
Ġw is
Ġw ishing
Ġb umbling
Ġ17 01
Ġfor ty
Ġ35 70
Ġ43 07
ĠC os
Ġ49 35
Ġ53 43
ind ul
64 5
Ġint imate
Ġshow down
Ġaw a
Ġdifferent ly
Ġexp osition
Ġ514 2
ric ia
Ġexcept ionally
Ġdepict ing
ĠSE E
ĠCost ello
tim ately
ĠVirgin ia
h art
Ġb ang
on ies
Ġp ages
ic y
Ġan aly
ĠB ud
Ġ47 27
Ġ49 05
Ġ46 72
ĠD oc
em ic
Ġ50 90
Ġ50 41
Ġ53 44
Ġ54 94
Ġ56 45
Ġat h
and on
ĠL oy
63 5
Ġtr oops
88 6
ca le
ĠBe tter
sh ips
Ġ410 4
Ġ411 9
ph one
Ġbas ket
ĠEn joy
Ġprin cess
Ġtransl ation
ĠNic ole
ĠBeat les
D id
c reat
h ot
o qu
Ġre h
Ġ28 54
Ġ29 09
Ġ35 49
ĠB oll
Ġ39 51
Ġ42 66
Ġ43 94
ĠC e
Ġ44 75
Ġ45 18
Ġ45 27
Ġ47 71
Ġ48 26
Ġ48 71
Ġ48 46
Ġ46 09
Ġ46 78
Ġ46 07
Ġ52 34
Ġ50 22
act ors
ol er
Ġthr u
Ġte aches
ffect s
Ġsuper hero
Ġsk ull
Ġ417 5
ĠBor is
, ,
f ashion
Ġ25 40
Ġ31 81
Ġ34 39
Ġ36 94
Ġ37 95
Ġ42 60
Ġ40 24
ĠC ron
12 0
Ġsh ips
Ġ49 23
Ġ52 33
Ġ54 75
Ġ56 13
28 2
45 6
83 2
ne ck
ions hip
Ġlast ed
Ġ500 3
Ġprop erty
ĠCent ral
Ġchore ographed
Ġwand ering
ĠCind erella
Ġresour ces
Ġdys function
f et
l ins
n i
Ġm ax
Ġc ode
ar se
ad or
ĠB al
00 48
ĠM E
Ġ40 59
Ġ43 87
Ġ45 96
Ġ45 86
Ġ48 03
Ġ57 76
Ġun happy
45 2
ĠBe ach
ros awa
Ġinc est
Ġ415 2
Ġpur s
Ġrespect ed
Ġdiscover ing
ĠNor ris
Ġpolic eman
ĠGib son
Ġconserv ative
Ġl oneliness
Ġ35 51
Ġ38 96
Ġ38 59
ĠH o
Ġ47 85
Ġ47 43
Ġ47 20
Ġ47 21
Ġ49 22
Ġ56 44
ig o
84 2
ĠK in
Ġpe oples
Ġcont empl
ft en
ĠBe yond
Ġgl orious
Ġ516 2
AT E
Ġsurvi ving
Ġcheck ed
Ġbusiness man
ĠTr ans
Ġrandom ly
Ġic on
Ġchoos es
w yn
Ã ¶
Ġw ow
re ll
ri o
ĠThe ater
Ġ37 24
Ġ40 48
Ġ44 27
Ġ47 78
Ġ48 27
Ġ56 02
Ġ56 92
Ġun imagin
Ġreal izing
Ġrel atives
sc apes
Ġmess ed
Ġphot os
uri es
Ġquestion able
Ġsens ational
Ġclos et
Ġpurp oses
Ġspl atter
Ġsch lock
unn el
Ġpurch ased
Ġunp redictable
B est
S am
e em
m ay
m atic
et ween
ĠS ay
Ġ43 41
Ġ44 76
ĠH ugh
Ġ47 06
Ġ47 95
Ġ48 94
Ġ48 89
ĠD uck
qu ire
26 2
Ġr ush
ell ers
Ġmin iseries
ĠSh ah
Ġhead ing
Ġrom p
rib utes
Ġve in
Ġhy per
Ġaltern ate
Ġdre ary
ĠHist ory
Q ueen
U E
Ġs ab
ic ism
ĠT an
Ġst ale
Ġ35 93
00 33
Ġ38 71
ĠC opp
Ġ45 03
Ġ45 93
Ġ47 16
Ġ47 19
Ġ49 68
Ġ49 20
Ġ52 35
Ġ50 91
Ġ55 23
ist ol
63 9
Ġr otten
od ile
ĠSt all
Ġnight s
Ġ500 5
Ġcomed ians
ĠQu ite
ĠSer ies
ĠHol ocaust
ĠYe ar
H ollywood
S ince
o vers
Ġg h
Ġst ream
Ġ31 01
Ġ42 54
Ġ45 56
Ġ47 25
Ġ49 85
Ġ49 91
Ġsc hed
Ġab used
Ġde af
ĠL um
Ġra bb
ident ally
Ġdet er
ĠMar x
Ġname ly
Ġstraight forward
Ġyes terday
ĠEx cellent
Ġball s
Ġbetray al
ĠNorm a
prov oking
Ġnep hew
e ur
v oc
w er
es on
as i
Ġg reed
ĠA ge
Ġ44 29
Ġ46 91
Ġj er
Ġun iversal
63 2
Ġen light
Ġqu otes
Ġcr ashes
Ġra cing
Ġexpl oration
ug ene
Ġexper iments
ĠEd gar
Ġsum mar
Ġsecret ly
ĠTra cy
Ġinvestig ating
c ross
y et
en ch
Ġm ate
Ġb ite
ou st
Ġd ud
Ġn uts
Ġ31 65
ra in
ra nd
ĠM all
Ġ42 25
Ġ43 27
Ġ44 81
Ġ46 39
Ġ52 44
ast ed
ĠL ance
ack ing
ĠN ort
Ġpre ced
Ġres on
ĠBr uno
Ġvis its
Ġ513 4
Ġ511 7
Ġpop s
ĠJul ian
ruct ive
Ġrevolution ary
Ġwrest ling
c us
r ings
Ġs or
Ġd rill
Ġd arn
ic ians
am iliar
Ġ42 18
Ġ42 39
Ġ38 60
Ġ48 10
Ġ49 33
Ġ52 92
Ġ57 70
um ing
ĠN aturally
od dy
ci p
ne ar
ks h
Ġmusic ians
not e
Ġ514 4
cy cle
Ġprom ised
ĠHer o
Ġconcept s
yl an
Ġoper ation
Ġdisg race
Ġfashion ed
ugg ing
Ġ**** *
Ġeat en
urpris ingly
ocaly ptic
A void
H A
S ure
b ird
Ġthe rap
Ġp onder
vi le
Ġre b
ĠS oph
Ġ44 14
ĠH alf
Ġ45 01
Ġ48 24
Ġ48 36
Ġ49 34
Ġ46 87
Ġ50 43
Ġ50 32
Ġ53 39
Ġ55 85
Ġ56 47
Ġ63 68
Ġout fit
ĠF ields
Ġ72 30
ĠN athan
Ġr am
Ġinv ited
Ġinst inct
Ġ418 9
Ġmis ery
M e
f ig
Ġ {
ĠB rend
Ġ44 66
Ġ45 58
Ġ49 03
Ġ46 77
Ġ46 62
ĠD iet
Ġ55 10
Ġ55 79
Ġ57 44
Ġ58 45
ate ful
Ġle tters
os is
ap ers
Ġshow c
Ġsm ell
ĠAn nie
Ġ500 8
Ġsqu are
ID S
ĠJeff rey
Ġsubst ant
Ġadop ted
Ġactiv ities
ĠPot ter
Ġderiv ative
v ance
v als
Ġre in
Ġ40 93
Ġ44 09
Ġ44 72
Ġ45 48
Ġsh ares
Ġ52 25
Ġ50 97
Ġ53 76
Ġ53 62
Ġ55 99
Ġ59 68
ĠG inger
83 8
ci ously
ick er
our ney
Ġam id
Ġrele ases
rench ing
ĠAm anda
Ġsens ual
Ġrock et
cei ving
ĠTra volta
ĠON LY
Ġder anged
Ġlift ed
ĠCast le
Ġexcess ive
ĠLem mon
ĠHust on
Ġsimult aneously
f elt
Ġw arr
Ġw ides
Ġf aster
ar er
Ġd up
Ġy elling
ĠA h
Ġ36 03
Ġ46 24
em bers
Ġ50 81
Ġso re
ĠP le
ĠP ant
Ġcon ceived
28 4
Ġun ra
Ġun aware
64 4
ĠO l
83 6
Ġfl air
Ġperfor ms
Ġtri angle
Ġ418 6
Ġind ic
Ġnarr ow
Ġexecut ive
cover ed
. (
b anks
Ġ26 81
Ġ28 87
ĠB ran
Ġbut cher
Ġsh ameless
Ġ47 42
Ġ48 88
Ġ46 25
Ġ52 74
Ġex haust
Ġ59 18
Ġ64 33
th m
ie ves
ĠE yes
Ġinterest s
Ġrel ation
Ġac id
Ġconf ident
Ġ515 7
Ġ511 6
ĠSome how
Ġaccur acy
Ġbi ased
Ġpursu it
ĠPhill ips
F E
Ġh okey
Ġl ately
ce l
Ġ31 67
ĠB everly
Ġ42 07
Ġ40 86
Ġ44 95
Ġ44 54
ĠH onestly
Ġ45 32
Ġ47 56
Ġ48 81
Ġ49 73
Ġ52 15
Ġ52 70
Ġ53 68
Ġ59 15
Ġcl ip
Ġent itle
per ed
Ġmusic ian
enn es
Ġ512 9
Ġ614 4
ĠQ ue
Ġcompl aining
Ġcontro lled
Ġfasc inated
Ġencou rage
orc ist
l ength
r ating
Ġw ine
Ġc os
om n
Ġre ver
Ġre el
et a
Ġha bit
Ġ35 65
Ġ43 95
ul ating
Ġ46 71
Ġ50 44
Ġdo ctors
Ġ53 32
Ġ55 03
Ġ55 52
Ġ57 68
Ġ57 45
ol t
ast ing
ĠF el
Ġ74 91
ĠG OOD
63 8
77 7
ĠK ent
ĠBe tt
ix on
Ġbox ing
Ġquiet ly
Ġpit iful
Ġcomplain ts
ĠWor st
Ġambig uous
d ays
Ġin ability
ĠS ix
ĠB R
Ġ39 58
ra w
Ġ38 51
Ġ44 46
Ġ47 98
Ġ47 90
Ġ49 44
Ġ52 13
Ġ52 26
Ġ52 51
Ġ53 87
76 9
Ġup lifting
able d
ne ath
Ġsp ring
Ġmay hem
Ġsim ilarly
Ġ413 1
Ġ413 7
Ġ517 9
Ġ512 6
Ġmis leading
Ġval id
ĠBen j
ift ies
ĠGar field
Ġdeb ate
ano ia
F UL
Ġm ish
ĠT iger
tt o
Ġ23 97
Ġ44 15
Ġ44 35
Ġsh ared
Ġ47 80
ĠW ag
Ġ49 99
Ġ52 81
Ġ50 10
Ġ55 26
Ġab usive
ĠR andy
Ġ60 11
ass y
Ġri g
ens en
li est
als h
Ġ518 7
olog ically
ĠNew man
Ġcontin ually
EN D
Ġintrodu ce
Ġband s
pr il
ĠHay es
Ġban al
Ġincomp rehensible
Ġpupp ets
Ġmanipul ative
ĠMarsh all
c ool
Ġt unes
Ġf lee
com plete
Ġ48 49
Ġ49 55
Ġ49 41
Ġ46 04
Ġ46 49
Ġ52 08
Ġ52 32
Ġ52 50
Ġ52 31
ĠP ur
ĠP ry
ĠP owers
Ġun st
Ġpe ak
ple x
ĠSt ars
Ġcomp rom
Ġsm iling
Ġed ition
ĠSc ot
Ġ513 1
Ġret ired
010 8
ĠOther s
part icularly
ĠPhill ip
Ġsill iness
0 73
P re
g iving
m ons
Ġt un
ic able
ĠI ran
Ġwas hed
Ġ33 90
Ġ40 17
Ġ44 07
Ġ49 26
Ġ49 88
Ġ49 27
Ġ49 53
Ġ46 20
Ġ46 50
Ġ54 66
Ġwe ather
cl im
Ġob st
Ġdefin ed
Ġ519 5
ield ing
ĠEl vis
Ġcomb ine
ĠPart y
rehe nd
d ream
d irected
l iter
w est
Ġs ending
Ġm ouse
Ġd ances
Ġin herent
Ġ30 17
Ġ36 58
ill on
Ġ44 00
Ġ44 04
Ġ44 22
Ġ45 88
Ġsh o
Ġ48 19
Ġ48 84
Ġ48 40
Ġ48 51
Ġ46 26
Ġ46 46
Ġ58 97
64 6
ĠO rigin
Ġper man
Ġbeh old
Ġ517 6
Ġdri ft
Ġmyster ies
Ġswe at
Ġmer c
Ġmer its
Ġpack age
Ġcompe lled
oop ers
Ġprim itive
Ġrepresent ation
ĠFer r
ĠHope fully
Ġreun ion
ĠWI TH
R ating
d i
d oor
il ation
ch air
Ġ33 32
Ġ42 85
Ġ47 29
Ġ47 57
Ġ48 74
Ġ48 86
Ġ46 60
Ġ53 29
Ġ57 36
ood ing
ak o
Ġint ro
und ant
ins ki
Ġvers us
ĠDe ep
sc ene
not ch
Ġexp and
vent ures
Ġref used
Ġprom inent
Ġspir its
Ġlength y
f ull
t al
he ars
Ġ40 45
Ġ43 46
Ġ44 20
Ġ44 53
ĠH olden
Ġ47 04
Ġ47 81
Ġ50 27
Ġ54 23
Ġ54 70
ol n
ant asm
Ġ58 14
ĠL ie
ĠG iven
Ġun in
Ġ- --
man u
ĠK ids
Ġcl ueless
ip id
Ġsup pl
rap h
Ġown ed
sy mp
Ġ518 3
Ġ512 8
Ġfem in
Ġexplo res
Ġjud ging
Ġnons ensical
dri ven
icol or
ĠCopp ola
l ime
Ġw retched
ĠA ctor
ĠS N
ro e
Ġ37 13
Ġ38 04
Ġ44 16
Ġ45 30
Ġ48 31
Ġ49 02
Ġ49 70
Ġ49 40
Ġ52 85
Ġ54 84
Ġ58 88
Ġ74 52
ĠJ ill
ĠE li
ĠK yle
Ġro ots
Ġrecommend ation
Ġ518 1
Ġrefer red
Ġliter ature
ĠEx p
Ġbomb s
Ġinvent ed
Ġchalleng es
itiz en
ĠKu rosawa
Ġintegr ity
W r
b on
e ous
g ang
w es
w ide
Ġm afia
le vel
Ġl ens
Ġmo ody
ĠC ab
Ġch icks
ĠW AY
Ġ49 21
Ġ49 81
Ġ46 42
Ġ46 36
Ġ46 38
Ġ52 64
Ġ50 68
Ġ53 21
Ġ55 60
Ġ65 44
25 2
we ar
igh ters
oc key
Ġco ff
umb o
Ġvis ions
Ġ518 5
Ġ517 1
ĠCon an
su ccess
Ġtrack ing
ĠTer ror
AM E
Ġreach ing
Ġeduc ational
Ġtack y
Ġcompan ies
j e
p y
w ick
Ã Ń
Ġm uddled
Ġ36 70
Ġ38 13
Ġ45 02
Ġ52 91
Ġ50 93
Ġ50 71
Ġ50 60
ain ted
Ġ55 82
Ġ56 46
Ġshe ll
Ġscen ar
ĠV alley
Ġser ving
Ġtri vial
Ġexper imental
Ġexp ed
Ġreg ister
Ġsn ake
Ġlim its
gen re
Ġrout e
Ġwide ly
ĠOli via
Ġrend ition
Ġenthusi asm
ĠPict ures
ĠLeg end
Ġneighb ors
E E
T ra
W ar
Ġ ....
vi ll
Ġhe ars
ĠS old
Ġ43 52
if i
Ġsc reens
Ġ50 84
Ġ53 83
Ġ58 48
43 2
are st
Ġcl oud
Ġpe cul
cc er
Ġcr ush
Ġconf idence
Ġ418 1
Ġ500 9
Ġ696 0
Ġpri ze
ĠSam uel
ĠNight mare
Ġwitness es
plic ity
ĠCru ise
Ġprecise ly
- )
b est
g ers
m or
Ġf og
am i
Ġ39 71
ĠM ajor
Ġ43 45
ĠH ogan
ĠW alsh
Ġ49 96
up ert
Ġ53 33
Ġ56 03
Ġ68 88
98 9
ĠE mpire
Ġ514 6
Ġ511 1
Ġadv anced
Ġauthor ities
ĠDet ective
S im
d ist
u a
is k
com ed
et ing
am ount
Ġ30 47
ĠB in
ur der
Ġ42 88
Ġ46 11
ĠD om
Ġ50 86
Ġ53 24
Ġwho lly
Ġ55 65
Ġ55 27
Ġr ings
Ġsomet ime
ĠThere fore
Ġ510 6
Ġmurder ing
ĠFrank ie
Ġrepe ating
Ġhyp oc
Ġsignific ance
Ġchalleng ed
Ġsket ch
! '
H ouse
le ans
Ġg rief
ad ly
Ġst atic
Ġ37 08
Ġ37 97
ĠM artha
Ġ44 85
Ġ47 50
Ġ49 51
Ġ53 05
Ġ54 27
Ġ54 53
Ġ55 44
Ġ56 73
Ġ59 63
od der
ĠCh ainsaw
sc ript
Ġsad d
Ġment ions
Ġprep are
Ġchick en
Ġfif ty
Ġhomosexual ity
Ġassum ed
Ġhipp ie
ĠRep ublic
ĠBlock buster
f ant
w he
Ġf ist
ct s
Ġ24 67
Ġ31 56
ĠB IG
Ġ44 91
Ġ45 60
Ġ49 84
Ġ49 69
Ġ49 58
ust in
Ġ52 47
out hed
Ġ54 50
Ġ55 86
Ġ57 55
ast urb
ĠR ita
95 9
Ġsu cc
fe ll
ip ed
Ġra il
Ġ415 8
Ġ518 6
Ġ706 9
Ġmor onic
Ġteam s
Ġpost ed
Ġregard ed
ĠBel a
ĠGen er
ĠJud ge
Ġimprove ment
Ġalleg ed
Ġentitle d
A V
l est
Ġl ic
ic o
ut ers
ut ton
ĠS everal
Ġ37 49
Ġ38 22
Ġ38 21
Ġ45 00
Ġ45 71
Ġ50 82
Ġ54 89
Ġ55 05
ol ence
ĠL ill
Ġne ur
ĠF unny
ĠE ye
Ġint entionally
ĠV ol
Ġatt orney
Ġ416 6
Ġpol ished
Ġexp ressed
Ġ514 7
ĠCra ven
mm m
Ġdrink s
ĠSk ip
Ġchuck le
Ġinj ured
ĠAnton io
Ġdestro ying
Ġcaric ature
Ġborrow ed
Ġunexpl ained
B r
I m
k ill
n ormal
Ġs aga
Ġh oot
an ning
Ġl iners
Ġfor cing
Ġ49 04
Ġ49 75
Ġ52 82
Ġ53 16
Ġ54 25
Ġ57 92
ĠL ine
ie w
ap ing
Ġv ain
Ġar c
Ġdec or
its ch
Ġ418 5
Ġ513 9
011 5
Ġlive ly
Ġdem ise
wr iting
Ġmil k
Ġliter ary
Ġconv iction
ĠStud ios
g om
i qu
ĠS et
ĠB ert
Ġ42 48
ĠC ris
Ġ49 72
Ġ49 66
ol i
Ġ59 67
Ġ66 74
ĠG able
Ġim itation
Ġam used
ĠJo el
sh oot
ps ons
Ġmor als
Ġpat ients
Ġprof anity
Ġdan cers
pro bably
Ġjump ed
Ġaccur ately
Ġdrag on
ĠScar lett
ĠRee ves
Ġpredecess or
Ġempat hy
d ate
ut en
ĠT ele
ĠA ction
ĠS ave
Ġ44 77
Ġ48 75
Ġ48 42
Ġ49 57
Ġ46 82
em esis
Ġ52 17
Ġ52 86
Ġ54 14
Ġ54 93
Ġ55 84
Ġ58 57
ag le
Ġ59 13
ĠE is
ĠShe en
Ġbu gs
Ġdefin ition
Ġexcept ions
Ġref use
Ġorder ed
Ġdoub ts
Ġcompl iment
OU LD
Ġthreat ens
ĠTim othy
ĠMi y
Ġevol ution
ĠSher lock
Ġoblig atory
ĠBrook lyn
j ack
in ous
an other
ed ing
Ġse lect
Ġ31 13
Ġ43 10
ĠC ore
Ġ44 73
ĠH eston
Ġ49 80
Ġ46 14
em et
Ġ50 37
Ġ53 73
Ġ53 67
Ġ56 31
act ive
ĠL as
ap se
Ġins ipid
Ġsound ing
Ġmar gin
Ġ515 2
AT H
sem i
Ġsqu ad
Ġgem s
W atching
Ġ +
on ce
Ġd azz
un ks
Ġ33 72
Ġ39 66
Ġ42 53
Ġ44 34
Ġ44 50
Ġ47 08
ĠD iv
Ġ52 58
Ġ53 37
Ġ55 07
22 2
ĠIn spector
Ġapp ropriately
Ġstr angers
Ġass ign
Ġ514 9
Ġsupport ed
AR S
Ġfill er
Ġbrut ality
Ġobject ive
Ġkidn ap
ĠFair banks
bec ca
Ġlackl uster
I ST
f r
f ers
m c
Ġ ~
or ity
Ġ/> ***
Ġ24 01
00 72
ĠM eryl
ĠC AN
Ġ47 11
Ġ48 04
Ġ48 80
ĠD ee
ĠD ID
Ġ53 27
Ġ53 86
Ġ56 61
Ġ56 36
Ġ63 61
75 9
ap id
Ġr ates
ĠO uter
ub by
ĠAs s
omb ard
Ġpass engers
Ġmaster pieces
Ġsubject ed
ĠPet e
Ġbar gain
ĠQu entin
Ġremark s
Ġadop t
ĠRet urn
b ed
Ã ³
Ġm ap
Ġ45 46
Ġ47 97
Ġ48 13
Ġ49 31
Ġ46 02
Ġ46 48
ĠD ylan
Ġ50 94
Ġ50 33
Ġ54 46
Ġ54 34
Ġ54 57
Ġ55 33
Ġ56 79
Ġ56 95
Ġ56 83
Ġ56 35
Ġ57 87
Ġ58 66
04 55
ge tting
ber ry
li x
Ġcre am
Ġ500 1
Ġcred ited
Ġfem ales
Ġmist ress
bo at
Ġcatch y
Ġmass es
Ġteacher s
Ġner d
ĠDE AD
Ġfram ed
Ġinexplic ably
ĠStu art
A B
F l
L ittle
M ovie
c led
Ġa pe
Ġd resses
ĠT itanic
ĠB uddy
Ġli bert
00 66
Ġ43 62
Ġ44 70
Ġ45 13
Ġ48 93
ĠD aw
Ġ52 27
Ġ50 98
Ġ53 17
Ġ54 72
Ġ55 16
Ġ56 40
Ġ64 00
Ġ64 12
Ġde le
ĠJ a
Ġun le
Ġlo aded
ĠK now
own ed
ark s
de al
sh ock
Ġ414 1
Ġ518 2
Ġ515 8
Ġ605 8
Ġtown s
Ġdeal er
con f
ĠLu ci
she ll
Ġargu ably
Ġyell ow
Ġeth nic
Ġshout ing
Ġamuse ment
udden ly
Ġastron aut
k h
m ber
Ġ .<
ĠT all
ad dy
Ġ29 68
Ġ29 88
ĠM UST
Ġ47 86
Ġ48 39
Ġ46 84
Ġ52 60
Ġ53 36
Ġ54 02
Ġ58 19
Ġ58 77
Ġ62 68
09 1
Ġunder water
Ġstart ling
Ġsm ugg
att on
Ġdep ression
Ġcreat or
Ġ500 4
Ġ511 8
Ġsusp end
Ġdiscuss ing
Ġopt ion
Ġlab el
col m
ĠFurther more
ĠKap oor
ĠCron enberg
w a
ut ions
Ġ27 49
Ġha unt
ĠM ind
ĠH an
ers ed
Ġ49 83
Ġ50 70
Ġ50 30
Ġ50 54
Ġ57 52
Ġ58 54
96 9
Ġshe d
pl aced
ĠY u
Ġaw fully
Ġmin us
Ġ500 7
Ġgra iny
Ġheart ed
Ġ674 0
kn ow
Ġhom es
Ġcir cle
OO OO
Ġopportun ities
Ġscrew ed
ĠRen o
ĠNichol as
Ġsixt ies
Ġstrand ed
H E
d r
Ġf ren
Ġl ord
ic iously
Ġ28 48
Ġse ldom
Ġ35 03
Ġ47 92
Ġ47 62
Ġ50 46
Ġ54 26
Ġ55 55
Ġ57 01
ant is
Ġ58 18
Ġr ising
35 4
ert o
Ġsl ip
ĠTh or
Ġart ic
Ġadd iction
Ġ417 7
Ġmem or
Ġste am
Ġenth r
ĠUs ually
Ġdisli ked
0 74
at i
Ġto ys
al most
com ings
ĠA D
Ġ49 16
Ġ49 43
if etime
el and
Ġ50 45
Ġ50 83
Ġ53 93
Ġ53 01
Ġ53 48
Ġ54 74
Ġ58 72
Ġ62 85
Ġ63 43
Ġsup reme
Ġke en
atter ing
Ġmind ed
ney ed
ĠCl aud
ount y
Ġ517 5
gu ided
Ġair port
Ġplan es
ĠScott ish
Ġfasc ination
Ġlif eless
Ġgre edy
Ġwis dom
e c
r ust
Ġf urn
ing o
gh an
ĠA pril
ĠS opran
00 53
ĠC ourt
Ġ44 02
Ġ47 44
Ġ47 01
Ġ52 45
Ġ52 39
Ġ50 35
Ġ53 03
Ġ53 92
Ġ54 68
Ġ56 07
Ġ62 53
Ġ62 82
Ġ59 73
Ġde mented
94 7
Ġle ather
ĠN BC
ĠE va
Ġsub lime
Ġcons cience
ER T
Ġdram at
ĠCl o
Ġcount s
Ġwin ter
ĠJust in
ĠRich ards
Ġeng rossing
Ġmark ed
ĠFl ash
Ġimmedi ate
Ġpecul iar
gom ery
J im
u ber
Ġ x
Ġw akes
is and
es ter
Ġp ill
Ġ42 47
Ġ38 26
Ġ44 71
ĠH U
Ġ45 21
Ġ45 87
Ġsh oddy
ĠW right
ĠD all
Ġ53 04
Ġ55 89
Ġ56 49
Ġ56 34
Ġpl ag
95 7
Ġadd ress
ĠFor get
ĠUn iversity
Ġtop ics
Ġ608 9
Ġ512 0
Ġ603 0
Ġ612 0
Ġstun ned
inc oln
Ġserv ant
Ġinsight ful
ĠDor is
Ġcoinc idence
Ġincor rect
Ġsurf ing
Ġpreach y
Ġfundament al
Y et
b able
d ro
h ave
m n
Ġw oe
on ing
ar o
Ġst ores
st rated
Ġ29 15
ĠB ox
00 82
Ġ40 76
ĠC ode
ĠD ante
est s
Ġ52 38
Ġdo pe
Ġ55 76
Ġ57 33
Ġ57 31
Ġ58 33
Ġ62 26
Ġ59 14
Ġ59 47
Ġ66 26
ĠN a
Ġen han
Ġv on
ĠK o
Ġro yal
Ġrec re
rill iant
ĠBl ade
Ġmar ries
Ġ500 0
Ġloc als
Ġ516 5
Ġcult ures
ĠPe arl
Ġland ing
Ġattack ing
Ġpositive ly
Ġreflect s
Ġdistribut ion
Ġfirm ly
Ġadmitted ly
f irst
v as
it ated
Ġhe althy
ĠM os
ĠC omb
ĠW ish
Ġ49 14
Ġ52 80
Ġ50 25
Ġ55 12
Ġ56 11
Ġ59 24
Ġ59 01
Ġtw elve
Ġunder neath
Ġche es
Ġinv ites
Ġgener ated
Ġ510 4
Ġ608 4
Ġcor pses
Ġair plane
Ġwait ress
Ġlaw s
Ġlos ers
reg ard
Not hing
Ġspec ies
ĠPol ish
Ġreject ed
Pe ople
Ġcontrad ict
ĠRoche ster
) !
J oe
j ay
y re
z i
es quire
Ġ25 19
Ġse am
ĠC ON
Ġ45 19
Ġsh aring
Ġ46 16
Ġsc rap
Ġ50 87
Ġ55 01
Ġ55 46
Ġ56 26
Ġ58 07
ĠP ut
ĠL ange
ĠF ive
ĠF alk
ĠG ore
ĠG ray
Ġv ice
Ġ60 16
Ġ60 76
Ġ67 08
Ġdirect ions
gg ie
ĠMar ion
Ġ515 3
uss ie
Ġwild er
Ġham mer
Ġunse en
ĠAst aire
bu ild
Ġadoles cent
ĠBenj amin
, (
m ot
s pl
Ġl av
ĠI F
Ġ38 90
Ġ43 20
Ġ43 69
ĠC L
Ġ48 87
ĠD omin
Ġ53 69
Ġ54 88
Ġ56 65
Ġ57 64
Ġ57 42
79 1
ĠL enny
Ġout ing
ĠO R
85 2
pl ing
Ġsim plicity
ah ah
ĠSc r
Ġcra zed
Ġreg ards
Ġ605 2
Ġstrong est
Ġpar anoia
Ġrecogn izable
Ġamb ition
Ġmach o
Ġaddition al
Ġsymb olic
hett o
Ġinteract ions
ĠHind i
ĠWag ner
M AN
Ã ¼
Ġ23 74
ĠB ased
Ġ42 09
Ġch ronic
Ġ48 69
Ġ46 15
Ġ46 70
Ġ52 62
title d
Ġ53 14
Ġ54 45
Ġ56 18
Ġ56 76
Ġ56 71
ol o
Ġ62 04
Ġ62 84
Ġ64 62
ist ed
ĠJ oy
Ġ83 79
Ġr ises
ĠE arl
Ġpre y
Ġdis ast
ish op
get ic
ord ers
Ġvis ited
Ġ515 0
Ġ517 7
Ġz oom
Ġsn akes
AN G
Ġrespect ive
Ġdisgust ed
Ġprov ocative
Ye ah
Ġdysfunction al
ĠStall one
N ew
R ed
c ount
Ġm ute
on ent
Ġ40 31
Ġ43 82
Ġ44 89
Ġ48 20
Ġ49 15
Ġ49 71
Ġ52 83
Ġ50 36
Ġ54 96
Ġ57 41
Ġ58 99
Ġ58 59
Ġ62 37
Ġ59 33
Ġ59 52
Ġ64 06
Ġout law
Ġsu ms
64 9
Ġqu arter
Ġag ency
Ġreal m
Ġra ces
ew orthy
Ġ513 7
Ġ515 4
010 3
Ġthrill ed
ĠFran ces
Ġpresent ing
Ġdifficult ies
ĠIMD B
Ġdesign s
Ġhistor ic
Ġansw ered
ĠGl over
Ġdro pping
AC E
Ġbal anced
ĠSar andon
ĠOli vier
Ġassass ination
B ack
I P
g as
h ilar
Ġm ort
Ġc aut
Ġc ripp
or i
Ġh itch
ion e
Ġ24 56
Ġst er
ri et
Ġ45 36
Ġ49 24
Ġ46 58
Ġ52 22
Ġ52 21
Ġ54 32
ood oo
Ġ62 38
Ġ63 55
Ġ68 65
ĠG and
ĠE st
33 4
ob ia
ob by
Ġback wards
Ġcont aining
.... ...
amp ed
Ġgra bs
Ġhope lessly
ĠNo v
Ġ511 5
Ġmor bid
ma id
Ġprem iere
Ġrespect able
Ġinf ant
Ġdi vid
Ġprefer red
Ġfreak s
Ġemer ges
ĠUp on
Ġped est
Ġstumble d
ĠTem ple
emet ery
I RE
c inem
Ġf iring
as co
Ġ25 37
Ġse m
ĠS ellers
ĠH OR
ĠW ATCH
Ġ49 95
Ġ46 93
ĠD oyle
Ġ52 01
Ġ54 99
Ġ54 47
Ġ55 53
Ġ56 20
Ġ57 75
Ġ57 35
Ġ59 78
th on
ĠL ist
ĠG all
Ġpro s
66 9
ĠK ey
Ġar ist
ff y
Ġunder cover
Ġsupp ly
ĠSh ould
ĠSh ame
Ġ602 7
!" <
Ġtast eless
ĠBur ke
Ġbi ography
Ġfright ened
het ically
Ġharm less
Ġsne ak
Ġsurg ery
P at
b at
er em
Ġw ives
Ġ40 37
Ġ43 39
ĠH ank
Ġsh orter
Ġ47 73
Ġ48 18
ĠW E
Ġ49 94
17 1
Ġ50 42
Ġ50 39
Ġ53 49
Ġ55 61
Ġ56 42
Ġ64 78
Ġ65 95
Ġ63 40
ĠL au
98 2
ard e
res pect
Ġno ises
ish ly
ath on
Ġview point
Ġown s
Ġexpect s
ollow ing
Ġ400 6
not hing
ĠSc ooby
Ġ513 2
Ġ513 8
Ġ612 3
Ġsw allow
ĠOr son
Ġsign ed
OU R
ĠTra in
bur g
Ġaccount s
Ġcourt room
Ġignor ance
Ġvent ure
C ol
S orry
Ġs ale
Ġs que
Ġb arb
Ġg ym
ĠA unt
ĠB ak
Ġ43 49
ĠC ut
ĠC ross
Ġsh aky
Ġ48 02
Ġ53 07
Ġ53 63
Ġ55 25
Ġ55 22
Ġ57 50
Ġ58 04
Ġ58 47
Ġ62 99
Ġ59 55
Ġ66 00
Ġ63 77
Ġun likable
ĠE ugene
ge ant
ab by
Ġv ital
most ly
Ġ410 1
Ġ518 9
Ġ514 3
IN E
Ġref ers
Ġunlike able
Ġident ical
Ġcompet e
Ġknock ed
Ġresol ved
Ġadmir able
Ġreluct ant
ĠNin ja
d et
k l
al ter
Ġe ats
ĠT W
et ies
Ġ29 49
se xual
Ġ37 78
Ġ40 61
Ġ45 78
Ġ46 73
Ġ52 97
Ġ53 79
Ġ53 96
Ġ54 79
Ġ54 95
Ġ55 51
ant on
Ġ62 24
ĠF ast
Ġle th
64 2
pt on
ans as
ĠJo ey
Ġ514 5
Ġpublic ity
boy s
lo ving
Ġcomplex ity
Ġdesert ed
ĠMont gomery
Ġfianc Ã©
Ġdece ased
K E
c ute
m ir
t ick
w right
Ġp ump
ĠM ah
Ġ42 49
Ġ45 24
Ġ53 85
Ġ54 91
Ġ59 87
Ġ59 30
Ġ63 96
ĠL oren
ĠF IL
Ġ74 90
Ġme as
ĠN ap
84 8
ne g
Ġhor ny
Ġrem ove
Ġshould ers
ĠRe commended
ĠCar rie
Ġ613 9
Ġcent ered
Ġmor ally
Ġdem ean
Ġsubt ly
ĠSim psons
Ġsed uct
ĠTy ler
ĠNat alie
mitted ly
P ER
b in
d ed
m oon
s qu
Ġt omb
at able
Ġc her
Ġst ages
ĠB ost
ĠC OM
Ġ44 65
ĠH end
Ġ52 23
Ġ53 58
Ġ54 30
Ġ55 78
Ġ55 96
Ġ55 21
Ġ55 37
Ġ57 51
Ġ59 89
Ġ59 54
Ġ66 51
Ġde gr
ĠP ick
ĠL incoln
Ġchar ged
ĠE ri
Ġwhat s
Ġen ig
Ġpe tty
ily n
Ġbr own
ram a
Ġbit ch
Ġexpl oring
ĠSp ider
Ġ510 8
Ġ511 4
Ġ612 1
Ġ604 8
bl own
ĠOr leans
light s
imp ort
no ir
Ġimm ature
Ġstick ing
Bl ood
ĠEgypt ian
Ġcens ors
ĠTru ly
ĠJu an
Ġfantas ies
manu elle
B en
D is
c ou
er ve
Ġw ander
Ġh ij
an cing
ri dden
Ġ37 74
ĠM ain
ĠC y
ĠW ol
Ġ52 66
Ġ52 43
Ġ50 19
Ġ50 74
Ġ50 52
Ġ53 66
Ġ54 61
Ġ55 31
Ġ62 25
Ġ62 31
Ġ59 84
Ġ59 50
Ġ59 59
ĠL uckily
ie val
qu in
Ġ72 19
ĠJ od
Ġ84 75
ĠE astern
Ġreal ised
Ġcomple ted
ros pect
Ġed gy
Ġret ire
Ġ515 5
Ġ517 0
Ġportray als
Ġconsider ably
Ġ613 2
Ġ618 9
ĠEd wards
Ġhuge ly
Ġindust rial
ĠWonder ful
Ġhung ry
ĠAbs olutely
I V
I nt
b ot
l ord
m art
re ally
it an
Ġb ars
le en
Ġd ow
Ġn omin
ĠT ok
st ock
ri ors
Ġ37 94
Ġ43 38
Ġ44 99
ĠW id
Ġ49 74
Ġ54 97
Ġ56 27
Ġ56 53
Ġ57 80
Ġ58 63
Ġab oard
Ġ62 81
Ġ65 68
Ġ63 85
Ġ68 61
ĠR ex
28 7
ĠK N
Ġrem ade
ru g
Ġown ers
ex pl
Ġlast ing
ĠCl ive
ĠSp ock
Ġ510 2
fortun e
Ġ604 4
Ġstru ct
Ġmid night
ĠPat ricia
AS S
Ġdro ve
Ġintern al
Ġner ve
produ ction
produ ced
Ġhack neyed
Ġloyal ty
Ġdisgu ise
indu cing
O S
p ot
Ġb reed
Ġp ink
Ġre n
Ġre hears
ow ed
Ġ42 44
Ġ45 90
Ġ52 59
Ġ53 15
Ġ55 30
Ġ56 94
ĠP rest
ĠR id
Ġr er
ab h
Ġshould er
Ġmin s
ĠU r
Ġcomp uters
ative ly
isod e
Ġexp ense
Ġ514 8
Ġ517 4
Ġ609 4
Ġrid es
Ġ615 3
Ġ600 9
Ġdifficult y
Ġdescrib ing
Ġsurround ings
Ġgri p
ĠCost ner
ĠCare y
Ġdestro ys
Ġanal ysis
Ġclaustroph obic
fashion ed
Ġwides creen
Ġunra vel
uten ant
D VD
f amily
h as
h oe
Ġ/> ****
se cond
Ġ33 23
ĠM ust
Ġ43 19
ĠD ud
Ġ52 95
Ġ52 68
Ġ53 89
Ġ53 41
Ġ54 10
Ġ59 69
Ġ59 31
Ġ66 13
75 0
ist y
ĠF al
93 1
um n
45 9
ep burn
ost erous
Ġinv asion
Ġlast s
ĠDVD s
Ġshort comings
Ġspectac le
ĠWH Y
omed ay
ĠColl ins
Every thing
Ġsurviv or
Ġdemand ing
ĠWes ley
Ġward robe
Bas ically
Ġsatir ical
Ġneur otic
A b
B rien
F ilm
M en
Ġp ushes
Ġl unch
Ġre bel
gh ter
Ġ33 89
Ġ37 92
Ġ40 16
Ġ43 17
Ġsh aking
Ġ49 79
Ġ46 81
Ġ52 29
Ġ50 50
Ġ53 13
Ġ53 72
Ġ54 00
Ġ58 76
Ġ64 44
96 7
Ġ60 12
Ġri dd
Ġscreen writers
Ġ604 7
Ġ614 0
Ġ672 9
dy s
ov a
back s
ĠAm ong
Ġair craft
Ġsurvi ves
Ġcommun icate
ĠRuss ians
Ġaffair s
Ġkidn apping
Ġstret ched
ĠHot el
ĠHann ah
Ġspaces hip
ĠFel ix
D ark
K ing
a ved
c ules
h ole
u er
Ġt ang
en cer
Ġp ie
Ġl ux
Ġn ails
ut ure
Ġse ar
Ġ34 33
ur u
ĠM iles
Ġ42 51
ĠC ushing
ĠH ur
Ġ47 87
Ġch oppy
Ġ49 49
Ġ52 30
Ġ54 51
Ġ56 29
Ġ56 82
act ory
Ġ58 10
Ġ59 05
Ġ59 70
Ġ59 88
Ġ64 28
08 1
Ġ66 16
Ġun re
per haps
Ġset up
ail ing
sc ar
Ġ515 1
Ġtrans formed
Ġmot ive
ĠEvery body
AR T
uz zy
Ġrend ered
Ġscrew ball
Ġfulf ill
Ġincons istent
Ġrhy thm
Ġdevast ating
ĠNeed less
F red
c are
d oes
p res
t ight
Ġd warf
Ġbe lly
Ġst umbles
00 94
Ġ45 76
ĠW el
Ġ52 61
Ġ54 55
Ġ55 34
ol ent
Ġ59 75
ĠL ombard
ĠR at
ĠG OD
63 4
pt ember
od a
ab elle
ĠK ung
Ġgl owing
Ġexp ose
Ġ516 6
Ġ608 0
iam i
Ġ619 9
Ġ672 7
che ek
ov sky
Ġpri vile
Ġprem ier
Ġinf in
Ġdesign er
Ġprep osterous
ĠBrid ges
Ġmotor cycle
Ġstead y
ĠFro st
ĠPry or
U D
b ast
j u
in ch
er g
Ġb oil
ed ed
Ġl ush
Ġn iece
ĠA IDS
Ġ35 10
Ġ48 59
Ġ52 49
Ġ50 18
Ġ53 98
Ġ55 13
Ġ56 10
Ġ56 30
Ġ56 39
Ġ57 06
Ġ59 53
ĠR ush
ĠJ ed
ĠG one
ort ions
35 9
Ġpre v
Ġpo em
ass ing
ĠCh op
ub ble
Ġnew com
Ġins ists
ee k
Ġtrans form
Ġ600 2
ĠPer fect
Be cause
Ġmach ines
Ġthreat ened
ĠBull ock
Ġabrupt ly
Ġgimm ick
Ġcoff in
Ġexped ition
! ,
h om
Ġt y
Ġm all
Ġd reck
et ed
Ġ29 43
ĠS ara
ĠB ess
ĠB ambi
ĠM ing
ĠM ey
Ġ47 30
Ġ47 34
Ġ48 82
pe ople
Ġ53 84
Ġ55 11
Ġ55 75
Ġ55 94
Ġ57 25
Ġ64 08
Ġ64 46
35 8
Ġv ocal
Ġdis cer
ĠCh ief
Ġgl oom
Ġ517 8
010 4
Ġ606 4
Ġmis guided
ĠPh antom
bb ers
ĠStre isand
IT Y
Ġunexpected ly
Ġner ves
ĠJer sey
Ġimagin able
Ġauthentic ity
ĠOff ice
ĠRad io
Ġphenomen al
ĠTechn icolor
ĠScot land
f em
Ġs ou
Ġm useum
se tt
ĠS ide
ur ation
Ġ47 39
Ġ52 07
Ġ53 09
Ġ54 07
Ġ54 69
Ġ54 59
Ġ56 67
Ġ57 08
Ġ57 93
Ġ57 69
Ġ57 61
Ġ57 32
ĠP ost
um ar
63 6
oy s
86 2
Ġafter ward
cc o
ott y
Ġrep orted
ĠNew s
Ġ708 5
Ġbo om
ĠJul iet
Ġpun ches
ĠSn ipes
Ġtax i
Ġtempt ed
Ġinhabit ants
H ara
f ish
m und
Ġt ip
ar ters
Ġg ained
Ġg ender
al ong
Ġn ick
Ġst im
st reet
Ġ30 20
ra cy
Ġ48 78
Ġj arring
Ġ53 75
Ġ53 46
Ġ55 95
Ġ55 59
Ġ57 78
Ġ57 90
ant ha
Ġ58 93
Ġ62 33
Ġ63 83
Ġ63 69
Ġ68 49
ĠL ar
ĠL ib
Ġr ot
Ġup st
Ġno d
Ġro pe
Ġfl ashes
ib be
ĠSc or
Ġ510 9
ĠWell s
Ġpsych ology
imp son
Ġmix ing
Ġid ol
win ning
Ġpil ots
ĠMore over
Any one
ĠFe ar
ĠRoy al
ĠBeaut y
Ġfro zen
Ġappla ud
Ġingen ious
Ġasp iring
Ġacclaim ed
ĠConsider ing
N A
e v
w s
or ters
im mer
ĠT ry
com es
ĠB unny
00 43
ble d
Ġ55 90
Ġ57 54
Ġ58 15
Ġab st
Ġ64 56
Ġ65 32
Ġ63 87
ĠF ish
ĠF arre
Ġ72 20
Ġv oted
ans ki
Ġrem akes
Ġ414 5
ĠBl ond
Ġ500 6
Ġ615 7
Ġ610 9
Ġ678 0
Ġhilar ity
Ġste el
Ġfilmm aking
Ġvict ory
ha ired
Ġpost ers
oop y
Ġla unch
Ġmat ched
Ġinevit ably
ĠGer ald
Ġclic hes
Ġdilem ma
H ar
b ins
m il
Ġw ing
Ġo min
Ġn arc
ad ers
Ġ40 82
ul se
Ġ48 66
Ġ49 11
Ġ52 11
Ġ52 89
Ġ50 14
Ġ50 53
Ġact ive
Ġ53 81
Ġ54 52
Ġ57 29
Ġ57 60
Ġ58 89
Ġ63 59
06 1
ard om
65 7
35 2
ĠV ill
ĠHe ad
Ġent ering
Ġres idents
az aki
Ġsub urban
Ġ415 7
Ġstand out
ĠSp ir
Ġsy nd
Ġ616 6
Ġmed ic
Ġ607 1
ĠRichard son
Ġclaim ing
ES S
Ġrap idly
Ġabsurd ity
Ġmut ant
Ġsepar ated
umph rey
ĠAw ful
Ġsympath ize
C R
D ra
O ut
c red
g le
he ll
Ġf ur
ou ge
om ic
Ġ36 84
Ġ42 73
ĠH ale
Ġ48 62
Ġ46 10
Ġ52 54
Ġ54 80
Ġ56 08
Ġ56 66
Ġ57 96
Ġ58 09
Ġ58 96
Ġ62 09
Ġ59 43
Ġ59 71
Ġ59 81
Ġ63 04
Ġ68 22
Ġout fits
Ġ73 51
Ġ75 56
85 8
83 4
for man
Ġinter rog
ĠSt iller
Ġgr ass
Ġexp osure
Ġheart felt
Ġ608 5
Th ank
ĠWestern s
Ġham my
ĠDick ens
Ġcruel ty
Ġinfect ed
Ġshel ter
Ġparan oid
Ġjudg ment
Ġdele ted
F F
Ġd ressing
Ġin cl
ĠI V
ĠS oder
Ġ35 22
ĠB ird
Ġ48 70
Ġ52 72
Ġdo om
Ġ54 78
Ġ58 55
Ġ62 14
Ġ62 95
Ġ66 35
ĠP ie
Ġr ats
ĠO ct
ĠK ell
gin s
Ġcast s
Ġep it
Ġhelp ful
Ġwar rior
Ġconf ir
ĠSc ary
Ġ511 9
ĠChrist ians
Ġ619 4
Ġ619 8
Ġ864 0
Ġcomb ines
Ġinsp ire
ĠBer ry
ĠMart y
Th ree
Ġcond uct
Ġcal iber
Ġtor ment
Ġscr atch
Ġpreview s
Ġath le
C r
J ean
T W
it el
Ġm ummy
Ġg olf
Ġn urs
il ia
ĠM olly
12 1
Ġ55 50
Ġ57 95
Ġ58 02
Ġ58 53
Ġ59 07
Ġ59 51
Ġ65 90
76 1
ĠL on
26 9
ĠO dd
Ġad vers
Ġfl uff
ĠAl one
010 5
Ġ609 0
Ġland scapes
Ġprogram me
girl s
ibl ical
Ġbefriend s
ĠâĢ ĵ
fet ched
M ore
O Y
S pe
c as
c les
n ell
p ers
u f
y ard
Ġp omp
st ood
Ġ28 78
ĠA RE
ĠA ccording
ĠS ab
ĠS leep
ĠThe at
Ġ39 60
Ġ40 33
Ġ47 70
ul ent
Ġ48 32
ĠD olph
Ġ52 20
Ġ53 88
Ġ55 77
Ġ55 39
Ġ55 56
Ġ57 07
Ġ57 82
Ġ58 29
04 78
Ġ62 83
Ġ62 91
Ġ62 32
Ġ59 09
Ġ59 66
Ġ64 10
Ġ64 03
Ġ63 29
Ġ68 68
ĠP op
ĠL E
ĠL ifetime
ĠR ent
ĠJ en
ĠN ero
Ġv ary
53 4
Ġbl ess
Ġri pping
vers ion
Ġpr on
Ġhand les
ĠAn im
Ġ518 8
Ġ516 3
Ġ603 7
Ġ615 1
Ġleg ends
zz zz
Ġtest ament
ĠPal ma
Ġvehic les
Ġkiss ing
ĠRand olph
ograph ical
ĠWOR ST
Ġinaccur ate
ĠFell ini
Ġscenar ios
D ER
L u
e vil
m ill
y man
ĠS ame
ĠS weet
Ġ44 33
Ġ45 31
Ġ47 03
ĠD er
ĠD ur
Ġ52 16
Ġ52 37
Ġ53 99
Ġ53 56
Ġ54 28
Ġ54 86
Ġ54 62
Ġ55 97
Ġ55 38
Ġ56 97
Ġ62 01
Ġ62 55
Ġ64 48
Ġ66 03
Ġ65 63
ĠL enn
ĠF un
Ġr ational
ĠO s
Ġsl aves
ath a
ock s
Ġhand ling
ok er
Ġcop ied
Ġtop s
Ġ511 3
Ġ608 6
unk er
Ġconst it
Ġroom mate
imp y
Ġimm ortal
ĠIndian a
mo ving
Ġearn est
ĠComp any
Ġexquis ite
C ont
l ar
v ard
y an
in ction
Ġm ales
Ġb ones
Ġb arrel
or ous
Ġl am
Ġn atives
ay ed
Ġas ylum
ĠA br
Ġsh oe
Ġ48 50
ĠD ance
Ġ55 73
Ġ55 83
Ġ62 74
Ġ63 31
ĠJ aws
ci ally
int age
Ġ61 10
Ġcont ribute
Ġra ising
Ġche ss
ĠShe ll
Ġmess y
Ġheart warming
Ġmother s
Ġ673 1
Ġaccept ance
ĠTr ust
Ġuns us
gra nd
Ġwand ers
Ġblat antly
Ġdisgu ised
ĠLion el
ĠCub a
Ġwilder ness
Ġdisast rous
" <
0 72
C la
b ill
e cut
Ġc attle
le ck
ĠM orm
ĠC ard
ĠH epburn
Ġ55 15
Ġ55 68
Ġ56 12
Ġ56 21
Ġ57 66
Ġ57 81
Ġ58 75
Ġ68 79
ĠL im
ĠL oc
Ġ72 55
Ġ75 05
65 9
44 8
Ġpart ially
au x
iv a
Ġrest ored
land er
Ġschool s
Ġ605 0
Ġ616 0
Ġtrans p
ik es
Ġ718 8
AL LY
ĠCol onel
Ġrefer ring
Ġappro aches
Ġpret ends
ĠVictor ian
umble d
Ġcow ard
Ġtap ed
Ġconvent ions
ĠFIL M
G H
c oun
d ark
Ġs pecially
Ġc ue
le m
Ġg am
ĠT IM
ad vert
Ġ35 13
Ġ52 10
Ġ54 83
Ġ55 45
Ġ56 33
Ġ56 32
Ġ57 99
Ġ57 39
Ġ58 42
Ġ66 54
Ġ63 09
Ġ63 45
Ġ68 20
qu ality
ĠF ors
88 8
Ġimp rison
sc enes
Ġunderstand s
ĠNot e
ĠBl oom
Ġ517 2
Ġcoll aps
Ġ608 2
Ġ692 8
Ġ674 3
Ġbreak down
ĠKe ep
Ġdest ined
avi er
Ġsqu ee
Ġdim in
Ġemploy ed
ibl ings
Ġdetect ives
Ġmonolog ue
Ġrecy cled
Ġbasket ball
f oe
t v
Ġw ax
Ġf ishing
Ġd well
Ġst are
Ġha pless
ĠB os
ĠM im
ĠH um
ĠH app
ĠD anger
Ġ52 99
Ġ53 23
Ġ53 60
Ġ53 34
Ġ55 47
Ġ56 63
Ġ57 26
Ġ64 72
Ġ64 07
Ġ64 60
Ġ63 01
Ġ68 45
ĠG us
Ġshe ep
Ġend lessly
Ġpre quel
Ġad just
Ġ67 05
Ġsp ider
ian ist
ane ous
Ġstud ying
reak s
Ġ519 0
Ġ609 3
Ġ611 6
Ġsle e
work ing
ĠBel ieve
Ġemer ge
Ar thur
Ġsket ches
heim er
Ġunsatisf ying
Ġtact ics
' '
t ake
Ġl y
Ġg ambling
ĠT am
ĠA ussie
Ġsh red
Ġdo se
Ġ53 45
Ġ54 54
Ġ55 72
Ġ57 40
Ġ58 26
Ġall ey
Ġ59 02
Ġ63 90
Ġ63 86
ĠG iant
Ġher s
98 7
Ġcont empt
oc racy
ĠSe ym
amp oon
Ġass ured
Ġ676 9
Ġ711 6
St ep
Ġsuggest ion
bb ie
Wh ich
ĠDra ke
Ġmass acre
Ġcontinu ing
Ġener getic
Ġban ter
ĠWH AT
Ġisol ation
Ġvast ly
Ġjeal ousy
ĠEver ett
Ġbes ide
Ġconve ys
ĠOper a
symp athetic
b od
m ath
s ized
Ġm ac
om ber
Ġd ates
Ġan ts
Ġ37 46
Ġ40 50
Ġ43 70
Ġ43 48
ĠH ulk
Ġ47 17
Ġ49 82
Ġ52 28
Ġ54 73
Ġ54 33
Ġ57 37
Ġ58 34
Ġ58 38
Ġ62 78
Ġ62 62
Ġ59 11
Ġ65 85
ĠG O
24 7
64 7
ĠO UT
Ġv o
ĠK az
ĠK ings
Ġover long
Ġfa br
ber gh
Ġent ered
Ġgr ateful
Ġdec ap
Ġgl ued
gu ard
Ġ616 5
Ġ712 8
LE ASE
ĠSim ply
Ġmel anch
Ġdelight fully
Ġapproach ing
ĠEnter tain
Ġelev ator
ĠNol an
ĠTod ay
ĠUnt il
ĠBran agh
) ?
G u
h ome
j as
w are
Ġa vid
er ic
Ġf ade
Ġm im
Ġto oth
Ġp ic
ly mp
ĠA aron
ĠS impson
ĠM ich
Ġ38 57
Ġ47 99
Ġ52 04
end ers
Ġ53 80
Ġ54 82
Ġ55 80
Ġ57 21
Ġ58 12
art y
Ġ66 23
Ġ63 13
Ġ63 05
ĠR upert
ĠF ans
Ġ72 28
Ġ73 63
Ġman if
83 3
our ke
Ġ67 14
Ġ67 02
ild a
Ġmay or
Ġsub text
Ġsm ug
Ġaud ition
Ġcouple d
Ġreg ion
Ġ618 2
Ġstop ping
Ġdeser ving
Ġdepth s
ĠMon roe
ĠGold berg
Ġimpl ied
bur gh
ĠSl ater
ĠBar ney
ĠColumb ia
Ġcance led
ĠNet work
Too le
M at
b es
g od
Ã ±
Ġw ire
Ġf ox
Ġb ald
es ar
ĠS hat
ĠS eth
ur ous
Ġ( '
ĠH awn
Ġsh ift
Ġ48 34
Ġ52 63
Ġ53 08
Ġ54 21
Ġ56 05
Ġ57 27
ol and
Ġ58 70
Ġ59 12
Ġ59 99
Ġ59 62
Ġ66 15
Ġout er
ĠG or
ook ie
Ġad ore
Ġfl ood
ĠShe arer
Ġco pe
Ġstr ings
Ġgl ance
Ġind ication
ĠCl ose
Ġcra w
Ġreg ularly
ĠChrist ine
Ġ716 7
Ġaccept s
Ġrepl ies
Ġla un
Ġconfront ed
Ġprostit ution
Ġsav age
Ġfianc Ã©e
ĠPrest on
g ren
g ling
s upp
Ġt rop
Ġp istol
Ġd iverse
Ġl imp
ch or
Ġse lection
Ġ35 79
ĠB ottom
ur man
ur ring
ĠC R
Ġ49 65
Ġj aded
Ġ52 69
Ġ53 02
Ġ55 28
Ġ55 87
Ġ56 69
Ġ57 14
Ġ57 84
Ġ57 97
Ġ62 19
Ġ78 48
ig ious
our ing
Ġcharacter izations
iz oph
fer ence
Ġfather s
Ġloc ated
011 2
Ġ603 3
bl um
Ġbo asts
Ġrecord s
ĠAf ghan
ĠTer minator
ĠSure ly
Ġtransl ated
Ġconnect ions
ĠKore a
Ġuniform ly
ĠCann on
Ġweakness es
Ġsarc astic
ĠSeym our
h all
m ust
t ies
it abh
Ġm asturb
Ġl oos
Ġst ap
Ġas semble
id o
ĠS OME
ĠM ant
Ġ45 74
Ġ49 52
Ġ46 19
Ġ52 79
Ġ53 61
Ġ54 56
Ġ62 29
Ġ59 49
Ġ64 74
Ġ64 71
ĠL one
Ġ74 00
ĠJ os
ĠN IGHT
01 10
ink y
Ġ' '
Ġplot ting
ĠV augh
att ract
Ġrep ulsive
Ġsy nt
Ġ516 0
Ġ608 1
ĠMc L
Ġ695 5
Ġprom ote
Ġrad ical
Ġast ounding
ĠGar land
Ġhook er
Ġcommit ment
fall s
Ġbab ies
ĠTor onto
Ġconven iently
ih il
Ġdom estic
bus ters
Ġpir ate
Ġrestra ined
Ġfortun ate
ĠPle as
izoph ren
L ife
f iction
in feld
Ġo k
Ġc ro
Ġn it
ĠA ven
Ġ32 00
Ġ43 18
Ġ44 67
ĠH ans
if ty
Ġ53 91
Ġk ar
Ġ58 20
op ic
Ġ65 00
Ġ63 34
Ġde vi
Ġ68 18
Ġ68 53
ĠF isher
Ġ72 43
Ġ79 76
be ing
ect ion
Ġrec ru
Ġext rem
Ġsing ers
Ġ606 1
Ġ606 8
Ġ512 2
Ġrespect ively
ĠTr uth
Ġbrain less
ĠTer rible
ĠHam let
Ġpath os
ĠAli ens
ĠFR OM
H en
S l
z ie
Ġth ieves
Ġp enn
Ġst airs
Ġ43 32
est y
el ope
Ġ50 16
Ġ53 78
Ġ53 71
Ġ54 13
Ġ55 40
Ġso ccer
Ġ62 71
Ġ59 08
Ġ66 18
Ġ66 52
Ġ65 58
Ġ63 65
ĠL anc
84 9
Ġv oc
Ġgr ay
Ġtra its
ram er
ĠBe atty
ank y
Ġ619 5
Ġforg iven
012 06
ĠPr ot
Ġprostit utes
Ġsafe ly
Ġvig il
Ġdub ious
ĠFant asy
Ġcigare tte
Ġexter ior
J ason
e ches
t or
Ġt ab
Ġo d
Ġb illed
Ġwh iny
st ill
oo o
ke es
un a
Ġ44 57
em ploy
Ġ52 93
Ġ50 31
Ġ54 29
Ġ55 42
Ġ56 89
Ġ57 46
ant h
Ġ58 52
Ġ58 56
Ġ62 89
Ġ66 82
Ġ65 55
Ġ68 78
ate ment
ĠG arden
Ġ75 70
44 6
Ġv otes
for ming
de ath
Ġgr in
Ġter rified
ĠAs ia
xt on
Ġmon u
ĠRe becca
Ġrep orts
Ġ603 1
Ġ613 0
Ġ618 0
Ġ676 8
Ġswe aring
mar ine
Ġran ch
Ġsour ces
ĠRon ald
ĠThank fully
Ġpatter n
ĠAbb ott
e tte
t ri
Ġ !!
Ġm ates
an es
ed uc
se en
un te
ĠB ou
ĠB ul
ĠB ava
ĠM inn
ĠC orn
Ġ46 35
Ġ52 41
Ġ50 76
Ġ54 63
Ġ55 63
Ġ56 50
Ġ58 28
Ġ58 41
Ġ58 50
Ġ62 76
Ġ64 64
Ġ64 47
Ġ64 51
Ġ66 97
Ġ65 10
Ġ65 98
Ġ63 94
Ġ63 46
ard less
Ġint entional
Ġro oting
Ġad vis
Ġpoint ing
sh adow
Ġ400 4
Ġdep ends
ĠRe c
cu it
Ġ605 1
Ġdesc ent
Ġ714 7
Ġevent ual
Ġpleas ing
Ġer ror
Ġwind ows
Ġhang s
IC K
Ġdesp icable
ĠMont y
Ġphenomen on
Ġobsess ive
c ow
f ound
s orry
v d
w ered
w itted
ĠB elle
ra iser
Ġbut ler
Ġ38 16
ĠH ooper
Ġsh ining
Ġsc andal
Ġ53 00
Ġ53 42
Ġ54 37
Ġab ortion
Ġ59 65
Ġ59 85
Ġ64 24
ĠP C
ĠP oir
26 7
Ġun iversity
44 5
ab re
ĠK i
Ġ70 74
Ġaw aken
Ġlong ing
ah am
Ġ419 1
Ġge ar
Ġhero in
Ġ608 8
Ġ609 6
Ġ605 3
Ġ610 2
Ġsusp ension
ump y
Ġmanner isms
ĠGold ie
Ġprogram s
Ġescap ing
Ġlay ers
Ġcontribut ion
Ġautom atically
Ġgor illa
oodb ye
Ġcul min
R ock
l iness
Ġt ent
Ġw ounds
re ction
Ġb ully
Ġp ulp
Ġd uck
Ġin just
Ġ33 76
ĠM ess
ul ously
Ġ48 45
Ġ49 97
ĠD ow
Ġ53 20
Ġ55 43
Ġ56 00
ol ved
Ġ58 82
Ġ62 92
ĠP oll
Ġ73 10
33 8
Ġqu e
Ġim pe
Ġ69 98
be aring
Ġcou ch
Ġyoung est
ĠTh under
Ġdel icate
ĠSc reen
Ġstud ied
010 2
Ġwa ves
Ġ603 6
Ġ602 2
Ġ613 6
Ġ617 3
ĠDa vies
Ġfill ing
Ġexplo its
ĠLyn n
ĠCle arly
Ġwheel chair
Ġflu id
overn ment
ĠBost on
! ".
P ol
l oud
m ut
v ability
er otic
Ġf aint
Ġc erem
on ents
Ġh ides
Ġp ant
Ġg hetto
Ġwas h
ĠB un
Ġ37 03
Ġ44 32
Ġch ills
Ġ54 40
Ġ56 86
Ġ57 11
Ġ57 62
ag ging
Ġ64 23
Ġ64 35
Ġ64 80
Ġ65 76
Ġ73 25
Ġgood s
Ġper cent
Ġ70 10
Ġtra ffic
ĠZ ero
inc arn
ĠEx orcist
Ġaut obi
ĠFred die
Ġdeb t
Ġdefe ated
Ġassum ing
ĠKat hy
turn ed
Ġglamor ous
Ġrescu ed
ĠDiet rich
Ġenhan ced
Ġunsus pecting
a is
d ict
k iller
o i
s ing
Ġa kin
al in
Ġre ceiving
ĠB ed
ĠH at
Ġ47 28
Ġ48 14
Ġ52 36
Ġ53 06
Ġ54 05
Ġ55 71
Ġ57 71
Ġ58 91
Ġ62 77
Ġ59 91
Ġ64 90
Ġ66 66
Ġ63 91
Ġ63 80
Ġ68 47
ĠG ere
Ġpro ving
Ġun cut
ab ol
Ġad ulter
Ġseem ing
Ġgi allo
Ġbu g
Ġhand ic
Ġac ademy
Ġcomm its
Ġ516 1
Ġblack s
Ġpass age
ĠLe ague
Ġpat ron
Ġconvin ces
roy d
Ġexplos ive
Ġassoci ate
ĠKenn eth
Ġdivor ced
ocr atic
Ġinexplic able
Ġincons ist
Ġlimit ations
Ġpubl ished
Ġshif ts
Ġprejud ice
M ad
M uch
x ic
Ġh oney
Ġp imp
br ain
il ot
Ġre ign
ĠC ons
ĠH appy
Ġ48 58
Ġ49 18
ĠD ig
el ia
Ġ54 98
Ġ55 88
Ġ56 55
Ġ56 37
04 43
ak ota
Ġ62 79
Ġ65 04
Ġ63 15
Ġ63 82
ĠL ily
Ġwor ship
ĠF E
Ġ74 43
Ġ76 14
ĠN on
ig el
99 7
Ġ60 15
Ġ67 72
Ġfl es
Ġ603 2
Ġ613 4
Ġ617 4
Ġ673 8
OT H
Ġ811 8
you ng
Ġrout ines
Ġcomparis ons
Ġyouth ful
Ġtoler able
Ġmas ks
Ġguarant eed
ĠSyd ney
Ali en
Ġvibr ant
M ark
c amp
e ar
Ġs iblings
Ġb read
ĠT urt
ĠS uddenly
ĠM acy
Ġ52 75
Ġ50 80
Ġ55 92
Ġ57 88
Ġ58 03
Ġ58 98
Ġ58 61
Ġ58 32
Ġ58 58
Ġ62 10
Ġ62 16
Ġ62 72
Ġ59 06
Ġ68 48
ĠL up
ĠG h
Ġ73 05
os al
68 7
Ġup side
ĠCh ow
ĠV era
ĠJo h
Ġsm iles
ier ney
Ġbudget s
ĠMy r
Ġ618 4
Ġ692 4
Ġleg acy
bor g
ĠBra vo
ĠAct ress
ĠHen ri
Ġadvert ise
ĠShar on
Ġetern al
ĠFriend s
Ġunimagin ative
B ill
U RE
a cious
c ript
h ur
Ġm ail
il ip
Ġre vers
ĠS or
ĠB ourne
ĠH umphrey
Ġ53 47
Ġ54 15
Ġ54 67
Ġ55 29
Ġ56 57
Ġ57 12
Ġ57 05
Ġ57 86
Ġ58 22
02 1
art ed
Ġ64 13
Ġ66 76
Ġ66 83
Ġ63 12
Ġ63 20
Ġcon j
Ġ73 77
44 3
Ġdis mal
Ġsp ree
Ġthr ust
Ġvi le
Ġbr ooding
Ġcr ashing
Ġins pect
arr owing
Ġinc idents
Ġ417 8
ĠRe volution
oid s
Ġ600 0
Ġ672 6
ĠBen ny
with out
ĠMad sen
Ġpract ical
With out
Ġden y
Ġmir acle
Ġeduc ated
Ġveter ans
Ġunc ertain
Ġanticip ation
Ġcy cle
Ġtit ular
Ġrelent less
ĠHack man
Ġomin ous
H ell
I VE
U CH
b eth
c re
e or
Ġf oil
at ile
at hered
ot ally
ĠA S
ĠS hy
Ġ33 12
ĠH on
Ġwho re
Ġ54 08
Ġ54 36
Ġ62 94
Ġ59 26
Ġ64 29
Ġ66 93
Ġ63 10
75 1
Ġ74 35
Ġ74 48
95 0
ĠG ard
55 6
53 6
ass ic
Ġ67 18
Ġfl ashy
ĠHe ck
Ġatt ended
Ġsl ack
Ġtra ce
Ġ417 4
Ġ514 1
Ġdefin itive
ĠÂ £
Ġ604 1
Ġ676 4
fl in
Ġdest iny
ĠCol bert
Ġdam aged
ĠCra zy
Ġgentle man
ĠKid man
Ġtoss ed
ĠDal ton
ĠFors y
ĠLanc aster
A pp
b ul
x im
Ġa er
Ġw ider
it ivity
Ġc oc
Ġin formed
Ġ/> --
ent ertain
Ġn un
ĠB ab
Ġ46 18
Ġact ivity
Ġ53 10
Ġ54 12
Ġ55 66
Ġ62 45
Ġ62 35
Ġ59 76
Ġ65 41
Ġ63 24
Ġ63 54
ĠP ierce
ĠL und
Ġ72 94
Ġ73 62
Ġun related
Ġlo ck
od es
ĠK iss
Ġreal ities
ĠHe ather
Ġexpect ation
Ġdep ending
Ġ414 0
Ġ510 7
ĠDon na
Ġsw amp
Ġ614 8
Ġ600 5
Ġquestion ing
pro fess
Ġball et
?! ?!
ĠTw ilight
Ġconcent rate
spir ited
ĠBark er
ĠDaw son
D S
F inal
O ur
f ive
g or
l ucky
m ph
m outhed
z og
Ġb abe
at man
Ġc aps
Ġd rew
ĠI ll
ad venture
Ġ29 61
Ġse lected
ĠB oo
ra ged
Ġ50 92
Ġ57 03
Ġpl ate
Ġ65 06
Ġ65 71
Ġ63 75
Ġ68 16
Ġ68 95
Ġout right
Ġv intage
ish a
Ġ69 18
Ġres ume
Ġfact ors
Ġapp ly
Ġins urance
Ġco at
av in
yp sy
Ġass ure
Ġ510 1
Ġ602 4
Ġ611 8
Ġ702 7
Ġ703 6
Ġ717 2
sp ace
Ġsoon er
Ġ711 8
ĠEl m
ĠGu est
Ġer r
ĠGood man
Ġground s
Ġnotice able
Ġsuit ably
irt ies
Ġpaint ings
Ġbre ast
Ġpursu ed
ĠAmaz ing
cult ure
doc umentary
Ġenh ance
! ).<
B ased
L es
O ver
b ians
g ore
l u
o en
r ine
y y
le ader
ot ional
ĠA wards
Ġse edy
ĠD ia
Ġ54 90
Ġ56 01
Ġ56 60
Ġ58 44
Ġ62 07
Ġ62 36
Ġ59 72
Ġ63 25
and ers
Ġ68 00
ĠP oe
Ġ75 13
Ġ83 77
Ġme al
Ġpro spect
85 7
48 6
our se
Ġ67 12
Ġ67 76
Ġreal ization
Ġbl unt
ĠV ince
alk ovich
ĠBr ady
Ġwar ming
Ġ603 4
Ġ603 8
Ġ693 3
Ġ694 3
Ġir re
ili pp
ĠPet ers
Ġremind er
itz er
ĠMa e
ĠPri vate
Ġbird s
ĠVen ice
ĠElli ott
Ġagg ressive
Ġaest hetic
ĠMount ain
import ant
! ?
t ale
Ġs omeday
Ġb ent
Ġto ken
Ġe cho
ĠS andy
ĠB rig
00 97
ĠW T
Ġ49 07
Ġ55 70
Ġ55 67
Ġ57 09
Ġ58 08
Ġ58 87
Ġ59 92
Ġ59 98
Ġ66 55
Ġ65 17
Ġ65 72
Ġ65 49
Ġ63 30
Ġ63 57
ĠL ore
ĠR anger
ĠF ort
Ġ74 54
ĠG ot
Ġ67 19
Ġ106 94
ĠSt orm
ĠU P
Ġcomp rehend
Ġprodu ces
Ġsub urb
Ġgl aring
ĠAll an
Ġsk its
ĠSp oilers
Ġblack mail
ĠChrist ina
ĠWill ie
Ġ614 2
Ġ712 0
Ġ710 8
Ġ679 4
Ġ796 0
ĠSam antha
Ġcritic ize
ĠAg ent
RI BLE
Ġfram es
rec ogn
Ġinstit ution
ĠGil bert
Ġintric ate
L ou
g t
m ers
s or
u led
Ġf ires
Ġm asc
Ġb illing
Ġc ere
Ġh uh
am our
ĠA F
un less
ĠB orn
Ġnot eworthy
ĠH ick
ĠH uman
Ġj et
Ġ56 70
Ġ62 61
Ġ64 75
Ġ65 96
Ġ65 91
Ġ68 10
Ġ72 78
Ġ73 28
93 7
Ġ84 61
reat ed
88 9
Ġus ers
Ġ69 74
Ġfl im
Ġold est
ign ific
ition ally
Ġentire ty
ĠMar ilyn
Ġ605 5
Ġ618 1
Ġmis fortune
Ġ694 8
Ġfem inist
ĠCon ne
ĠCon rad
Ġpolit icians
ze ch
Ġ677 1
Ġinf o
Ġment ality
Ġmid st
Ġinterview ed
Ġtend ency
ĠStep han
Re ally
Un like
ĠMcC arthy
ĠRo oney
Ġstat ue
ĠSecond ly
Ġtap es
Ġalter ed
ĠDri ve
Ġeconom ic
Ġiron ically
Ġmechan ical
Ġstabb ed
ĠCe cil
T ake
r ary
er able
Ġo l
en cing
Ġf ifties
Ġb ulk
at hy
or us
ĠT roy
oo ke
ĠM alt
ĠC ou
Ġ44 13
Ġ50 13
Ġ56 72
Ġ58 23
Ġ58 36
Ġ62 63
Ġ62 65
Ġ59 32
Ġ64 84
Ġ66 44
Ġ66 27
Ġ65 14
Ġ65 24
Ġ68 29
ĠP sycho
ĠR el
Ġor g
Ġ74 86
Ġcon cl
Ġ72 64
Ġ72 70
Ġ83 78
68 8
pp ers
Ġar range
Ġdon t
Ġfl avor
Ġsl am
Ġexpl ode
Ġdel icious
Ġ413 8
Ġsk ate
que tte
Ġexam ination
Ġ612 6
Ġ602 0
Ġ615 4
Ġ696 7
ik i
Ġ679 1
Ġ715 6
ush i
Ġaccept ing
Ġcommun ication
Ġminor ity
ĠGold blum
Ġvirt ual
Ġdeterm ination
des pite
Ġprinci ple
ĠRick y
ĠFull er
Ġreward ing
Ġjack et
pol it
ĠGeor gia
Ġdent ist
ĠJol ie
Ġsubstant ial
J ane
J eff
b omb
f ights
l ies
w it
Ġf ruit
es se
an u
ĠI Q
ow ulf
ĠC ir
ĠC ool
Ġ57 73
Ġ62 17
Ġ59 27
Ġ59 46
Ġ64 63
Ġ64 39
Ġ65 01
Ġ65 70
Ġ63 18
Ġ68 25
Ġ68 42
ĠP ic
ĠP fe
ĠJ et
Ġ76 84
Ġ75 33
Ġ69 78
Ġrem embers
li ed
Ġinst ances
Ġco hes
Ġ606 5
Ġ619 0
Ġ678 7
Ġ706 7
Ġ694 2
Ġdem onic
OU N
ĠSm all
Ġappro ached
Ġcolle agues
tr ue
ĠLind say
ĠUl timately
Ġinher it
ĠSoder bergh
C ra
F O
H O
L ost
R ay
U p
l und
p ic
u fact
w estern
re ality
Ġg lee
Ġit ems
Ġbe g
Ġ32 15
Ġ36 61
Ġ37 15
ĠM ack
ĠC uster
Ġ48 06
Ġ48 56
Ġ46 95
em en
out ing
Ġ54 35
Ġ57 15
Ġ57 18
Ġ57 72
Ġ58 67
Ġ62 08
Ġ62 06
Ġ62 73
Ġ62 43
Ġ59 40
Ġ64 88
Ġ64 31
Ġ66 09
Ġ66 25
Ġ66 67
Ġ65 75
Ġ65 94
Ġ63 17
Ġ68 51
Ġsu gar
ĠG am
Ġ76 25
24 9
Ġ87 06
Ġ69 06
be fore
Ġunder world
ĠU we
Ġra iny
Ġtri als
app ro
Ġpr ow
Ġbu zz
co pe
Ġcam ps
me aning
Ġrele vance
ĠRob bins
Ġdist raction
Ġ609 5
Ġ692 7
Ġmor ons
ĠIs lam
Ġmyster iously
Ġcomment ing
aught y
Ġstate ments
Ġdoll s
pr ot
Ġexperien cing
Ġdistract ed
ĠSal man
Gr ade
Ġcaric atures
Ġlegit imate
M on
f ighter
h u
u ki
Ġs anity
Ġb um
Ġh ollow
Ġd un
Ġin mates
ve ll
Ġan gu
Ġ38 42
ĠD iamond
Ġ56 14
Ġ56 81
act ually
Ġ57 17
Ġ58 60
Ġ62 21
Ġ66 92
Ġ66 40
Ġ65 99
Ġ68 40
ĠP S
ĠF ight
Ġjust ified
26 1
are ly
Ġ80 78
Ġsp ont
ĠV o
Ġcomple t
aut iful
010 6
Ġ615 0
Ġ600 7
Ġ695 4
Ġ719 1
Ġ928 3
Ġspir ited
RE E
Ġmid get
ĠSer gio
Ġcross ing
ĠMel issa
ĠDog s
Ġcontrovers y
Ġparall els
Char les
ĠBros nan
ĠWend y
ĠMiy azaki
ĠClo oney
S aw
b oo
l it
Ġ >
Ġt att
Ġt urd
Ġw are
Ġo wes
it arian
ĠM ick
Ġ38 85
Ġch ron
Ġ56 99
Ġ56 41
Ġ57 49
Ġ58 79
Ġ62 88
Ġ59 03
Ġ59 94
Ġ59 97
Ġ59 61
Ġ64 73
Ġ64 99
Ġ64 45
Ġ66 50
Ġ66 31
Ġ66 59
Ġ65 12
Ġ73 64
Ġ73 66
Ġ76 53
ig ning
use y
ci le
Ġ94 73
Ġreal istically
Ġcr am
Ġfar mer
Ġclass y
Ġread er
Ġdram atically
Ġhead ache
ĠBl ues
ĠSe ptember
Ġconsider ation
Ġ606 9
ĠCar men
Ġ616 4
Ġ611 7
Ġmor on
Ġmed ieval
Ġ708 1
Ġ714 2
Ġste er
Ġshock s
Ġbel t
Ġrespect s
Ġ774 4
Ġconv ention
Ġrap id
Ġstunning ly
ĠDark ness
Ġpra ised
Ġcelebr ation
Ġboo st
Ġsword s
ĠYOU R
Ġstalk ing
Ġsincere ly
Ġpedest rian
ĠEntertain ment
D uring
s usp
Ġc urt
Ġh arrowing
Ġmo ld
Ġ29 29
ĠH ou
ers h
Ġ48 72
Ġ55 54
Ġ56 56
Ġ57 98
Ġ57 67
Ġ58 06
Ġ65 07
Ġ65 20
Ġ63 58
Ġ68 44
Ġ74 84
Ġ74 46
Ġ74 30
Ġ72 48
Ġ75 86
ĠO lymp
Ġfe ast
33 6
pl us
Ġ60 17
Ġ79 16
less ness
Ġorigin s
Ġ410 5
Ġ519 3
Ġ613 8
Ġ700 3
Ġ816 6
Ġ818 6
Ġland mark
Ġneg lect
su it
Ġaffect ing
uk h
Ġstreng ths
cor der
Ġlink ed
Ġbetray ed
Ġaccess ible
ĠHA VE
Ġchamp ion
step s
Ġinform ative
Ġbew ild
ĠBac on
* <
G et
I ES
h ang
m ach
Ġthe ories
Ġf odder
Ġb ike
Ġc emetery
Ġd uration
ĠT ierney
Ġ20 57
Ġ36 17
00 28
ĠM ul
Ġnot ices
Ġwho les
Ġ55 48
Ġ56 06
Ġ57 89
Ġ58 35
03 65
Ġ64 52
Ġ66 12
Ġ66 78
Ġ66 01
Ġ63 70
Ġ68 30
ĠP ig
Ġ74 26
Ġ72 98
Ġ73 48
68 2
22 9
Ġcl in
Ġcl one
Ġ60 10
Ġsp an
Ġund ead
ĠSh ot
Ġspe eches
011 7
Ġ519 4
010 9
Ġ603 5
Ġ696 3
Ġ619 7
Ġ710 1
Ġ709 9
Ġunf amiliar
Ġcolle ague
Ġexplo ited
ĠChristian ity
ĠCo hen
ĠSil ent
Ġrese ar
ĠLes ter
ĠMal colm
ĠSpace y
Ġsal v
cil ess
dra wn
Ġdump ed
ĠMcD owell
Ġmesmer izing
ARN ING
B ottom
N iro
S m
T S
m ag
at ography
Ġp als
Ġd iver
us sy
us ively
com mun
ĠA y
Ġch op
Ġ48 29
ĠD est
Ġ53 38
Ġ55 14
Ġ56 74
Ġ62 20
Ġ59 25
Ġ66 79
Ġ63 36
Ġ63 51
Ġ68 15
ĠP ir
ĠF ield
Ġ74 44
Ġcon co
Ġ76 72
Ġ76 35
Ġ76 86
Ġ85 86
ĠE V
ĠE bert
Ġcl erk
Ġ69 17
Ġunder m
Ġbu ys
xt ap
Ġed it
Ġass ert
Ġremember ing
Ġ519 1
ĠMc Queen
Ġ705 0
Ġsn ap
ĠDan ish
Ġdecided ly
Ġmouth s
Ġcell s
Ġmir ac
Ġdepart ure
Ġaband on
Ġadvert ised
Ġsubsequ ently
Ġdeliber ate
Ġchoos ing
Ġpsy ched
Ġconclud e
Ġvom it
ĠSoph ie
h r
n ick
p orn
Ġw art
Ġf ierce
an ca
Ġp atch
ic er
Ġre ar
Ġre ci
ĠA R
Ġan c
her d
Ġ47 83
el f
Ġ50 89
Ġdo c
Ġ53 50
Ġ54 17
Ġ62 50
Ġ59 37
Ġ59 38
Ġ64 02
Ġ64 68
Ġ64 67
Ġ66 47
Ġ65 51
Ġ63 07
Ġ68 80
ĠR ourke
Ġchar ms
Ġup coming
Ġgo als
Ġoff beat
ob er
Ġinter ior
ace y
ath om
ĠDe M
Ġmon keys
Ġ513 0
Ġret rie
Ġvide ot
011 9
ĠZ o
Ġ615 9
Ġ610 1
Ġ675 7
Ġ796 8
Ġprof it
ĠCon st
Ġfill s
oman iac
war z
Ġinsult s
mark et
ĠCarl os
Ġcrack ing
Ġcris p
ĠInc red
Ġacknow led
ĠMach ine
ĠHU GE
ĠPoir ot
Ġimpe cc
Ġt a
or gan
ll ie
ar ound
Ġd ut
et c
Ġli qu
ĠM ath
Ġ40 80
ĠC BS
Ġ45 34
Ġ53 25
Ġ53 31
Ġ54 38
Ġk udos
Ġ57 10
Ġ58 46
art ing
Ġ62 96
Ġ62 67
Ġ62 58
Ġ59 41
Ġ59 39
Ġ64 04
Ġ64 65
Ġ65 19
Ġ65 21
Ġ65 60
Ġ72 90
Ġ72 67
Ġ72 34
Ġ78 11
Ġun success
88 4
ful ness
iz za
Ġ69 00
Ġ69 93
ĠAl as
app reci
iv als
ĠBe a
Ġel ite
Ġadd icted
Ġsk illed
Ġ605 6
Ġ615 2
Ġ617 0
Ġ715 9
Ġ708 7
ĠPl ace
ĠAng us
Th ose
Ġimpro bable
alt row
Ġserv ices
achel or
ĠSpe aking
ĠPar amount
ĠPac ific
ĠZomb ies
Char lie
Ġstyl ized
ĠHy de
Ġstro ke
conne cted
Ġslim y
M ary
U nd
b ber
e ge
g ame
m ult
r ity
v ous
it ure
Ġb ounty
at ers
Ġh ires
Ġl end
ad el
ĠA CT
Ġ30 90
00 46
ĠC and
ĠW ing
Ġsc ored
Ġ50 65
Ġ56 09
Ġ57 48
04 72
Ġ62 48
Ġ59 21
Ġ64 79
Ġ66 04
Ġ65 92
Ġde gener
Ġ68 63
ĠL ans
Ġ74 18
res ist
22 7
Ġ95 15
Ġen chant
55 5
Ġper verse
Ġpo cket
Ġro se
Ġri fle
az ard
Ġbit ing
Ġread ers
ĠTh urman
sh i
Ġinc ap
ĠSp encer
Ġ609 2
Ġ613 5
Ġ618 3
Ġ676 0
ĠDa foe
Ġ678 2
Ġ710 5
Ġfem me
Ġcol ours
OU SE
insp iring
Ġtick ets
Ġdemonstr ate
Ġreward ed
ĠRun ner
Ġramp age
Act ually
resp ons
Ġreli able
ĠAle c
indul gent
ĠSopran os
ĠShat ner
P r
p sych
Ġs ane
Ġs ession
at hing
on ial
Ġn om
ĠT een
Ġre vis
Ġst ake
Ġfor med
ĠM iami
Ġ47 00
Ġ52 14
ain es
Ġ57 16
Ġ57 74
ol is
Ġ58 13
Ġ62 23
Ġ62 66
Ġ65 93
Ġ63 37
Ġ68 94
Ġ68 37
Ġ68 39
Ġ74 50
Ġ72 73
Ġ76 87
Ġ78 18
Ġun sympathetic
55 4
Ġ69 10
Ġsl ut
Ġmight y
Ġconf use
Ġstud ies
Ġ516 8
tern al
Ġ610 3
Ġz one
Ġ614 3
Ġadm ission
Ġ692 2
Ġ698 8
Ġ718 6
Ġ779 0
Ġ714 8
Ġsol o
Ġneg lected
ĠGl oria
IT E
Ġargu ments
Ġsell s
Ġorgan ization
ĠHor rible
Ġneat ly
Ġgar age
Ġpurs ue
Ġsore ly
ĠVaugh n
Hen ry
b re
b ull
v entional
Ġt unnel
Ġf reaking
Ġc ries
Ġh ats
Ġp iv
Ġl ends
al ike
ent on
Ġe c
Ġst ardom
Ġ30 23
ĠS inger
ĠB ride
ĠC ro
ĠC reep
Ġ49 67
Ġ62 52
Ġ64 05
Ġ64 50
th ank
Ġ63 48
92 7
ĠJ ar
ate ll
Ġ76 04
Ġ75 48
Ġ75 61
Ġ83 14
Ġ85 78
itt e
ĠK ra
Ġafter math
ild red
ĠAl ive
ĠBe an
ĠSh ore
ĠDe bbie
Ġ500 2
IN D
Ġ604 9
Ġadm its
Ġ702 5
ey e
Ġ775 1
Ġ715 3
ĠHer bert
ĠEd ge
Ġpos ing
Ġsens ible
OO K
Ġine ffect
ĠSch ne
ls en
Ġinsight s
Ġfund ing
ĠSund ance
Ġinj ury
Christ opher
Ste ve
ĠFore st
Ġrabb it
F T
F our
h usband
r ates
w ich
Ã §
re f
Ġf uel
Ġp oo
Ġd il
as per
ĠT ucker
ri a
ĠA x
ĠS oul
ĠB udd
ill usion
Ġj oint
el er
Ġex empl
Ġ55 74
Ġ56 19
Ġ57 79
Ġ57 77
Ġ57 53
Ġ58 30
Ġ66 77
Ġ66 85
Ġ66 36
Ġ65 84
Ġ65 86
Ġ65 53
Ġ65 62
Ġ63 63
Ġ63 49
and ro
Ġ68 64
Ġ68 89
ĠP ulp
Ġout dated
Ġ74 73
Ġ73 53
Ġpro ced
Ġpo se
Ġ69 77
Ġent ries
Ġra ve
ris ing
Ġneed less
Ġart work
ĠDe f
ĠNo ah
Ġ614 1
Ġ672 8
Ġ796 7
rit z
OR Y
oun ce
Ġ924 0
ĠAd rian
ĠBen nett
Ġ803 1
Ġavoid ing
Ġsatisf action
Ġsuspect ed
Ġaffect s
ĠST ILL
Ġencounter ed
Ġorgan ized
Ġprinci p
Ġcust omers
Ġgig antic
ĠSupp orting
ĠSN L
Ġabst ract
attract ive
f lix
i ate
Ã ¤
he e
at oes
Ġl aser
ĠI van
Ġbe gging
ĠD oo
Ġ54 64
Ġ59 04
Ġ59 45
Ġ59 60
Ġ64 55
Ġ66 75
Ġ63 08
Ġ63 35
Ġ72 80
ĠJ uly
Ġ75 02
Ġ78 65
25 7
ĠN iven
Ġun cover
ĠO p
84 7
ves ter
nt on
Ġ67 78
au f
Ġ69 95
ĠSt upid
be ck
les h
ner ed
Ġcinem as
Ġopen ly
Ġmaster s
Ġ695 1
Ġ793 9
ters weet
Ġred undant
Ġintrodu cing
ĠBill ie
ĠAct ors
ĠBoy le
Ġclean ing
Ġbene fits
Ġic onic
Pl an
Ġenthusi astic
ĠAsh ley
ĠWr iter
Ġbik er
Ġhipp ies
Ġsuspic ion
" --
. ).
M el
N Y
S il
S et
p rop
z ona
Ã ł
Ġ42 06
ĠC rit
Ġ48 91
ain ts
Ġab omination
Ġ59 23
Ġ64 20
Ġ66 17
Ġ63 62
Ġ68 91
Ġ68 57
ĠP BS
ĠL ess
ĠF ra
Ġ74 88
Ġ72 21
ĠG oes
Ġ76 11
Ġ76 29
Ġ76 81
og en
Ġtw ent
Ġ69 15
ĠCh amber
ĠV oy
Ġcr ooked
az i
Ġsm arter
Ġshot gun
ah a
ĠMar low
Ġ602 8
Ġ613 1
Ġ618 5
Ġ676 2
Ġpar ade
Ġ678 4
Ġ678 6
con st
Ġ802 1
Ġcheap ly
Ġ719 2
ĠKe itel
Ġ868 4
Ġve get
Ġcamp us
upp ets
Ġextra v
ĠEm peror
ĠNight s
Ġdelight ed
Ġinflu ential
Ġdiscuss ed
Ġgrow th
Rob in
Ġpeace ful
Ġconvey ed
ĠMet al
idel ity
ĠCase y
orient ed
Ġdazz ling
dys sey
E r
M o
N ext
O ld
l ady
m ic
m ical
n ames
v ention
Ġb astard
Ġl ol
Ġ21 41
Ġ26 20
ĠA V
Ġse ats
Ġha voc
ĠB rett
ĠB usey
Ġ39 13
Ġ52 40
Ġ56 96
Ġab ound
Ġ62 03
Ġ62 42
Ġ64 42
Ġ64 37
Ġ66 73
Ġ65 02
Ġ65 08
Ġ65 09
Ġ65 79
Ġde ft
Ġ68 98
Ġlike wise
Ġ72 95
ĠG R
Ġ73 79
Ġany ways
Ġro bbers
wood s
osed ly
sh ould
Ġposs ession
ĠZ e
Ġpain ter
Ġpain ts
ĠÂ ħ
Ġ606 3
Ġpop ping
Ġ611 1
Ġ706 8
Ġ713 2
Ġ776 3
Ġhusband s
Ġ794 0
Ġachie ves
Ġemploy ee
Ġsuck er
Ġsin cer
Ġtight ly
ĠJan et
Ġfif th
ĠWH O
Ġmisunder stood
Ġsen ior
Ġacknow ledge
ĠGi allo
Ġgest ures
ĠGabr iel
Ġdow nt
ĠBun uel
n ik
ou ement
Ġh ust
ĠB rent
Ġ44 87
Ġj am
Ġ52 73
Ġ59 17
Ġ65 50
Ġ63 14
Ġ68 84
ĠP altrow
ĠR itter
Ġ75 52
Ġ85 43
Ġ84 18
Ġr ic
Ġ93 02
Ġar ray
ep s
Ġro bbed
Ġ70 17
Ġ67 09
Ġ79 02
Ġinter l
ĠY an
Ġback s
Ġsl a
Ġins uff
Ġart sy
Ġdep ra
Ġ510 0
Ġ617 1
off ice
Ġsw itched
Ġ692 6
Ġcent re
Ġ698 6
Ġcrit ique
Ġ772 0
wr ite
Ch ris
Ġsick ening
ĠVan essa
ID E
Ġmedioc rity
Ġver bal
Ġsch izophren
Ġens ure
Ġbatt ling
Ġconven ient
Ġcroc odile
Ġcharacteristic s
ĠEv ans
Ġplod ding
ĠTok yo
" :
P P
d ance
g one
Ġc unning
om as
Ġin clusion
ut o
ĠT ib
st orm
ĠS ter
00 38
Ġ43 98
ĠC ob
ĠH omer
Ġ53 90
Ġ53 54
ant a
Ġ62 80
Ġ64 09
Ġ66 05
Ġ66 80
Ġ66 81
Ġ65 54
Ġ68 13
Ġ68 74
Ġ68 50
ĠR ath
Ġne ut
Ġ73 46
Ġ75 68
ĠK nox
ĠK udos
Ġdis abled
Ġ70 15
Ġinter tw
Ġatt ach
Ġbr at
ok o
Ġmon ks
Ġ417 9
Ġ606 6
Ġ602 6
Ġ610 4
Ġ779 1
Ġ704 5
Ġ704 8
ek ing
Ġ714 6
Ġ699 9
Ġ774 2
ĠTra vis
Ġcru ise
AC T
ĠSand ers
ĠMcC l
cur rent
ĠGar ner
Ġunw illing
Ġtransl ate
tw ist
Ġshark s
ĠSun shine
Ġcontribut ed
ĠShar pe
Ġgee k
Ke vin
Ġax e
Ġprompt ly
Ġdup lic
Ġnomin ations
Ġwart ime
M ay
T im
k id
m ess
Ġo o
Ġp anic
im bo
Ġit em
Ġy ard
ĠA way
00 73
ĠC urse
Ġ44 05
Ġ47 12
Ġ47 02
Ġ56 17
04 48
Ġal ert
Ġ62 87
Ġ64 57
Ġ66 96
Ġ68 33
ĠF ace
ĠG ree
Ġ76 42
Ġ75 24
Ġun sc
Ġint act
ci pl
Ġins omn
ĠCl ar
Ġrep ressed
ax y
Ġ510 5
Ġ516 7
Ġ612 5
Ġ602 3
Ġ611 4
Ġadm ired
Ġ702 3
Ġ700 9
ĠHer zog
012 08
Ġdam ned
ĠSim mons
Ġresem bling
ser ious
ĠMal one
ĠCass idy
ĠLook ing
nett es
bour ne
Ġcha otic
ĠArm strong
Ġglim pses
ĠPant her
Pre tty
Ġlav ish
ĠFarre ll
Ġassemble d
P oor
p rom
s ens
x y
z omb
Ġt urt
or ical
Ġth ug
Ġh ockey
Ġg aps
ĠB reak
Ġ39 63
00 69
00 89
ĠM ask
ĠM alkovich
Ġ42 75
Ġ38 35
Ġ43 76
Ġ49 56
Ġsc ant
Ġ54 11
Ġ56 23
Ġ58 39
Ġ64 18
Ġ66 49
Ġ66 37
Ġ66 57
Ġ65 28
ĠF O
Ġ75 50
Ġv oodoo
Ġ67 00
Ġsp aghetti
ob ile
Ġbl ues
ans wered
ĠIn n
Ġrem o
Ġres ident
Ġinv ention
Ġ609 9
Ġ696 8
Ġ614 6
Ġ712 6
Ġ674 4
Ġ714 9
Ġ711 3
Ġ1192 8
Ġdin er
Ġhy brid
ĠBar on
Ġfreak y
Ġskin ny
Ġvol unte
Ġtor mented
Ġhyster ically
Ġsitcom s
Ġembr ace
ĠWid mark
A dd
S n
b ach
f olk
p un
in ian
Ġs unk
Ġb itten
Ġc age
Ġh ott
Ġp ran
st y
ĠS ue
ĠS lo
ro it
00 39
ĠM ol
ĠM ummy
ĠH erman
Ġ57 19
Ġ58 94
Ġ58 43
Ġ62 60
Ġ65 34
Ġ65 38
Ġ63 52
Ġ68 36
ĠP ass
ĠP LEASE
ĠL ana
Ġne o
Ġ74 68
Ġ74 37
ĠG ee
Ġ75 00
Ġ75 44
Ġ78 63
Ġman ufact
ĠK ind
Ġpo ker
Ġdis regard
Ġmin ister
ia h
Ġbelie vability
Ġcome back
ĠAr k
Ġdra ft
ĠDa ffy
Ġstuff ed
Ġ679 9
Ġ718 5
Ġ674 7
Ġ773 9
Ġ795 0
St ory
ĠBer nie
ĠWho ever
Ġcollect ive
Ġconv icted
Ġcartoon ish
Ġprep aring
ĠWW E
Ġprotect ion
Ġmob ster
ĠPal ance
Ġfra ud
Ġexplod ing
ĠDirect ion
ĠPy thon
Ġlic ense
ĠCore y
Ġmedic ine
d ad
t ar
Ġ um
om a
Ġin advert
Ġl ion
Ġ/> **
ĠT ale
ĠT ER
ĠB rilliant
ĠW inter
ĠD ist
Ġ56 98
ag u
Ġ62 28
Ġ59 96
Ġ66 10
Ġ66 95
Ġ66 69
Ġ66 42
Ġ68 31
79 0
ĠL augh
ĠR aim
Ġlike able
ĠF ly
Ġ74 12
Ġ74 04
Ġ72 46
Ġ73 99
ard on
Ġ84 16
Ġman ic
ure au
Ġ60 75
Ġbad dies
Ġ67 07
Ġsp ine
per ing
ĠSt ay
be tter
oot s
ĠDe Niro
arn ed
cept ions
Ġind icate
Ġimag inary
ĠRe agan
Ġcra z
ax i
ĠÂ Ĺ
Ġ616 2
Ġpar odies
Ġ692 5
Ġ698 1
fl ick
Ġ709 3
Ġ815 9
Ġ719 6
ĠDan a
Ġsent ences
Ġ1010 2
Ġexist ential
Ġporn ography
Ġhost ile
Ġtour ist
Ġfool s
produ cer
ĠPar ad
ĠNic ol
Ġpatri otic
cam era
Ġhun ters
Ġabsorb ing
Ġsust ain
Ġrebell ious
Ġarchite ct
Ġantagon ist
ĠPfe iffer
2 001
? ".
e u
e ating
z or
Ġt ire
Ġd uel
Ġbe ard
ĠA ld
Ġ33 43
ĠB ishop
Ġ45 12
Ġsh opping
Ġ55 81
Ġso ber
Ġ59 56
Ġ64 01
Ġ64 86
Ġ64 82
Ġ64 30
th in
Ġ66 02
Ġ66 06
Ġ65 80
ĠP ak
ĠF ried
Ġ74 23
Ġ72 76
Ġ72 22
Ġ72 45
Ġ73 43
Ġ75 64
Ġ75 97
Ġ83 44
Ġun ion
Ġ93 99
Ġper ception
ĠK l
Ġ60 18
Ġ69 01
Ġgr is
Ġsm ash
av our
Ġinc on
Ġcomm ander
ĠCl aus
Ġstar ters
Ġref lected
Ġ694 9
ĠHer cules
Ġprot est
Ġcover ing
Ġsens ation
?" <
angu age
Ġmeant ime
room s
OW N
Ġbi opic
Ġinspir ational
Ġmyth ology
Ġbab ys
Ġuniform s
Ġvig nettes
fight ing
ĠWere wolf
Ġpsy che
ĠAri zona
Ġdivid ed
Ġpomp ous
Ġsla very
. ),
A re
g ence
i ved
s aw
Ġm elt
Ġl u
st ud
ĠB ody
Ġli ghter
ĠM am
ĠM UCH
ĠC arson
ĠW ait
Ġ53 53
Ġ53 52
Ġ54 58
Ġ55 64
03 38
Ġ62 05
Ġ64 96
Ġ65 26
Ġ63 44
Ġ63 42
Ġ68 56
ĠF ree
ĠF itz
Ġ72 87
Ġr ul
pt ical
88 7
ĠK inski
ĠK ansas
Ġcl ad
Ġpo ll
Ġ70 75
Ġ67 73
Ġ69 08
Ġ77 12
de ep
Ġsl apped
Ġmus cle
Ġcomp arable
Ġappe als
stand ard
Ġreview ed
Ġgener ate
Ġlight ning
Ġ609 1
Ġ619 2
Ġ678 3
Ġ706 1
ĠChar acter
Ġ675 9
Ġ703 7
Ġmoment um
ĠWith in
Ġill usion
ĠPh antasm
Ġliter al
Ġju xtap
ĠAp ocalypse
Ġpa use
Ġcook ing
Ġcook ie
Ġtoler ance
Ġpossess es
Ġfac ility
Ġimmigr ant
eni ably
E s
e ffects
g il
p ass
Ġ6 008
Ġc ents
Ġh ttp
an ed
Ġg rie
Ġ36 35
00 62
Ġ43 59
ĠH K
Ġ47 91
ĠD ern
ĠD irected
Ġ50 28
ood le
Ġ58 92
Ġ58 85
op er
Ġ62 11
Ġ64 41
th ree
Ġ66 99
Ġ68 06
Ġ68 38
05 0
72 1
ie lle
Ġ72 44
ĠG ret
Ġ73 70
Ġ78 23
25 9
Ġbl amed
ĠV ic
Ġhor rified
Ġsub du
Ġexce ll
Ġapp lied
gr at
Ġhope ful
Ġ706 4
ene gger
Ġ679 3
Ġ700 4
Ġ704 6
Ġ717 6
sp oken
Ġfore most
Ġdesc end
Ġtele phone
Ġ719 9
real istic
ask et
Ġgirlfriend s
Ġjud ged
Ġest ranged
Ġroll s
Ġround s
Ġwise ly
ĠDen zel
ĠCount ry
ĠEnter prise
Ġintim id
Ġfee ble
A X
T AIN
W H
c ure
h app
j erk
v ict
Ġs ought
le ts
Ġn orth
Ġwas tes
ke e
Ġ40 60
Ġ48 07
ĠW R
Ġ59 28
Ġ64 58
Ġ66 21
Ġ65 74
Ġ65 22
Ġ68 93
Ġ68 62
Ġout line
Ġ73 83
Ġ73 34
Ġ76 52
Ġ75 75
Ġun answered
Ġ60 78
Ġover bearing
Ġag ony
Ġ69 75
Ġ77 07
ens ed
Ġ89 06
we e
az ar
Ġcomp osition
Ġart if
sy n
Ġfan atic
ĠÂ ĳ
ĠCar roll
Ġ696 2
Ġ675 5
Ġprom oted
Ġinn u
ye ah
Ġtheat res
Ġcommun ist
Ġ1075 4
Ġmer cy
Ġcross ed
ĠAg atha
Ġpack s
IT T
Ġdad dy
Ġrip off
can o
Ġcelebr ities
Ġles bians
ĠHaw ai
Ġdecl ine
Ġacqu ired
resp ond
Ġtom orrow
ĠCow boy
ĠLamb ert
Ġdiscer n
! ",
S uper
a o
h aw
l ot
m ac
n ice
p ath
r ases
Ġw agon
an ie
Ġbe gs
Ġ31 54
ĠM afia
Ġ38 93
Ġ43 15
Ġch opped
Ġ48 54
ĠW a
Ġ49 06
Ġ54 76
Ġ58 00
Ġ62 13
Ġ64 94
Ġ66 90
Ġ66 84
Ġ65 30
Ġde em
and ler
Ġ68 55
ĠF aith
Ġ72 74
Ġ72 01
Ġ72 59
Ġ73 00
Ġ73 98
Ġ73 58
Ġ76 85
Ġ78 47
Ġ85 44
Ġ84 39
Ġun natural
Ġ88 03
fe el
Ġv oid
ĠK or
ĠK line
ĠK umar
Ġpe e
Ġover blown
Ġ77 72
Ġ86 98
Ġfl ows
Ġ126 78
Ġob t
att i
ĠThat s
cept ive
Ġreview ing
ĠRob ot
gu in
Ġ606 2
Ġ610 7
Ġ672 4
Ġ693 7
Ġ712 2
Ġ698 0
Ġshoot out
Ġmot if
Ġprof ile
Ġ772 3
Ġ699 0
Ġ677 0
Ġterror ism
Ġembarrass ingly
Ġunderst atement
ĠRod ri
ĠTur key
ĠJac ques
Ġsentiment ality
ĠOrigin al
Ġanc est
" (
A GE
M c
a verage
z ard
Ġt ub
Ġb ree
Ġl ing
Ġbe gun
st an
ĠC reat
ĠC zech
ĠH ers
ĠD ame
Ġ58 78
Ġ58 71
Ġ62 30
Ġ66 46
Ġ66 58
Ġ65 18
Ġ65 05
Ġ65 69
Ġ65 37
Ġ68 76
Ġ68 66
Ġ68 86
ĠL ock
Ġ73 59
Ġ88 78
man ship
Ġ60 14
aw ned
ach ron
oc ation
Ġob tain
Ġmean while
Ġph ones
ĠSe ems
ĠSc enes
Ġsw ing
Ġblood s
Ġ796 3
Ġ717 0
cut s
Ġ708 3
Ġremind ing
ipp i
ĠFrank lin
Ġground breaking
Ġqual ify
IC E
Ġden ouement
Ġmut ual
sm ith
Ġboo bs
umm ies
ĠWr ong
Ġsedu ce
Ġresist ance
hist oric
Ġfortun ately
Ġconscious ness
Ser iously
Ġflim sy
B esides
N OT
S adly
Ġs inking
Ġf urious
ou ching
Ġd ivers
Ġst up
Ġst ab
se tting
ĠS W
Ġ36 93
Ġj unior
Ġ56 80
Ġ57 00
Ġcom a
Ġ58 27
Ġ62 98
Ġ64 27
Ġ65 82
Ġ63 21
Ġ68 21
Ġ68 46
ĠL ad
ĠL iv
ĠR aw
Ġor ange
Ġ74 96
Ġ74 81
Ġ72 65
Ġ72 66
Ġ72 32
ĠJ agger
ĠG wyn
Ġ73 82
Ġ76 82
Ġ75 08
Ġ75 01
Ġ83 35
Ġ85 23
48 9
itt ingly
Ġ60 73
Ġad s
Ġ90 79
Ġri ps
Ġwhere ver
ram p
Ġfin ishing
Ġright ly
ĠTh row
ah an
Ġhouse wife
ĠLe one
Ġ614 9
Ġ672 5
Ġ712 9
Ġnovel ty
Ġ778 1
Ġ814 5
Ġ794 1
Ġswe pt
Ġpay off
oun ced
Ġ707 0
Ġ1068 5
Ġintense ly
Ġboard ing
Ġvol ume
Ġscar iest
Ġcamer aman
Ġparticip ate
Ġcontest ants
ĠMid ler
Ġimmigr ants
Ġsacrific es
ĠElli ot
ĠHung arian
parent s
ĠAff leck
oen ix
Ġgris ly
M eanwhile
T E
Ġf aded
om ing
Ġp ianist
Ġg ate
Ġre v
com m
st in
st ore
st ens
ĠS way
Ġ37 86
Ġ43 16
ĠH em
Ġ54 43
Ġ62 54
Ġ64 17
Ġ65 78
Ġ63 19
Ġ63 89
Ġ68 09
Ġ68 96
Ġ68 69
ĠR oom
Ġ72 60
Ġ76 77
Ġ76 54
Ġ75 29
Ġ78 93
Ġ78 77
ĠN iels
Ġint oler
oy ant
Ġcl ash
Ġqu asi
Ġ79 12
Ġri vals
Ġund eniably
Ġunder wear
Ġold s
Ġdec ad
Ġdown fall
Ġ413 3
Ġ612 2
Ġ617 7
Ġ775 7
Ġmot el
Ġ810 5
Ġweak er
Ġvar iation
Ġsuff icient
avi ll
Ġwitness ing
ĠIr ons
Ġphotograp hs
Ġround ed
Ġsch ol
Ġmask ed
ĠProdu ction
ĠBon nie
Ġcarn age
Ġsail or
ĠConf eder
ĠShell ey
ĠTIM E
B oth
K O
T w
l ittle
u u
u ates
Ġ7 008
Ġg oo
ot ism
im o
ĠM urd
Ġ38 70
ĠH ilton
ĠW edding
Ġ54 19
Ġ56 84
Ġ62 90
Ġ59 44
Ġ64 25
Ġ64 66
Ġ64 89
Ġ65 77
Ġ65 83
Ġ68 02
ĠP rison
Ġor deal
Ġ74 74
Ġ74 41
ĠG ate
Ġ73 16
Ġ73 30
Ġ73 38
um ming
Ġ83 07
ĠN aked
Ġman ga
Ġper il
Ġoff end
Ġ67 10
be y
Ġ120 15
Ġdec iding
Ġyoung sters
Ġnew er
Ġexcellent ly
Ġ513 3
010 06
ĠLe ft
Ġsw itches
ĠDa isy
Ġ600 3
ik ing
Ġ692 3
Ġ703 4
Ġsuggest ing
ĠFrank ly
avi a
Ġcat ast
mon ster
Ġbreat hing
Ġcelebr ated
ĠLo is
Every one
ĠCann es
ĠPort ug
AK E
ĠNol te
Ġsam urai
Ġegg s
ĠValent ine
Ġreh ash
Ġsab ot
ĠExp ress
m outh
p ri
r owing
t akes
x istent
Ġ !!!
Ġs oooo
ar ingly
Ġe ast
Ġwh ining
et e
am ple
ĠA v
ĠS uz
Ġ39 02
ĠH and
ĠW ork
Ġ49 54
02 03
Ġ64 22
Ġ64 43
Ġ66 07
Ġ66 88
Ġ63 60
ĠP ix
ast ly
ie g
ĠF r
Ġ74 19
Ġ72 52
Ġ73 12
Ġ73 04
Ġ75 14
Ġ78 79
Ġpro claim
Ġ84 92
Ġun rem
Ġtr amp
Ġen list
Ġcl an
Ġqu int
Ġover weight
Ġsp rink
Ġ69 04
ĠIn s
Ġres ent
ĠAl m
Ġbit tersweet
Ġread ily
Ġdef ine
Ġconf ined
Ġlet down
Ġloc ate
Ġrid ic
Ġ610 5
Ġ610 8
Ġ698 4
Ġconst ruct
Ġsol ved
Ġ719 7
ĠJust ice
Ġland ed
Ġ822 1
Ġ799 7
Ġmix es
Ġvillain ous
ĠGl en
Ġinsult ed
ras er
Ġsett led
cr ime
Ġfield s
........ ........
Ġuncle ar
Ġpolic y
Ġofficial s
Ġvivid ly
ĠRome o
Ġmaint ains
Ġobserv ation
ĠSister s
Ġclimb ing
ĠCommun ist
ĠBin oche
Ġkar ate
Ġconcl usions
Ġpiv otal
b ay
er ner
Ġb urd
ic iently
ce ll
se ver
Ġ42 16
Ġ38 34
ul ars
ĠW ILL
Ġ49 37
Ġ50 56
ess ential
Ġ59 36
Ġ66 86
ĠP iper
ĠL t
ĠF ool
ĠF oot
Ġ74 06
Ġ74 53
ĠG ames
Ġ73 24
Ġpro secut
Ġun ner
ĠK it
Ġ60 74
Ġinter rupted
Ġ69 72
ens es
Ġyour s
red ited
we gian
Ġunder developed
Ġext ensive
ĠLe vy
Ġ609 7
Ġ716 6
ump ing
Ġ713 0
Ġ794 2
Ġ774 8
ĠGu ess
Ġ677 7
Ġconfront s
ĠJulie tte
Ġresol ve
Ġadmir ation
Ġcaptiv ated
Ġtremend ously
ĠWor se
mus ic
Ġtraum a
Ġtherap y
Ġenig matic
Ġsincer ity
' -
c ert
n el
o ine
p acked
u i
he rence
Ġs au
Ġm ud
vi ra
Ġhe ap
Ġhe els
Ġhe ights
gh ai
ĠS aint
ĠB an
Ġ45 09
ĠD ol
ĠD akota
el ie
Ġ53 95
Ġ56 90
Ġ64 49
Ġ66 91
ous ed
ĠF F
Ġ74 62
Ġ74 36
Ġ73 60
Ġ76 41
Ġ75 21
Ġ78 67
Ġ84 71
Ġ84 89
Ġlo d
Ġ95 19
od ox
33 2
oy ing
Ġv apid
Ġ67 03
Ġ80 74
Ġ77 09
Ġatt ending
Ġsur geon
Ġind ifferent
Ġdist ress
ĠCl iff
Ġdra b
ĠZ eal
Ġ618 7
Ġ604 0
Ġ676 1
Ġ676 7
Ġ672 3
Ġ706 5
Ġ716 5
Ġ700 0
Ġ709 2
Ġ674 8
Ġ674 9
Ġ713 9
Ġeffort lessly
Ġ823 1
Ġ719 3
arre tt
Ġprog ressed
Ġwit ches
Ġcap er
ĠSw anson
IS S
Ġcirc les
Ġdemon strated
Ġemploy ees
stra ight
Ġcarn ival
talk ing
ĠTheat re
Ġsynt hes
Ġware house
ĠRath bone
Ġsubdu ed
F riday
b og
b its
g ly
j okes
p oor
s up
w ow
Ġw re
Ġh unted
Ġh oly
ĠA ksh
ĠB ir
00 85
ĠC reek
Ġ47 82
18 1
Ġ52 67
ol in
02 18
Ġ62 41
Ġ64 32
Ġ66 38
Ġ68 14
Ġ68 01
Ġ68 41
ĠL ives
ĠF ew
ĠF ern
Ġ74 32
Ġ72 81
Ġ72 58
Ġ75 94
Ġ78 44
Ġ78 22
ap ore
Ġ83 26
Ġun conscious
ĠO llie
Ġ82 25
Ġ79 07
Ġ77 73
Ġfl ip
Ġplay boy
ang s
Ġ89 09
alk er
Ġres erved
iss ance
uck s
wh ose
clud ed
ph ia
Ġmon k
Ġsk it
Ġcra cks
Ġ617 9
Ġ696 1
Ġ673 3
Ġ702 8
Ġ675 3
Ġ698 2
Ġ698 7
Ġ695 2
Ġ775 0
Ġ806 1
Ġ717 7
bl ah
Ġ804 3
Ġ864 7
Ġ817 0
rid an
Ġang els
Ġsoci ally
Ġbox er
Ġmet eor
ĠMon key
rem lins
Ġuns ure
ĠSad ako
ĠVin nie
Ġpark ing
Ġmarry ing
Ġenvironment al
ĠHE LL
ĠCandy man
ĠDri ver
Ġetern ity
ĠHoll and
ĠPay ne
Ġfilth y
ĠAfghan istan
ĠSchne ider
G host
V in
b en
h in
l ost
re k
re te
Ġp ans
ĠT ogether
ĠM em
ĠM aj
ĠD ustin
Ġ54 85
Ġ65 57
Ġ63 28
ĠP O
ĠL ola
ĠR ider
Ġ72 72
Ġ72 68
Ġsu ave
Ġ73 52
Ġ76 45
Ġ76 61
Ġ76 31
Ġ75 93
Ġ83 16
Ġ83 70
Ġme andering
Ġ84 46
Ġ88 45
Ġany time
itt o
ĠK itty
Ġ82 23
Ġ79 79
ĠV CR
Ġsur rend
iss y
Ġcam corder
ĠBe owulf
Ġdef ies
Ġpol ar
ĠFor rest
ĠCl ock
ĠSe bast
Ġass umes
ĠAr quette
Ġdead pan
Ġmaster fully
Ġ704 1
Ġ776 2
Ġ816 2
Ġ719 5
Ġsimilar ity
Ġ822 2
Ġcompl ained
Ġadv ances
Ġcap acity
Ġmer ciless
Ġpun ct
ĠDid n
ĠFar ley
Ġestabl ishing
Ġprofound ly
Ġtransport ed
Ġmyst ical
Ġexplod es
ĠIng rid
Ġobli vious
Ġdeter ior
ĠTele vision
Ġassign ment
Ġfurn iture
ĠKN OW
Ġvo iced
profess ional
ĠVo ight
A ir
c ake
h it
h oll
u ana
Ġt ant
Ġw oo
Ġm our
Ġth umb
Ġh arb
Ġd ual
tt i
Ġre verse
Ġst agger
Ġfor bidden
ĠS i
ĠB att
ur er
Ġ49 00
ant ically
03 28
Ġ59 82
Ġ64 59
th irsty
Ġ65 36
ĠF aw
Ġ74 29
Ġ74 89
Ġ73 67
Ġ73 39
Ġle ap
um i
ich i
Ġ83 43
Ġ83 21
Ġ85 55
ĠO range
ell ow
Ġqu ot
Ġqu ant
Ġ82 73
Ġ69 14
Ġ77 19
Ġ77 03
Ġ86 71
Ġtra ins
ĠJo anna
ott o
Ġday light
ĠMar ine
Ġviol in
Ġ616 1
atur ity
Ġ673 5
Ġdeal ers
Ġpred ic
Ġ709 5
ĠRobert son
ĠGe off
Ġswe eping
Ġ878 5
!) <
Ġexist ing
Ġjo ining
ĠSci Fi
cur ity
ĠDun can
ĠFox x
Ġking dom
Ġbab es
ĠIntern et
ĠIsrael i
ellig ent
hoe ven
Ġmac abre
O b
R em
c rit
p ick
s il
Ġt in
ot ch
Ġn ast
Ġn emesis
ĠS ervice
ĠM ond
ĠM ull
Ġ43 85
Ġ46 08
Ġ58 62
02 84
art ment
Ġ59 80
Ġ65 39
Ġ63 84
and ing
Ġ68 81
Ġ74 20
Ġ72 71
Ġ73 71
Ġ76 94
Ġ75 36
Ġ78 72
Ġ78 20
Ġ83 90
ĠN as
Ġ84 72
Ġup dated
66 7
88 2
48 2
ry n
ile en
Ġim per
Ġdis m
Ġoff ense
Ġ80 17
Ġsp ies
Ġ82 10
oll o
Ġ69 02
Ġfl ower
Ġcr own
Ġlong est
ĠBr on
arr ot
ĠBe ar
ĠSh awn
ition al
Ġcount ing
Ġexc uses
Ġ616 3
Ġ611 3
Ġ694 6
Ġ712 4
Ġ675 1
Ġ679 0
ered ith
Ġ793 4
Ġnovel ist
Ġ717 1
Ġ816 4
Ġ812 6
ĠDan es
rid es
Ġ903 5
ĠAm itabh
OU T
Ġdumb est
Ġinvestig ator
Ġpen al
Bl ue
Ġaim ing
Ġargu ing
ĠDO ES
Ġpupp y
ĠAndre a
Ġoccup ied
B arb
D irected
H ard
f our
s ed
in ently
is se
Ġb illion
on ous
Ġd ominated
ic ia
br al
al beit
Ġhe ter
Ġse as
ĠB ol
Ġ58 83
Ġ64 98
Ġ64 54
Ġ66 24
Ġ66 89
Ġ65 03
ĠR ambo
ĠF ront
Ġ72 92
Ġ75 47
os se
Ġ84 85
Ġ84 27
Ġ88 77
ĠE yre
ab ilities
ĠK atherine
Ġend uring
Ġ98 93
Ġ67 06
Ġ86 72
ĠV elve
Ġ108 04
Ġfact ual
Ġcons iders
In ter
Ġ602 9
Ġpop ulated
Ġ673 0
Ġ672 0
Ġ710 6
Ġcent uries
Ġ702 4
Ġ703 2
Ġ708 8
Ġ802 2
Ġ808 6
Ġvar ied
Ġpolit ician
Ġgang s
Ġ1006 0
ĠCol or
Ġavoid s
ĠGu ard
Ġinf ilt
Ġprop ortions
Ġinvest ed
Ġaut o
Ġign oring
Ġphys ics
mar ish
Ġstereotyp ed
Ġcross es
Ġneigh bour
gue z
Some one
Ġbi as
ĠBel ushi
ĠHay den
ĠDam on
Ġexpert ly
ĠHaw k
Ġspin ning
Ġdistinct ive
High ly
Ġinjust ice
G ary
H ave
g ay
l augh
m urder
in st
it ives
Ġf ighters
Ġc ater
Ġg ap
Ġg rey
Ġn ations
im ps
vi r
ch t
se a
00 52
ĠM P
ĠM oney
Ġ( *
Ġch at
ĠW yn
Ġ52 57
Ġ50 77
02 44
Ġ62 47
Ġ59 22
Ġ65 29
Ġ63 00
Ġ68 19
ĠR hys
Ġ72 25
ĠG ran
Ġ73 23
Ġ75 10
Ġ83 20
Ġ85 18
Ġ84 73
Ġ84 77
Ġup beat
Ġ94 72
int o
Ġdis order
Ġ67 16
und ance
Ġ82 71
ĠCh ad
Ġent rance
Ġgr ind
oss ip
Ġter min
ex ter
Ġinc arn
uff alo
Ġret rospect
Ġserious ness
ĠAr ch
Ġtrans pl
Ġ693 6
Ġ693 8
Ġ703 3
Ġ695 9
Ġ779 3
Ġ713 1
Ġ715 2
Ġ806 6
Ġ772 6
Ġ814 3
Ġsle pt
arch y
Ġ707 1
Ġ914 6
ĠPh oenix
Ġsum med
Ġ807 0
Ġsens itivity
Ġgrand son
ĠMac L
Ġproduct s
ĠLo oney
Ġincre ase
class ic
ĠSwed en
ĠCann ibal
avor ite
Ġthread s
Ġcurs ed
Ġcounterpart s
Ġoptim istic
Ġwarr ant
ĠSway ze
avill and
A h
B ruce
b ag
g irlfriend
l ene
m oil
w renching
Ġs ly
ou ra
Ġd ashing
Ġst ating
Ġst ray
Ġ31 77
ur assic
Ġ37 05
00 35
Ġ43 68
ĠC S
Ġ45 66
ĠD illon
Ġ64 15
Ġ64 83
Ġ64 70
Ġ66 94
Ġ66 30
ĠP ope
ĠP ierre
ĠL ex
ĠL iam
qu ite
ĠF ry
Ġ74 87
Ġ72 86
Ġ72 54
Ġ78 83
Ġ85 56
Ġcl ient
Ġ94 74
Ġpe ers
Ġ82 15
Ġte ch
Ġvi be
Ġgr at
ning s
ash buck
Ġinst ruct
io v
Ġdra gging
IN K
Ġreg ime
Ġ605 7
Ġ675 0
Ġresult ed
Ġ809 5
Ġ711 1
Ġ909 1
aught on
comp rom
You ng
Ġment or
ĠPol anski
Ġpal ace
Ġbound aries
Ġconcent ration
ĠDep ression
Ġsmooth ly
ĠBrid get
Ġune asy
Ġfrag ile
B E
B illy
S ometimes
U P
f air
g ot
s kin
w ould
in qu
ar ming
Ġp ressed
as ia
Ġn aughty
ay er
Ġst air
id ences
ĠB OR
Ġ40 25
ĠH ands
Ġ47 45
ĠW izard
Ġ49 98
ĠD ale
Ġ53 12
Ġ57 43
Ġpl ants
Ġ66 63
Ġ66 33
Ġ68 43
ĠL OL
ĠF UN
ĠF uture
Ġ72 05
Ġ72 99
Ġ78 52
Ġ83 98
Ġ83 51
Ġpre c
Ġpre st
Ġ60 72
Ġ70 13
Ġ69 16
Ġ77 02
ĠV iew
Ġimp ending
ĠSe infeld
ton es
Ġ609 8
Ġ692 1
Ġ716 3
Ġ775 8
Ġ812 4
Ġ804 0
Ġ719 0
Ġ819 1
Ġ817 6
Ġ774 5
Ġ866 1
Ġspir al
Ġ803 9
rey f
Th anks
Ġign ores
ĠSim ple
appe aling
014 4
Ġmanip ulation
Ġchuck les
ĠAL ERT
ĠVamp ires
ĠInter esting
ĠCrow e
Ġbew are
ĠEN D
ĠSyl via
ĠLauren ce
Ġmax imum
Ġcaut ion
Ġpsyched elic
Ġreci pe
atell ite
$ $
A w
F ran
l ater
m om
s uff
in ates
Ġp ound
Ġg ent
Ġbe aring
ch ron
Ġfor getting
ce mi
am al
Ġsh ades
Ġ54 87
Ġ58 69
Ġ59 64
Ġ63 16
Ġ63 23
Ġ68 59
ĠP ose
ĠP au
ĠP arent
Ġ74 24
Ġ74 40
Ġ73 72
Ġ73 92
Ġ73 45
Ġ75 81
Ġ78 55
Ġ83 42
ĠN OW
Ġun ivers
ĠO tto
Ġen force
Ġ70 12
Ġam ple
ĠV e
ute ur
oc olate
Ġdown s
Ġev oke
Ġes c
ĠSh adow
ĠSh annon
Ġmur ky
Ġ604 3
Ġ678 9
Ġ702 0
Ġ679 2
Ġ704 9
Ġsn uff
Ġsn appy
Ġ805 2
Ġ805 5
Ġconst ra
Ġ823 2
Ġ778 8
Ġ802 6
Ġ817 5
Ġ879 1
Ġcompl ications
Ġcontro lling
Ġnone xistent
ĠJul es
ĠLu is
urp rise
Ġauth ors
Ġevid ently
Ġartist ry
abl anca
ĠBas il
gra ve
ĠWhe never
ĠHart ley
Ġreplace ment
Ġpir ates
Ġinsert ed
Ġcripp led
Ġseduct ive
Ġrer uns
warz enegger
Ġincap able
auf man
c ro
g ram
l ain
Ġw oven
ou g
on zo
Ġbe ef
Ġst ations
00 87
ĠM ildred
Ġsh r
Ġch au
Ġch ops
ĠW ife
ĠD uk
Ġ53 82
Ġ55 08
02 33
ĠP ap
ĠR ice
ĠF ont
Ġ74 02
Ġ74 71
Ġ73 54
Ġ76 95
Ġ76 90
Ġ78 14
Ġ83 86
ĠN ove
Ġ85 02
Ġ85 26
Ġ95 10
ci ety
Ġ98 09
ple ase
Ġ86 23
ark able
Ġche mical
Ġgoing s
Ġhard est
Ġac ad
av an
Ġdel iciously
ope z
Ġconf ession
ug itive
Ġfr antic
ming er
Ġsw inging
Ġ611 9
Ġvill agers
Ġ675 2
con ceived
Ġ718 3
Ġ709 7
Ġ704 4
Ġ806 7
Ġ825 2
Ġpos es
AR K
ĠAd ventures
Ġred neck
Wh ite
Ġ907 7
Ġsleep s
Ġcond u
Ġinflu ences
sl ow
ĠMont ana
ĠVer hoeven
Ġinex per
vo iced
Ġfest ivals
Ġfeed ing
ĠMill and
Ġsales man
Ġsubstit ute
Ġathle tic
ĠDeM ille
) '
W as
m ont
s ol
re cted
Ġb ul
Ġp rank
le in
Ġl ays
il er
ĠT OO
ĠB ug
Ġch ill
Ġ48 33
Ġ53 18
02 72
03 1
Ġ66 87
Ġ63 95
Ġ68 97
Ġ74 47
Ġ72 62
ĠJ ob
Ġ73 14
Ġ73 84
Ġ76 49
Ġ75 63
Ġ78 28
Ġ78 99
Ġ78 91
Ġ78 84
Ġ83 24
Ġ105 68
Ġ103 09
our ge
Ġover d
Ġover shadow
Ġ80 76
Ġ69 05
Ġfl ame
Ġfl owing
Ġ102 04
Ġsl ide
ĠU ma
ĠAl ways
Ġsub marine
Ġke ys
sh ots
Ġline ar
Ġ696 6
Ġ696 9
Ġ692 9
Ġ776 5
Ġ805 7
Ġ778 5
Ġ819 4
Ġ711 5
AR E
Ġnarr ated
ĠEm my
Ġlangu ages
ĠBra in
Ġbomb ing
can ny
Ġcraft s
ĠGreen e
Ġner dy
Ġdesp ise
spe aking
hh hh
ĠAud rey
ĠEp isode
Ġhench men
Ġatroc ity
Ġgloom y
ĠLans bury
Ġprincip als
C ap
M ur
n et
n ity
s al
Ġw ed
Ġo rient
Ġf uzzy
Ġn uns
ve t
Ġre incarn
Ġ31 04
ĠB arn
00 99
ĠW ang
est ingly
db all
Ġ58 40
Ġ66 71
ĠP uppet
Ġ74 09
Ġ74 65
Ġ72 40
Ġ76 46
Ġ78 06
ard ieu
Ġ83 02
Ġ83 55
Ġun attractive
Ġr ousing
Ġfe ud
Ġsp ray
Ġ79 18
Ġ79 04
Ġ69 11
Ġ77 76
Ġ77 01
ĠV ent
Ġcont ributes
Ġres erv
ail and
Ġcomm itting
Ġdist inction
ĠRe venge
Ġ615 6
Ġ710 9
Ġ702 2
Ġ695 7
ĠIs n
Ġ779 7
Ġ795 6
Ġ863 4
Ġ819 0
Ġ868 9
ĠPh ilipp
Ġ799 1
Ġprog ression
ĠGar cia
bur st
Ġaware ness
Ġtur moil
ĠStr ong
Ġdisappear ance
Ġeconom y
Pro bably
Ġanx ious
Ġcompens ate
Ġlur king
Ġdod gy
Ġsched ule
Ġtun ed
Ġnarc iss
k ar
k ers
m em
n ature
t em
Ġs alt
is cher
Ġb orders
Ġb ubble
Ġp ier
Ġn ifty
Ġst ubb
Ġ45 92
Ġ47 49
16 1
Ġ65 33
Ġ68 04
Ġ68 23
ĠR angers
Ġ74 17
Ġ72 00
ĠG overnment
Ġ73 11
Ġ73 94
Ġ76 02
Ġ76 48
Ġ75 85
Ġ75 88
Ġ75 39
Ġ78 19
Ġ78 66
Ġ78 27
Ġ83 54
Ġme ga
Ġ85 99
Ġ84 64
ig ans
Ġ88 71
Ġ88 53
Ġr ambling
int on
int egr
Ġdis illusion
Ġsp orting
Ġ79 72
own s
Ġ96 90
Ġfl owers
Ġcr ooks
iss ippi
sh aw
ĠSe gal
Ġgra bbed
010 02
ĠTHE Y
rop he
Ġ702 6
Ġlist ened
Ġ775 4
Ġmot ions
Ġ708 4
Ġ873 5
Ġ800 2
head le
Ġpay check
Ġ924 8
Ġ902 4
Ġ1011 9
Ġ992 1
ĠRed ford
AY S
cr im
Ġknock ing
Ġpair ing
Ġver ge
Ġuncon ventional
ĠCount y
Ġdynam ics
Ġmas quer
Ex cellent
Ġanticip ated
Ġambig uity
ĠReg ardless
Ġanth ology
Ġnause ating
Ġawa iting
Ab out
Ġcoc aine
ĠHou ston
ĠNiels en
M A
O CK
R et
b by
h orn
w olves
it us
Ġm um
or is
Ġst oned
Ġan achron
ĠB ard
ĠM ouse
ĠM onica
ĠC ros
ĠC itizen
Ġ54 65
act ica
03 17
Ġ62 57
Ġ65 35
Ġ68 08
Ġ68 70
Ġ68 60
Ġ74 82
Ġ72 53
Ġ72 51
Ġ76 27
Ġ75 49
Ġ78 15
Ġ78 58
Ġ85 11
Ġ84 90
Ġper verted
Ġbl ink
Ġcharacter isation
Ġ69 76
Ġ97 02
ĠU FO
ris ed
co at
Ġide als
ĠSh ining
Ġrele asing
Ġ618 6
Ġ693 9
Ġ717 4
Ġ708 0
Ġ714 0
Ġ812 8
Ġ873 9
Ġ809 4
Ġshock ingly
Ġdev otion
Ġ777 1
Ġ774 0
Ġstri pper
Ġseason ed
ĠEm il
Jo an
Ġmir rors
abb it
Ġtarget s
ĠDar ren
Ġsche ming
Ġscr atching
Ġfram ing
Ġmas och
Ġannoun ce
Ġclic hed
Ġamid st
ĠNov ak
Ġnewcom er
Ġvigil ante
ĠDow ney
ĠVelve t
S H
c iting
d ent
l ake
Ġt ones
Ġt empor
Ġt ables
is p
Ġf ence
Ġto days
ĠT at
Ġst o
et ically
am ir
ĠS ense
ĠB abe
Ġ42 67
Ġch orus
th ia
Ġ66 64
Ġ65 88
Ġ65 89
Ġ63 79
Ġ68 71
Ġ68 27
ĠL opez
ĠF ritz
Ġ74 79
Ġ74 92
Ġ76 99
Ġ76 68
Ġ75 92
Ġ83 30
Ġ84 37
Ġ93 23
ink le
Ġper ceived
ĠK ramer
te ch
ran e
ub itsch
Ġadd ressed
Ġele ven
Ġgra vity
Ġlight hearted
Ġ618 8
Ġ676 5
ĠMc Donald
Ġ709 1
Ġ715 4
Ġsn ipp
Ġ810 0
cent ered
Ġ865 1
ĠDo or
ĠPer kins
wr ought
Ġ911 9
Ġ1098 7
ĠMad ison
AD E
rem ember
epend ent
Ġmillion aire
Ġboo b
Ġhur ry
Ġsoph om
ym ph
Ġfix ed
ĠJac ob
ĠPa xton
Ġnu anced
ĠCur ly
Ġrelent lessly
ĠLow e
ĠMas sey
Ġhesit ate
Ġcandid ate
HE AD
Ġartic le
ĠDall as
Ġmelanch oly
Ġinconsist encies
ignific ant
Ġangu ish
Ġexcell ence
D ennis
K ate
c ular
r ational
in son
Ġs ang
Ġth ri
br other
ut ing
il ian
im s
ch rist
ĠS ig
ĠS ounds
Ġbut ter
ĠM ia
ĠC arn
19 93
Ġj ury
Ġ50 15
Ġ50 79
Ġ58 31
ag raph
Ġ62 00
Ġ63 74
Ġ63 64
Ġ63 71
Ġ68 99
ĠR io
Ġ74 33
Ġ72 85
ĠG entle
Ġ73 50
Ġ73 31
Ġ76 01
Ġ76 37
Ġ75 45
Ġ83 09
ĠN ess
ĠN ame
ĠN ash
Ġ84 69
Ġr oughly
Ġthere by
so cial
ff er
Ġdis respect
Ġ69 94
Ġ77 16
Ġ77 18
Ġ77 04
Ġrem orse
Ġche ering
Ġev okes
Ġsex ist
Ġhand y
Ġep ics
ĠSh ields
cess arily
Ġ517 3
Ġocc ult
Ġ796 5
Ġ796 9
Ġ779 9
Ġ715 0
Ġ823 4
ien ced
ĠCon nor
007 76
aur ice
Ġru ining
Ġ899 1
Ġident ified
Ġprogram ming
Ġfat ale
ĠIr ving
De finitely
Ġincre asing
Ġstret ches
Ġscare crow
Ġobsc urity
Ġtack ed
Ġhol ocaust
ĠBus cemi
ĠPam ela
Ġexcruciating ly
pion age
Ġfemin ine
Ġlibert ies
ĠMorm on
ĠRaim i
B oy
B rian
Ġb ay
Ġb ible
Ġh unk
Ġin forms
Ġg athered
us ch
Ġst aging
Ġfilm ography
ĠM uppet
ĠH ollow
Ġsh rew
Ġ53 30
Ġ53 57
Ġ54 42
rom antic
Ġ65 97
Ġ68 52
ĠP ra
Ġout cast
Ġout door
Ġ74 38
Ġ74 57
Ġ72 18
Ġ76 66
Ġ76 57
Ġ78 26
Ġ83 11
Ġun canny
ĠE than
Ġwat ers
Ġ95 11
Ġ105 78
Ġpo ke
Ġrec urring
ĠSh oot
ĠTh ailand
me ga
uff s
Ġmis chie
Ġ793 5
Ġ793 7
Ġ776 8
Ġ816 7
Ġ810 7
IL D
Ġ876 8
Ġ910 5
Ġspoil ing
Ġhom oph
ĠAngel ina
dis c
Ġirrit ated
Ġpen et
uls ion
ĠWin ters
ĠSyl vester
ĠLenn on
Ġstap le
Ġfles hed
ĠDia z
ĠStephan ie
Ġinadvert ently
I BLE
m ass
m ash
p ah
w ic
Ġa ided
Ġp izza
Ġe h
Ġas pir
ĠB S
ĠB U
Ġ38 82
ĠC arly
Ġ48 22
Ġ62 15
Ġ62 59
Ġ65 11
Ġ65 23
Ġ65 45
ĠL ed
ĠF ab
Ġ74 39
Ġ72 17
Ġ73 57
Ġ76 75
Ġ75 19
Ġ75 90
Ġ75 62
Ġ78 45
Ġint end
ure en
Ġpre par
Ġ70 18
Ġ70 79
Ġ67 01
Ġ80 11
Ġ82 74
Ġ82 91
te le
Ġbl oss
Ġ69 79
Ġcomp rehens
ib als
Ġscreen ed
Ġwar ns
." )
ĠRe gin
Ġcra wl
ĠAr kin
011 93
Ġz any
Ġadm inist
che red
Ġ712 7
Ġ705 8
Ġ705 9
Ġir resist
Ġcool est
Ġ818 0
Ġ928 5
An ne
Ġsens ibilities
ĠChe vy
Ġcond esc
Ġcivil ians
ĠVer onica
Ġcust ody
Ġcand le
ĠSqu are
ĠBry an
ĠPen elope
Ġlun atic
Ġenchant ing
A Z
M iss
T Y
b ac
e arth
g reen
g otten
p seudo
r ons
t ail
ing ton
Ġ9 008
Ġp ounds
Ġre ass
ĠB re
ĠM ut
ĠC ube
Ġ44 79
Ġ47 68
Ġ48 79
16 0
Ġ54 60
Ġ56 04
ĠP OW
Ġ72 08
95 1
Ġsu icidal
ĠJ af
Ġ73 08
Ġ73 87
Ġ78 71
Ġ78 53
ĠN igel
Ġ85 24
Ġ85 35
Ġ85 69
Ġ85 59
Ġchar ges
Ġ88 92
ĠO lsen
ĠK aufman
ade qu
Ġreal ises
Ġfa ux
Ġ77 74
ĠSt op
Ġtri via
Ġsec ure
Ġnight marish
Ġele phant
enn ium
Ġsever ed
Ġbas hing
010 14
itch ie
ĠLe tter
Ġpop ped
Ġ706 6
Ġ779 8
ĠWar rior
vol ent
**** *
Ġdru gged
ĠTr ouble
Ġbother s
vey ard
abe led
Ġnin ety
Ġscar ier
Ġacqu aint
Ġdistribut ed
ĠGer ard
Ġtrap s
Ġtit ill
Ġobser ve
Ġinaccur acies
Ġperman ent
Ġmerc en
ĠScr ooge
Ġsem blance
Ġslee ve
? ",
A lex
F ar
H ome
T ony
c ould
h ou
in f
om i
ar ms
Ġd umber
ed a
Ġy arn
ĠA B
ĠB le
ĠB ang
ĠB oss
ĠB ridge
ĠM ans
ĠH ob
Ġ55 32
Ġ56 25
Ġ58 90
ag en
Ġ59 83
Ġ65 31
Ġ63 26
ĠP orky
ĠJ UST
Ġ73 76
Ġ73 42
Ġ73 56
Ġ75 06
Ġ75 57
Ġ78 68
Ġ85 70
Ġ84 67
63 7
ĠE ight
46 7
Ġ94 92
Ġgreat s
Ġover tones
Ġag on
Ġsp it
Ġ92 01
Ġfl amb
Ġ104 15
Ġexce ls
Ġhigh way
Ġacc ord
Ġstr ate
vis ible
Ġ603 9
ĠNew ton
Ġfail ures
Ġmag ically
Ġ704 3
Ġ815 8
Ġ805 3
Ġ818 2
Ġ874 4
Ġill um
Ġ902 0
Ġ822 0
Ġ904 3
ĠCom plete
Ġ975 4
Ġ1028 8
Ġ1023 3
045 26
Americ ans
ĠTe am
oooo oooo
Ġdisplay ing
Ġtoler ate
Ġske ptical
Ġfet ish
Ġgather ing
Act ing
Ang el
Ġemp ire
Dan iel
ibbe an
ĠMinn elli
ĠMyr na
ĠLund gren
ĠClar ke
A part
C ome
C ity
E ric
J ennifer
b il
e arly
f old
g ive
v amp
Ã ´
en zie
ĠA ck
Ġ32 54
Ġ34 13
00 70
ĠM aking
ĠM eredith
Ġ44 74
Ġch ainsaw
03 63
Ġwe ary
Ġ59 10
Ġ65 13
Ġ65 42
Ġ68 34
ĠL add
ĠF o
ĠF em
ĠF inn
Ġ73 88
Ġ73 29
Ġ76 78
Ġle an
Ġ78 39
Ġun just
ook er
44 7
ell ed
48 7
ĠK irst
Ġover used
te chn
Ġ90 16
Ġ86 91
Ġcons ult
Ġhappen ings
sh ort
Ġstr ung
ĠZ u
Ġ519 6
Ġ673 6
ĠEng lund
Ġ778 7
ĠOr der
Ġ813 2
Ġ872 5
Ġ876 7
Ġ905 9
Ġ996 8
Ġpleas ures
ĠAny ways
ĠPaul a
ham mer
Ġspot light
ĠLi u
Ġserv ants
Ġknock s
Ġpath s
ĠPal est
sm art
Ġbur nt
Ġris ks
Ġdeterm ine
Ġbear able
Ġdeg rees
Ġcommand ing
Ġcust om
ĠKill ers
ĠMir anda
every thing
Ġgloss y
Ġexcl usively
educ ated
ĠNas chy
L ew
n ut
p ool
v ice
Ġs orrow
re el
Ġm aj
as se
Ġ21 31
ĠS L
00 23
ĠD um
Ġ52 53
Ġ50 20
Ġex it
Ġ55 41
Ġ58 65
02 65
Ġ62 49
Ġ64 61
Ġ65 87
Ġ63 39
Ġ68 77
ĠP atty
Ġ72 36
Ġ73 75
Ġ76 13
Ġ78 90
Ġ83 94
Ġ85 63
Ġun appealing
85 9
Ġ105 80
Ġ67 15
Ġ79 11
Ġ89 14
urn ed
ach ing
Ġ107 72
Ġsl ower
Ġche f
Ġrec ount
Ġfound ation
Ġ411 6
Ġmar vell
ĠLe ather
Ġ600 1
Ġ692 0
Ġ693 0
Ġ709 8
Ġ775 9
Ġ704 2
Ġ776 7
sp oiler
Ġ815 3
Ġ815 4
Ġ892 3
Ġ919 2
Ġ774 6
Ġ975 3
Ġforget s
ĠMost ly
Ġexpress ive
appe ar
Ġrad iation
016 8
ĠMcC oy
Ġrepresent ative
Ġpen is
ĠBo one
Ġhint ed
Ġhyp ed
Ġremain der
Ġens ue
Ġvoy age
Ġunst able
Ġobst acles
ĠJoy ce
Ġhandic apped
appreci ated
adel phia
stin ov
A U
B atman
H arry
L ee
M E
N ote
O H
g ow
i as
is cu
Ġn ihil
ĠT ales
ow der
ri ous
Ġse ctions
00 32
Ġ42 68
Ġ43 92
ĠH OW
ul u
est one
Ġ57 04
04 73
03 12
Ġ66 60
Ġ65 25
Ġ68 73
ĠP ublic
ĠR ace
Ġ73 33
Ġ76 73
Ġ76 70
Ġ76 34
Ġ78 29
Ġ78 42
Ġ78 37
Ġ78 54
Ġpro long
Ġ85 61
Ġ84 99
Ġ84 68
Ġ84 97
Ġ84 54
Ġ95 18
Ġfe ver
ĠK as
og yn
Ġ82 02
iz on
Ġ86 99
Ġfl ames
ĠV ac
Ġ102 95
Ġgr ating
Ġes cal
ĠBr ooke
ĠBe hind
ĠTh ai
ialog ue
Ġsk i
Ġ515 6
Ġ519 8
ĠWill ard
ĠHar riet
Ġ610 6
Ġ694 5
Ġ779 2
Ġ793 1
Ġ816 9
Ġ772 1
Ġ772 8
Ġ798 8
Ġ778 4
Ġste aming
AT ING
ĠPl enty
Ġpredict ably
Ġ707 7
Ġ919 7
Ġ774 9
Ġemb ark
Ġtre as
Ġappro xim
inter ested
Ġamb itions
AS H
Ġdepict ions
Ġslasher s
Ġqual ifies
ĠSil ence
ĠCent er
Ġnu ances
Ġshel ves
Ġelectric ity
ĠNet flix
ĠAtl antis
Ġprol ogue
Ġsuppl ies
Ġleth al
ĠRodri guez
stens ibly
S on
a ca
m os
t ub
u ction
Ġt aut
at ized
Ġp add
as ily
ic ating
ĠT oni
Ġre ception
ad ium
ion i
ĠM and
ĠC headle
Ġ47 94
ĠD ove
ĠD ario
Ġ58 73
Ġ66 45
Ġ63 50
Ġ74 99
Ġ74 77
Ġ74 22
Ġ74 55
Ġ73 37
Ġ75 32
Ġ78 12
ud der
Ġ84 42
Ġr ant
ĠE arly
so ft
Ġam nes
Ġ80 18
ĠAnd ers
ĠCh in
Ġplay ful
omet own
), "
ru ly
the ir
Ġcr us
Ġche at
co aster
yp es
sc ary
Ġvis cer
Ġlight ly
olog ies
Ġ679 8
iet h
Ġ695 6
Ġ806 3
Ġ815 7
Ġ792 7
Ġ811 5
Ġ874 0
Ġ876 6
Ġdest ination
Ġ774 1
Ġinf uri
Ġcontrol s
ĠNor a
Ġlength s
Ġvirt ue
osh i
ĠRus so
Ġexpert s
Sp oiler
Ġconsequ ence
Ġdistinct ly
rele ased
Ġunfold ing
blood ed
Ġrelax ed
Ġce iling
Ġmonot onous
fr ame
Ġastronaut s
Ġinfin itely
Ġcere bral
ĠZeal and
> >
A bs
E ng
I OUS
T ime
g ues
he avy
ar my
Ġg adget
Ġ32 83
ĠB right
ĠB oring
Ġ57 94
Ġ63 53
ĠF ay
Ġ74 72
Ġ74 45
Ġ73 68
Ġ76 07
Ġ76 88
Ġ75 95
Ġ75 77
24 0
Ġ83 22
64 0
Ġ95 30
ick ering
ĠK ILL
ff iti
ĠV ivi
ĠHe at
Ġcr ass
Ġche wing
ĠBr itt
ĠSo ciety
Ġfollow ers
Ġcount ed
Ġmurder ers
Ġ608 3
Ġtrans itions
Ġ672 2
Ġ694 1
Ġ718 0
Ġ700 2
Ġ709 4
Ġ793 3
sp ring
AN K
how ever
Ġ863 6
Ġ863 9
Ġ917 1
Ġ1028 3
ĠNe eson
Ġarri ving
Ġrap ist
Ġsqu ir
Ġcritic ized
aus ibility
Ġunus ually
ĠShow time
uz a
Ġnecess ity
Ġpursu ing
Ġtool s
Ġgro an
occ up
ĠNort hern
liter ally
ĠLoren zo
Ġmanif est
Ġwholes ome
Ġunner ving
O ID
R Y
V an
c ard
f a
s ince
v ar
es sel
ll en
Ġp ione
ot hel
Ġwh ist
Ġy awn
ce mber
Ġ31 07
Ġ56 78
Ġ56 54
ak able
ag gy
Ġ68 54
Ġcon grat
Ġ73 91
Ġ73 61
Ġ73 32
Ġ76 47
Ġ75 18
Ġ75 67
Ġ78 41
Ġ83 99
Ġ85 81
ud er
Ġ84 32
Ġun imp
Ġ88 31
Ġr oo
Ġend ured
Ġ94 11
ull iver
Ġ80 19
ĠIn st
Ġ102 02
ĠSt alin
ĠU stinov
Ġsub way
Ġrel ates
Ġapp et
Ġapp lies
ks en
ĠRe ggie
In stead
Ġ612 9
unch y
Ġ614 7
che ster
Ġ695 8
ĠIs a
Ġ773 3
As ide
Ġbus h
Ġ717 9
Ġ815 0
Ġ800 1
Ġ826 1
ĠMay or
ĠGr udge
Ġ912 1
ĠAd rien
val ent
Ġear liest
Ġ964 7
Ġtruth s
Ġ983 1
Ġhom o
Ġmad man
Ġexecut ives
Ġimpro vised
Ġ1685 0
Ġdig ging
film s
Ġsystem s
ĠMaster s
Pl ot
Ġreject s
Ġtransfer red
Ne ill
ĠMarc us
child ren
Ġtransc end
ĠBrend a
ĠSold ier
Ġimprison ed
ĠCros by
? ,
H el
s an
u ously
v re
Ġa ura
es a
Ġ8 008
Ġh ills
Ġd awn
10 1
Ġbut chered
ĠM is
ter ror
ul pt
Ġ48 61
Ġj ock
Ġ62 86
ĠL ucky
ĠL ubitsch
ĠR KO
ĠF irth
Ġcon qu
Ġ72 23
Ġ72 88
Ġ72 49
ĠG ram
Ġ73 93
Ġ76 60
Ġ75 78
Ġ75 91
Ġ75 41
Ġ83 38
Ġ84 60
Ġ95 49
Ġ94 95
Ġ113 41
ass in
Ġ82 03
Ġ87 09
Ġ92 08
Ġ96 91
pect ives
ĠV s
Ġaw ry
Ġ89 93
Ġcr ashed
ale m
Ġbit es
icul ate
Ġdist orted
Ġrep rodu
Ġ612 8
Ġ693 5
Ġ713 4
Ġ806 0
Ġ823 0
Ġpsych ologist
Ġ873 0
Ġ863 7
Ġ811 9
Ġ809 9
Ġ895 8
work er
ye ars
Ġ965 2
Ġstri pped
Ġrepe ats
Ġjud ges
Ġden ied
ĠPre minger
Ġlay ing
ĠHor se
Ġnut shell
Ġdrown ed
ĠSen ator
ĠKath leen
____ ____
quest ion
Jul ie
ĠTak ashi
Ġcerem ony
Ġimpecc able
Ġstubb orn
b ble
i em
i ator
p resent
r ion
Ã ¯
he ard
Ġb od
es ci
ed ge
al ian
Ġ43 06
Ġ44 86
ĠH ig
ĠH oly
ĠD w
Ġsc am
Ġ55 18
08 08
ĠL ot
ĠL ead
ĠJ unior
Ġ75 72
Ġ75 98
Ġ75 27
Ġ75 69
ĠN C
Ġun employ
Ġ88 94
65 1
Ġ93 77
Ġ93 67
Ġ95 98
Ġcl ums
Ġkn ight
Ġ123 70
ish i
Ġ86 21
Ġfl ashing
ĠBut ler
Ġ89 92
Ġinv ite
ash ions
Ġmust ache
Ġbu cket
ĠMar lon
Ġdist aste
Ġ510 3
Ġrom ances
reme ly
Ġsw ashbuck
Ġ705 1
Ġ700 7
Ġ816 0
Ġ792 6
Ġ778 6
Ġ814 9
ĠEd mund
Ġ811 6
Ġ872 1
Ġ872 7
Ġ903 7
Ġhate ful
Ġ799 9
Ġ1002 4
Ġ1078 3
ĠDra g
Ġcompet ing
ĠSch warzenegger
Ġbreat he
Ġconflict ed
Ġimpl ies
Ġsight s
ĠAnt oine
Ġmarket ed
Ġcourt esy
Ġassist ance
Ġinterpret ations
Ġsal oon
Ġemphas ize
ocr at
Ġchap ters
Ġcitiz en
Ġeager ly
Ġslaughter ed
Ġcompassion ate
Ġpubl isher
ĠSav age
Te chn
App arently
ĠGree ce
0 758
h on
s at
u ating
Ġin ch
im ming
Ġwas t
ilm er
am m
ĠM illion
Ġ43 91
Ġ44 18
Ġ44 52
Ġ46 88
04 18
Ġ59 57
Ġ66 11
Ġ68 11
Ġ74 14
Ġ72 41
ĠG ig
Ġ76 00
Ġ76 03
Ġ76 89
Ġ78 08
Ġ78 80
Ġ85 82
Ġ84 08
Ġ84 88
Ġ84 33
Ġ84 55
Ġ84 34
Ġ88 68
Ġ88 55
46 1
Ġ103 77
ac cept
Ġ79 70
Ġ87 14
Ġthr one
Ġ77 05
Ġ81 10
Ġ99 96
ĠSt ri
de vil
Ġdes k
Ġunder used
app arently
ĠShe ridan
ott i
Ġdist rict
ĠCar ole
yn thia
Ġ673 2
Ġ693 1
ĠChar ley
Ġ716 8
Ġ716 9
Ġste pped
AT ION
Ġ874 7
Ġ1009 5
Ġ964 9
Ġperiod s
Ġcomb ining
ipp y
ĠSm art
ĠEm manuelle
Ġburn s
amer ican
Ġrend ering
OL D
Ġspoof s
Ġcas ually
Ġcourage ous
ĠKat ie
Ġcheer ful
power ed
Ġobserv ations
ĠEri ka
ĠOct ober
Ġskate board
Ġtatt oo
respons ible
C onsider
P art
R on
S ex
S omething
b reed
c ie
e b
i ot
l os
s ort
Ġs inks
Ġw ings
Ġc ad
Ġh ooks
Ġd ia
ver b
Ġst able
Ġst reak
ri gan
se at
Ġsh ady
Ġsh aped
pe lled
ĠD J
ĠD ub
Ġ55 02
Ġ55 49
Ġal ot
Ġ59 20
ĠP orter
ĠR ever
qu al
qu et
Ġne arest
Ġ74 76
Ġ76 96
Ġ76 98
Ġ75 55
Ġ75 80
Ġ78 07
Ġ83 49
ĠN an
Ġ85 66
Ġ84 74
Ġ84 59
Ġun av
Ġ93 39
Ġ95 70
Ġgo dd
pl om
Ġper plex
Ġ67 74
Ġ82 17
Ġ86 75
Ġ92 74
Ġ97 15
Ġcr ushed
Ġscript writer
ĠSh ark
Ġmon str
ix ed
Ġdet ached
ĠCar ibbean
ĠSte in
Ġ704 0
Ġ806 5
Ġ717 8
Ġ815 6
Ġ795 3
Ġ772 9
Ġ809 1
Ġ892 7
Ġ893 4
ĠPet erson
Ġ902 9
Ġ910 4
Ġ915 0
Ġ946 2
Ġsleep walk
Ġ828 0
ĠHol iday
ĠLo han
Ġmotiv ated
Ġsignific antly
ĠJud ith
RA P
ĠHaw ke
ĠComm ander
Ġpa ired
ĠBL OOD
ĠCind y
ĠSur vi
Ġdistingu ish
ĠBach chan
Ġmasc ul
Ġsalv age
Ġbloods hed
, ...
G reg
W he
g rap
l um
r ice
Ġf ier
ing le
om on
st upid
ch ange
se cret
un ce
Ġ35 82
Ġ48 99
Ġ56 38
Ġal arm
Ġ65 43
Ġ63 67
ist a
ĠP E
ĠP ony
Ġ74 66
Ġ76 38
Ġ75 03
ap ocalyptic
Ġ83 40
Ġ85 13
Ġ88 13
44 2
Ġ93 69
Ġman ners
Ġ95 43
ci ble
ell ect
oy ote
ĠK al
Ġ123 21
Ġ70 14
Ġsp oon
Ġ82 93
Ġ90 15
Ġ86 06
Ġund es
the med
ib an
wh atever
ĠDe c
Ġph ase
ax ploitation
Ġcoll apse
ister s
ĠHar low
Ġ617 2
Ġca f
Ġ703 9
ĠIs abelle
Ġ812 2
Ġ817 3
Ġ711 2
Ġ903 1
Ġ912 5
utter ing
Ġve t
Ġforg iveness
Ġ985 4
ĠMor ning
Ġfront al
udd le
pro f
inter pret
ĠBro dy
ĠST AR
Ġphotograp h
Ġprotect ing
Ġclub s
ĠHay worth
Ġjunk ie
Ġarch ae
Ġcyn icism
Ġadmir ably
ĠRoman ia
ĠSon ny
ĠMid night
Ġadequ ately
ĠMort on
ĠJosh ua
Ġramp ant
ĠRub y
Ġwhim s
ĠKin near
Ġreb els
ĠAbr aham
Ġling ering
Mur ray
J on
N orm
S us
T hing
a ft
b red
c ong
d umb
m illion
r ats
Ġw ipe
Ġm aturity
ar med
Ġ11 004
il k
ĠT ome
ĠT oy
vi an
com ic
Ġas sem
am o
ĠS ax
Ġha ird
ĠM end
Ġ44 82
ĠW ed
ĠW eek
Ġ50 63
03 84
Ġwe ep
Ġ64 93
th inking
Ġ65 81
Ġde eds
Ġout look
ĠF L
ĠF ollowing
Ġ72 57
Ġ73 96
Ġ73 27
Ġ78 10
Ġ78 35
Ġ78 82
Ġ83 66
Ġun recogn
Ġ93 14
Ġ93 17
Ġ93 33
Ġv ault
man y
for mer
Ġ77 17
Ġund e
Ġra id
Ġra pt
ris es
Ġexce ed
Ġes pionage
Ġkind ly
ĠSh an
Ġday time
Ġsit es
my stery
Ġexam ine
Ġ678 5
Ġ712 1
Ġ710 4
Ġpred ator
Ġ779 5
Ġ773 8
Ġ792 9
Ġ810 2
ĠEd ie
Ġ794 4
Ġ794 9
Ġ868 8
Ġ878 9
Ġsuff ice
Ġ919 0
friend ly
Ġpers pectives
ĠGl ass
Ġimpro vis
Ġbomb ed
ĠCr ime
ĠCo en
ĠDun n
AM P
ĠSn ake
Ġinsane ly
ĠPri est
dram atic
ĠDad dy
ĠRee ve
Ġdismiss ed
Ġrespond s
numb ers
Ġstir ring
Ġtab oo
abol ical
Und er
2 000
H orror
T T
s ac
Ġo ri
it als
Ġh ating
Ġd ial
ed ited
ic ial
br ows
Ġg oth
Ġg ossip
ver ts
ĠB uch
Ġnot or
Ġ49 13
ĠD NA
Ġ53 94
Ġ57 23
ol ini
Ġ58 81
04 19
Ġ64 95
Ġ64 26
Ġ66 98
Ġ65 61
ĠP rom
Ġout land
Ġ74 61
Ġ72 09
Ġ72 37
ĠG und
ĠG ates
Ġ75 66
Ġ78 03
Ġ78 24
Ġ83 91
Ġ85 34
Ġ84 83
Ġ84 20
Ġ88 44
Ġr ug
ĠE ss
Ġup date
Ġ93 09
Ġ93 97
Ġ95 76
ci o
ĠK il
ine e
Ġpre acher
Ġdis cl
Ġ87 03
Ġbl iss
Ġbl essed
Ġ86 92
Ġfl irt
ĠBut ter
Ġsuper fl
Ġmiss ions
Ġtalk y
Ġed ges
ax ter
Ġawful ness
Ġ715 7
Ġ708 9
ĠCon way
Ġ902 3
Ġ918 9
Ġ913 5
Ġ803 6
Ġ1219 3
Ġoffic ially
Ġsweet heart
reg n
Ġspect rum
do ing
Ġnet works
ĠRod ney
ij uana
ĠRoman ian
Ġpuzz les
ĠStud io
Ġinstru ment
ĠMuslim s
Ġprofession als
Ġexploit ative
ĠShep ard
Ġatroc ities
ĠBak shi
ĠTW O
Ġinspect or
A gain
E P
d un
g ud
i ard
l ined
s ided
Ġs ins
Ġb ureau
ing ed
Ġc ott
le ine
Ġd ive
Ġd angers
Ġ12 038
us ingly
ĠT ell
Ġ23 49
ĠB ank
ur able
00 22
ĠM ob
ĠC ain
ĠH om
ĠH ER
ĠD aughter
ust ing
em on
Ġ54 41
Ġ56 88
Ġ57 02
02 95
02 23
ĠP atton
Ġ74 70
Ġ72 42
Ġ73 55
Ġ73 47
Ġ76 23
Ġ76 22
Ġ75 65
Ġ78 70
Ġ78 56
Ġ83 61
ĠN ope
ĠN umber
Ġ85 96
Ġ85 68
Ġ84 12
Ġ84 78
Ġ93 19
Ġ93 53
Ġ95 67
Ġ95 41
Ġ105 05
Ġv oting
Ġv essel
Ġsp ice
Ġ82 05
Ġ82 78
Ġ86 65
Ġ155 44
Ġ102 92
Ġund ers
de c
Ġap ocalyptic
oc y
ĠBe ery
ĠWh ilst
ĠAn imal
Ġpass ive
Ġpass enger
Ġcor rid
ĠSte ele
Ġsupport ive
Ġ700 5
Ġ715 8
Ġ795 5
Ġ804 5
vol ving
Ġbreak fast
Ġ875 3
Ġ878 2
Ġ903 8
Ġ919 1
Ġ923 9
Ġru led
Ġ607 7
Ġcat al
war m
Ġcontinu ous
Ġthreat s
ĠRed grave
?! ?
Ġcoun sel
Ġsch m
Sp oilers
Sc ream
ĠSpe ed
ĠDar cy
IR L
ĠDep ardieu
Ġcann ibals
Ġoccup ation
ĠPort man
Ġreluct antly
Ġpredecess ors
Ġresur rect
Ġpad ding
Ġretire ment
Ġvary ing
coun ter
Ġretrie ve
Ġneut ral
Ġlu rid
D Y
H appy
M ike
N E
R ose
U l
d ain
d ale
p ack
p anic
s uck
s ometimes
in arily
in stein
Ġthe ft
Ġthe sp
Ġf uss
Ġf ashions
Ġm oust
Ġth irties
00 37
Ġ38 87
ĠC re
ĠH OUSE
Ġ45 91
Ġ47 67
Ġ49 47
ĠD C
ĠD ue
ĠD ouble
ĠD ixon
Ġcom r
03 29
ak in
Ġ62 27
Ġ66 70
Ġ66 32
ĠR oh
ĠR ukh
ĠF a
ĠF arrow
Ġ74 63
Ġ74 42
Ġ74 80
Ġ73 40
Ġ73 41
Ġ76 16
Ġ76 63
Ġ76 91
Ġ78 73
Ġ83 06
Ġ85 92
Ġ85 91
Ġ84 23
Ġ84 52
Ġ88 08
Ġ88 69
Ġ88 41
Ġup ro
Ġ105 16
Ġcl unky
Ġsp arse
Ġ82 19
Ġ86 76
Ġ96 96
Ġfl our
ĠV ig
Ġcr ank
Ġra zor
Ġcou p
Ġem peror
Ġscript ing
ord id
Ġhel m
Ġreason ing
ĠCl ara
008 24
Ġmis ogyn
Ġtrans forms
Ġdr um
Ġprom otion
Ġ804 1
Ġ874 8
Ġ875 8
Ġ892 2
Ġ868 0
go er
Ġ904 6
Ġ943 6
Ġcollect or
Ġtrad itions
Ġluck ily
Ġtest ing
ĠCr us
Ġtrag ically
Ġkidn aps
Ġble eding
Ġunne cessarily
Ġcrowd ed
cont i
Ġsymbol s
Ġmanip ulated
Ġsche mes
Ġboot s
ĠComp ared
Ġborder line
Ġfet ched
Christ ian
Ġarrog ance
ĠCub an
ĠKa hn
ĠBrazil ian
bird s
ĠBett ie
Ġincl ined
ĠNon etheless
+ +
B ob
C apt
E vil
b etween
f at
o j
Ġa pl
en ingly
Ġth under
an za
Ġp apers
Ġl um
us ually
im ated
ri ot
ĠA qu
ĠS uff
ĠS elle
ro id
Ġ( ?)
ĠH our
Ġ49 77
ĠD reyf
Ġj ar
02 85
04 25
03 64
Ġ66 65
Ġde fect
Ġ68 72
ĠP as
ĠR est
ĠR itchie
ĠF ury
ĠF anny
Ġ74 95
Ġ72 35
Ġ73 17
Ġ76 62
Ġ76 36
Ġ76 39
Ġ83 05
Ġ83 71
ĠN ina
Ġ85 40
Ġ93 01
Ġman aging
Ġ95 46
ĠO cean
ĠK ir
53 2
ays on
Ġ94 06
Ġ80 79
Ġ82 18
Ġ82 95
Ġ82 28
Ġ79 96
Ġ87 08
Ġ86 15
ĠCh ucky
vel t
cl ad
Ġche w
Ġsub titled
Ġbit chy
ex ist
Ġinteresting ly
Ġel oqu
Ġcre ations
Ġ415 3
ĠMar vin
Ġhouse keeper
010 7
Ġdevelop ments
off erson
Ġ675 4
Ġ703 8
Ġ796 1
Ġ705 6
Ġ793 8
Ġ775 6
Ġ815 2
Ġ802 7
Ġpredict ability
Ġshock er
Ġ824 5
Ġ824 6
ĠCon nie
Ġ875 4
AR Y
Ġ813 8
Ġ917 3
Ġ909 7
Ġ979 2
Ġ926 0
Ġemb od
Ġadapt ion
Ġtre acher
Th rough
Ġhom icidal
ĠKing dom
Ġrevol ving
ĠMiss issippi
Ġboss es
Ġexplan ations
ĠMus ical
ĠRom ance
ĠMiche al
Ġideal istic
Ġspark s
Ġmock ery
AA AA
ĠCa esar
Ġillustr ate
Ġdict ator
ĠIron ically
Ġdistingu ished
Ġcommend able
Ġhench man
ĠMu lder
Ġhypoc ris
Ġstruct ured
Ġod dball
C arl
D el
E ye
H onestly
R ead
c ence
d ouble
Ġs atellite
Ġb er
Ġb io
Ġb ills
Ġh ometown
le ad
Ġl abeled
ent ions
ĠT on
ĠT ow
Ġst ern
ch anic
ĠB uffy
Ġ37 93
00 36
Ġ38 98
ĠC roc
ul ates
Ġsc attered
02 19
03 67
Ġ63 99
ĠL ass
Ġwor m
ĠG ina
Ġ78 61
Ġ83 19
Ġ83 93
Ġ83 29
Ġ84 45
Ġ84 87
Ġ88 62
Ġ93 38
Ġ93 52
46 9
ert on
Ġover st
Ġover wrought
Ġdis par
Ġ87 04
Ġbl ends
Ġ86 04
Ġ96 09
ens ively
Ġ106 29
Ġsl ips
Ġdec ency
iss ue
Ġev ocative
ĠZ en
ĠCar la
Ġ613 3
Ġpar as
Ġ600 6
Ġ710 0
Ġ773 5
Ġ812 0
Ġ812 1
Ġ864 2
Ġ824 2
Ġ808 4
unt il
Ġ909 2
wr ote
Ġsoci opath
Ġ965 7
Ġ972 6
ĠCol man
Ġobs erved
Ġweek ly
Ġclos ure
Ġneg ot
Ġdisappe aring
Ġder ived
hero es
Ġsuck ing
ĠSus p
Ġtarget ed
Ġpregn ancy
Ġabr oad
ĠTor o
rep resent
Ġcoinc idences
ĠLOV ED
Ġstyl istic
Ġpreach ing
Ġrestra int
ĠShep herd
Ġfo resh
Ġgh astly
ĠMey er
ĠSpir it
Cla ude
ĠLup ino
ĠSebast ian
Ġviscer al
F iles
b ab
c art
h iker
w ere
Ġt iger
Ġt ube
it age
Ġp od
Ġg ust
ut ches
ĠT unes
Ġon going
Ġhe al
Ġwh ites
Ġ31 52
ir teen
ĠM ot
ĠH os
Ġch ock
ood y
Ġ64 19
th ood
Ġ65 52
ist on
Ġ74 75
Ġ74 51
Ġ76 15
Ġ75 09
Ġ78 50
Ġ83 23
Ġ85 77
Ġ85 58
Ġ84 84
Ġun comprom
Ġ93 55
Ġ95 03
ĠO mar
Ġ94 16
Ġro bbing
Ġdis cipl
aw ed
Ġsp ared
Ġ79 19
Ġ79 77
iz a
Ġ77 15
Ġ96 19
Ġ96 64
Ġ97 76
Ġback ed
ĠSt ella
cl ing
Ġbefore hand
Ġtri gger
", '
Ġpol ish
att ing
ann ibal
arn ers
Ġstupid est
olog ists
ĠHar per
Ġmaster mind
Ġ703 0
Ġ773 7
Ġ806 8
Ġ805 8
Ġ805 9
Ġ800 5
Ġ809 8
Ġ818 3
Ġbo ards
Ġwin ners
Ġ909 8
Ġ894 3
oose velt
Ġ976 4
ĠCol omb
uro pe
Ġ900 2
Ġ1163 1
Ġ1133 1
Ġoper ating
Ġrequ est
Ġfavour ites
iac s
Ġmob ile
Ġdiv ine
Ġloving ly
Ġpuzz ling
Ġevol ved
Ġparticip ants
ĠGriff in
Ġannoun ced
Ġtraum atic
Ġtow er
Ġelim inated
Ġparad ise
ĠPur ple
Ã³ n
Ġori ented
) "
F ull
I EN
K ill
M us
N O
Ġs unny
Ġc ulp
ou ri
Ġl ists
ilm ore
ro d
ĠB ing
ĠM ong
ĠC ort
Ġsh oved
out ed
Ġex hilar
Ġ56 62
act resses
ĠP u
ĠR usty
Ġ74 69
Ġ74 56
ĠJ ourney
ĠG le
ĠG ET
Ġ76 17
Ġ76 97
Ġ75 76
Ġ78 43
Ġ83 73
25 0
Ġ85 15
Ġ85 50
Ġ84 09
Ġ84 50
Ġun cont
Ġ88 87
ĠE van
44 9
Ġup tight
83 7
so le
Ġcl arity
Ġ115 41
Ġar ise
int ellect
Ġ70 73
Ġam oral
ĠV ice
Ġ106 91
Ġ104 08
oc op
ran n
Ġbig ot
Ġoriginal s
Ġins ignificant
Ġrest rict
011 98
Ġmis placed
Ġ773 4
sp ersed
Ġ814 0
Ġ819 8
Ġlar gest
Ġ865 9
Ġ919 9
Ġ894 8
Ġ916 2
Ġ777 7
work ed
work ers
Ġ911 4
Ġ1006 4
Ġ1003 0
ĠMor an
Ġ803 3
Ġ1085 1
Ġ1094 6
Ġghost ly
ugg ed
Ġcelebr ate
Ġgrad uate
Ġobsc ene
Ġkiss es
ĠDE ATH
ĠComm and
ĠMil o
ĠDoes n
Ġded ication
bal anced
Ġyell s
Ġreun ited
Ġbik ini
Ad am
Ġresour ce
Ġorche stra
Ġdemean or
Ġsquee ze
ĠKings ley
anth rop
Ġvideot ape
ĠTib et
" ).<
D ie
P D
g les
h ors
l ings
n ament
u ve
Ġa ven
er ick
Ġm and
at hed
Ġth wart
Ġ10 003
as ive
Ġl ure
Ġe er
ĠM ills
ĠC amb
ĠH im
ĠW ally
Ġ46 00
ĠD y
19 99
el come
ĠL ampoon
Ġout set
ĠG ould
Ġ73 69
Ġ75 40
Ġ83 63
Ġ83 01
Ġ83 50
ĠN ine
Ġ85 53
Ġ85 60
Ġ88 19
Ġ88 58
Ġ95 08
Ġ60 13
Ġover board
Ġ70 19
Ġfun ky
Ġ86 79
Ġ86 24
Ġ92 04
ip her
Ġ110 10
ĠU m
ons ense
Ġmus h
ĠAl ison
Ġev al
Ġhard ened
ott s
ok ay
Ġdep uty
ĠWe aver
ĠMar ple
Ġret elling
Ġgra veyard
ger ald
Ġ796 4
Ġcapt ive
Ġbreak through
Ġ879 3
Ġ865 3
Ġ893 3
ĠAd mittedly
Ġ906 6
Ġsum mon
Ġcamp ing
Ġ1004 9
Ġ1066 2
Ġcir ca
IS H
ĠEurope ans
Ġamateur s
Ġserial s
Ġmut il
Ġtrib es
ĠLuc ille
ĠDar win
Ġaccomp any
ĠSun set
ĠAsh ton
Ġalleg ory
Ġvulner ability
Ġswitch ing
Ġengine er
Ġmaint aining
Ġparan ormal
Ġmonolog ues
ĠRud y
Ġcigare ttes
Ġdope y
Ġupst airs
Step hen
Ġdut ies
Ob viously
Ġenforce ment
A p
G l
H alloween
O k
V is
W or
W ild
b os
c ity
h oles
n n
s un
Ġ ).
in ness
Ġb ubb
at he
Ġp ris
ic ates
Ġst al
et ch
ce tt
ĠS S
ĠS pl
Ġ34 00
Ġ35 60
ĠB anks
00 80
ĠM andy
ĠH i
Ġ45 80
Ġch amber
Ġ56 85
ĠP enny
ĠR oosevelt
92 1
Ġ72 91
Ġ72 50
ĠG adget
ĠG ersh
Ġ76 55
Ġ76 32
Ġ78 36
Ġ78 59
ĠN oon
Ġ85 19
Ġ85 52
Ġ84 24
Ġ88 98
Ġ88 90
ong s
Ġ93 30
Ġv ic
Ġper t
Ġ79 05
Ġbl oke
Ġ69 19
Ġyour selves
Ġ106 01
Ġ112 19
Ġgr oo
ock ing
Ġap es
ĠAl icia
ĠBr its
ĠSh in
Ġext ract
ros pective
Ġwar riors
ee ee
Ġdef ending
Ġbor rows
Ġinc ess
Ġsk ipped
gr own
Ġret ain
ĠChrist y
Ġcor respond
Ġ795 8
Ġ863 0
Ġ811 1
Ġ808 8
Ġ917 9
Ġ876 2
Ġpot ent
ĠPe ggy
Ġ965 0
Ġ1028 6
Ġadvent urous
ĠGreat est
Ġcontinu ously
mm mm
Ġgod s
ĠBur g
ĠCr im
John ny
add in
Ġmob sters
sm all
Ġsurreal ism
Ġbot ched
Ġnin jas
ĠDem ons
Ġstalk ed
amor ph
ĠProdu cer
ĠKurt z
Ġinse cure
Ġcollabor ation
Ġsarc asm
== ==
Ġcaps ule
ĠLore tta
Barb ara
V ictor
W ARNING
g old
h off
m pt
o ften
w onder
w atching
Ġs oup
Ġo we
Ġb ury
ar ro
Ġg amb
ĠI sh
Ġn ymph
Ġre wind
ad der
ĠA ut
ĠB ri
ra pe
Ġ( !)
ĠH aines
Ġsh ar
Ġ52 87
Ġab undance
Ġ59 74
ĠF ever
Ġ74 15
Ġ74 97
Ġ74 58
Ġ75 26
Ġ75 34
Ġ83 82
ĠN ak
Ġ85 12
Ġ84 62
Ġ95 54
Ġ98 06
Ġ98 28
Ġ79 14
Ġ79 06
ary a
Ġ86 03
Ġ92 72
ĠY am
ĠY ak
Ġfl ipping
Ġ108 98
Ġ100 11
Ġ91 10
Ġass et
Ġanim ators
Ġ512 5
Ġ619 3
Ġ810 3
Ġcheap er
Ġ719 4
Ġ892 8
go es
Ġ895 7
Ġ924 5
Ġ978 2
ĠEl vira
Ġ964 1
Ġmil it
Ġ915 5
Ġinf atu
ĠPr ime
ask a
Ġcry stal
ivers ary
Ġmel ting
Ġ1428 6
Ġball oon
Ġdiscuss ions
Ġrepresent ing
Ġindepend ence
Ġachieve ments
ĠPhil adelphia
yr one
Ġscar ce
Ġunfor g
ugos l
Ġsophistic ation
Ġinhab ited
ĠDet roit
Ġbik ers
ĠBu y
Ġdrown ing
Ã¨ re
ĠRic ci
ĠDoll s
Ġtransc ends
ĠAz te
Ġencoura ged
Ġindu cing
Ġplag ued
Ġlux ury
ĠCob urn
Ġdeem ed
Lew is
Ġmonstr ous
L aura
h oo
m ale
o ak
p it
Ġt urb
Ġw arden
Ġw iped
re lease
it ially
Ġb ash
Ġ9 003
ar ably
ar ians
Ġ10 006
Ġg ays
vi on
Ġhe ir
Ġwh ip
id or
ĠS ke
Ġ33 91
00 24
if iable
Ġ55 58
Ġ66 48
Ġ63 41
ĠP ed
ĠP ossibly
Ġ74 64
Ġ72 69
Ġ73 90
Ġ75 15
Ġ75 71
Ġ75 31
Ġ78 25
Ġ83 96
Ġ83 31
Ġ85 48
Ġ85 54
Ġ85 51
Ġ84 95
Ġ84 28
Ġ84 70
Ġ84 57
his e
ĠE agle
Ġ93 47
Ġ95 56
43 7
pt uous
ep id
Ġ79 95
Ġ87 19
Ġ87 73
ult ra
Ġ97 07
Ġ89 74
Ġ100 18
Ġ102 13
Ġ122 90
Ġrel ating
Ġrec ruit
Ġkind ness
Ġele mentary
Ġret ro
ĠZ ell
ĠMc N
Ġ694 4
Ġ694 7
Ġcol ored
Ġ792 5
Ġ812 3
Ġ810 9
Ġ863 3
ĠKe anu
Ġ875 1
Ġ892 9
ĠGr anger
Ġ893 9
Ġ909 5
Ġ912 3
Ġ904 9
Ġsign ature
Ġ914 3
Ġ925 8
Ġ923 1
Ġ1002 1
Ġ1010 0
An na
Ġ1103 3
Ġshame ful
Ġ1094 7
Ġhair y
ĠEn emy
Ġ1119 9
Ġamb iance
016 4
Ġsatisf actory
ĠMac beth
ĠNor wegian
ĠST ORY
ĠWhere as
ĠCo ast
Ġwise cra
Ġtour ists
Ġrecall s
Ġprinci ples
ĠAdd itionally
Ġpa uses
ĠCarol ine
Con nor
Ġcorpor ation
ĠSqu ad
Ġappla use
Ġlabor atory
ĠSing apore
ĠGal actica
ĠNik ki
anim ated
Ġgest ure
Ġhypnot ic
ĠTob y
Ġparad ox
Ġshowc ases
Ġhypoc rit
ĠDud ley
ourge ois
Ġfier y
2 002
E LL
Z omb
j an
m ation
w ords
Ġw izard
Ġc ob
an or
ar ia
Ġd ang
Ġin adequ
Ġl oo
ĠT our
gh ost
all e
ĠA very
Ġan onymous
un like
ĠM akes
ter ed
Ġnot ing
Ġ43 66
ĠH els
Ġsh rink
Ġ55 98
02 94
02 93
04 62
Ġde er
ĠP rem
ĠP esci
Ġout put
ĠG iov
Ġ73 07
Ġ73 81
Ġ76 18
um ably
Ġ83 00
Ġ83 13
Ġ85 74
Ġ85 65
Ġ88 15
Ġ93 05
Ġ93 86
Ġ93 62
Ġwat ered
Ġ105 31
ab ul
ĠK ris
Ġcl ar
Ġ94 09
Ġar ranged
Ġ80 12
Ġsp awned
Ġ82 79
Ġ87 78
ĠV II
Ġ99 79
Ġwhere in
Ġbr othel
Ġra ging
Ġworld wide
Ġ216 28
Ġcons umm
dd ing
Ġmind set
uff ed
elt a
ĠZ or
ĠNo ir
Ġ705 3
Ġstra in
Ġfair ness
Ġ793 2
Ġsn oo
Ġ805 0
Ġ772 5
Ġ814 7
ĠWar hol
Ġ873 2
Ġ898 4
ĠDo om
Ġ928 7
Ġ896 0
Ġsent enced
ĠCom ing
An thony
Ġ1016 7
Ġ1095 7
Ġfree ly
Ġ1063 5
Ġproject ion
ĠFilm ed
bor ah
Ġcollect ing
kin son
ĠMac Donald
ugg ish
ĠPal mer
ĠTre vor
ĠApp le
Ġmanip ulate
ĠCinem atography
Ġmyth ical
Ġunc redited
ĠRand all
ĠRet urns
ĠAtl antic
-------- --------
Ġabdu cted
ĠClay ton
Ġcondem ned
icy cle
ĠLum et
Ġwoe fully
Ġcensors hip
Ġlaun ched
mult i
ĠWR ONG
ĠLeather face
Ġdia lect
Ġsuperfl uous
' ).
H am
W onder
b as
Ġt oned
Ġb ol
Ġb iblical
Ġp ac
Ġl inger
ĠI D
us ional
il o
ve led
Ġas c
se as
ĠA HEAD
ĠS tern
ĠB axter
ĠM aurice
Ġnot ions
Ġ40 77
Ġsh akes
Ġsh iny
Ġ47 23
ĠW is
em o
Ġ57 28
Ġ58 84
Ġ62 56
Ġ59 86
Ġ68 85
ĠP ere
ĠL og
ĠF lying
Ġ74 34
Ġ76 21
Ġle cture
Ġ75 11
Ġ83 69
Ġ83 87
ĠN AS
Ġ85 57
Ġ84 13
Ġ84 58
Ġun pre
Ġ88 17
Ġ88 39
ĠK ilmer
Ġkn ack
Ġpre historic
Ġ94 05
Ġ98 78
Ġ115 97
Ġ67 04
Ġ80 72
Ġ79 10
Ġinter play
Ġ69 71
Ġ86 02
Ġ86 20
Ġ92 91
ĠV ern
Ġ97 00
Ġco ke
ĠWh ale
ann i
play er
ank a
Ġ676 6
Ġ678 1
Ġeff icient
Ġstra ined
Ġdocu ments
Ġ718 2
Ġdr ool
Ġ804 8
Ġ863 1
Ġ826 0
ĠGod d
cent ury
ST ER
ON D
Ġ872 9
Ġ699 1
Ġ906 9
ĠEl aine
Ġ1009 1
ĠIM O
aby rin
Ġrad ar
OM B
ĠLove craft
Ġpun ished
ĠIr win
Ġaim s
Ġtack le
Ġscar red
Ġlink s
Ġoutrage ously
Ġincident al
Ġoverwhel med
handed ly
ĠNorm ally
Ġmagaz ines
ĠLI FE
Ġdomin ate
aval ry
ĠFant astic
Ġemp ath
Ġcloud s
Ġrecre ate
ĠVill age
Ġquint essential
holl and
C le
D irty
c ir
j ah
u an
w ig
Ġs ordid
er r
is ite
on ne
ar ine
Ġp ap
Ġl uc
Ġl oop
Ġl oner
ic ien
Ġbe f
ĠT rap
ad os
Ġst ares
st ri
ĠM ead
ĠM ik
Ġnot icing
ĠC ynthia
Ġ48 15
Ġ62 51
Ġde ception
ĠF ine
Ġcon quer
Ġ76 19
Ġ76 92
Ġ75 59
Ġpro b
ĠN am
Ġ85 10
Ġ88 22
ĠE arp
Ġ93 73
Ġ93 96
Ġ105 38
Ġ103 13
so ld
ĠK y
ond o
Ġsp ons
Ġ82 94
Ġ82 07
Ġ79 09
Ġ79 73
Ġri ff
Ġ96 13
ĠCh ang
Ġaw arded
Ġ104 71
li ved
Ġfam ed
oc used
ĠBe ars
Ġart y
Ġadd resses
Ġdep ri
Ġsk ipping
ĠMar is
ĠRe view
ĠSe attle
Ġfr at
Ġtrans vest
Ġ693 4
Ġsupport s
Ġ798 1
[...]
