{
  "version": "1.0",
  "truncation": null,
  "padding": null,
  "added_tokens": [
    {
      "id": 0,
      "content": "<|endoftext|>",
      "single_word": false,
      "lstrip": false,
      "rstrip": false,
      "normalized": true,
      "special": true
    }
  ],
  "normalizer": null,
  "pre_tokenizer": {
    "type": "ByteLevel",
    "add_prefix_space": false,
    "trim_offsets": true,
    "use_regex": true
  },
  "post_processor": {
    "type": "ByteLevel",
    "add_prefix_space": true,
    "trim_offsets": false,
    "use_regex": true
  },
  "decoder": {
    "type": "ByteLevel",
    "add_prefix_space": true,
    "trim_offsets": true,
    "use_regex": true
  },
  "model": {
    "type": "BPE",
    "dropout": null,
    "unk_token": null,
    "continuing_subword_prefix": "",
    "end_of_word_suffix": "",
    "fuse_unk": false,
    "byte_fallback": false,
    "ignore_merges": false,
    "vocab": {
      "<|endoftext|>": 0,
      "!": 1,
      "\"": 2,
      "#": 3,
      "$": 4,
      "%": 5,
      "&": 6,
      "'": 7,
      "(": 8,
      ")": 9,
      "*": 10,
      "+": 11,
      ",": 12,
      "-": 13,
      ".": 14,
      "/": 15,
      "0": 16,
      "1": 17,
      "2": 18,
      "3": 19,
      "4": 20,
      "5": 21,
      "6": 22,
      "7": 23,
      "8": 24,
      "9": 25,
      ":": 26,
      ";": 27,
      "<": 28,
      "=": 29,
      ">": 30,
      "?": 31,
      "@": 32,
      "A": 33,
      "B": 34,
      "C": 35,
      "D": 36,
      "E": 37,
      "F": 38,
      "G": 39,
      "H": 40,
      "I": 41,
      "J": 42,
      "K": 43,
      "L": 44,
      "M": 45,
      "N": 46,
      "O": 47,
      "P": 48,
      "Q": 49,
      "R": 50,
      "S": 51,
      "T": 52,
      "U": 53,
      "V": 54,
      "W": 55,
      "X": 56,
      "Y": 57,
      "Z": 58,
      "[": 59,
      "\\": 60,
      "]": 61,
      "^": 62,
      "_": 63,
      "`": 64,
      "a": 65,
      "b": 66,
      "c": 67,
      "d": 68,
      "e": 69,
      "f": 70,
      "g": 71,
      "h": 72,
      "i": 73,
      "j": 74,
      "k": 75,
      "l": 76,
      "m": 77,
      "n": 78,
      "o": 79,
      "p": 80,
      "q": 81,
      "r": 82,
      "s": 83,
      "t": 84,
      "u": 85,
      "v": 86,
      "w": 87,
      "x": 88,
      "y": 89,
      "z": 90,
      "{": 91,
      "|": 92,
      "}": 93,
      "~": 94,
      "¡": 95,
      "¢": 96,
      "£": 97,
      "¤": 98,
      "¥": 99,
      "¦": 100,
      "§": 101,
      "¨": 102,
      "©": 103,
      "ª": 104,
      "«": 105,
      "¬": 106,
      "®": 107,
      "¯": 108,
      "°": 109,
      "±": 110,
      "²": 111,
      "³": 112,
      "´": 113,
      "µ": 114,
      "¶": 115,
      "·": 116,
      "¸": 117,
      "¹": 118,
      "º": 119,
      "»": 120,
      "¼": 121,
      "½": 122,
      "¾": 123,
      "¿": 124,
      "À": 125,
      "Á": 126,
      "Â": 127,
      "Ã": 128,
      "Ä": 129,
      "Å": 130,
      "Æ": 131,
      "Ç": 132,
      "È": 133,
      "É": 134,
      "Ê": 135,
      "Ë": 136,
      "Ì": 137,
      "Í": 138,
      "Î": 139,
      "Ï": 140,
      "Ð": 141,
      "Ñ": 142,
      "Ò": 143,
      "Ó": 144,
      "Ô": 145,
      "Õ": 146,
      "Ö": 147,
      "×": 148,
      "Ø": 149,
      "Ù": 150,
      "Ú": 151,
      "Û": 152,
      "Ü": 153,
      "Ý": 154,
      "Þ": 155,
      "ß": 156,
      "à": 157,
      "á": 158,
      "â": 159,
      "ã": 160,
      "ä": 161,
      "å": 162,
      "æ": 163,
      "ç": 164,
      "è": 165,
      "é": 166,
      "ê": 167,
      "ë": 168,
      "ì": 169,
      "í": 170,
      "î": 171,
      "ï": 172,
      "ð": 173,
      "ñ": 174,
      "ò": 175,
      "ó": 176,
      "ô": 177,
      "õ": 178,
      "ö": 179,
      "÷": 180,
      "ø": 181,
      "ù": 182,
      "ú": 183,
      "û": 184,
      "ü": 185,
      "ý": 186,
      "þ": 187,
      "ÿ": 188,
      "Ā": 189,
      "ā": 190,
      "Ă": 191,
      "ă": 192,
      "Ą": 193,
      "ą": 194,
      "Ć": 195,
      "ć": 196,
      "Ĉ": 197,
      "ĉ": 198,
      "Ċ": 199,
      "ċ": 200,
      "Č": 201,
      "č": 202,
      "Ď": 203,
      "ď": 204,
      "Đ": 205,
      "đ": 206,
      "Ē": 207,
      "ē": 208,
      "Ĕ": 209,
      "ĕ": 210,
      "Ė": 211,
      "ė": 212,
      "Ę": 213,
      "ę": 214,
      "Ě": 215,
      "ě": 216,
      "Ĝ": 217,
      "ĝ": 218,
      "Ğ": 219,
      "ğ": 220,
      "Ġ": 221,
      "ġ": 222,
      "Ģ": 223,
      "ģ": 224,
      "Ĥ": 225,
      "ĥ": 226,
      "Ħ": 227,
      "ħ": 228,
      "Ĩ": 229,
      "ĩ": 230,
      "Ī": 231,
      "ī": 232,
      "Ĭ": 233,
      "ĭ": 234,
      "Į": 235,
      "į": 236,
      "İ": 237,
      "ı": 238,
      "Ĳ": 239,
      "ĳ": 240,
      "Ĵ": 241,
      "ĵ": 242,
      "Ķ": 243,
      "ķ": 244,
      "ĸ": 245,
      "Ĺ": 246,
      "ĺ": 247,
      "Ļ": 248,
      "ļ": 249,
      "Ľ": 250,
      "ľ": 251,
      "Ŀ": 252,
      "ŀ": 253,
      "Ł": 254,
      "ł": 255,
      "Ń": 256,
      "Ġ1": 257,
      "Ġt": 258,
      "Ġa": 259,
      "Ġ2": 260,
      "he": 261,
      "in": 262,
      "Ġ3": 263,
      "Ġthe": 264,
      "Ġs": 265,
      "er": 266,
      "Ġ4": 267,
      "Ġw": 268,
      "Ġo": 269,
      "re": 270,
      "is": 271,
      "Ġ5": 272,
      "it": 273,
      "en": 274,
      "Ġf": 275,
      "Ġm": 276,
      "Ġb": 277,
      "Ġ6": 278,
      "at": 279,
      "nd": 280,
      "ing": 281,
      "Ġ7": 282,
      "es": 283,
      "Ġc": 284,
      "or": 285,
      "ou": 286,
      "Ġth": 287,
      "on": 288,
      "Ġ8": 289,
      "Ġh": 290,
      "om": 291,
      "Ġ9": 292,
      "ll": 293,
      "an": 294,
      "Ġof": 295,
      "Ġand": 296,
      "Ġto": 297,
      "ar": 298,
      "Ġp": 299,
      "le": 300,
      "Ġ10": 301,
      "Ġd": 302,
      "ed": 303,
      "as": 304,
      "Ġin": 305,
      "Ġ11": 306,
      "Ġ12": 307,
      "Ġis": 308,
      "Ġl": 309,
      "Ġ13": 310,
      "ic": 311,
      "br": 312,
      "Ġg": 313,
      "ĠI": 314,
      "Ġ/": 315,
      "Ġ/>": 316,
      "Ġ14": 317,
      "us": 318,
      "ot": 319,
      "Ġ15": 320,
      "al": 321,
      "ent": 322,
      "Ġ16": 323,
      "Ġn": 324,
      "ut": 325,
      "ct": 326,
      "il": 327,
      "im": 328,
      "Ġit": 329,
      "Ġe": 330,
      "Ġbe": 331,
      "ly": 332,
      "ve": 333,
      "Ġmo": 334,
      "Ġ17": 335,
      "ĠT": 336,
      "Ġ18": 337,
      "Ġ19": 338,
      "vi": 339,
      "tt": 340,
      "Ġon": 341,
      "Ġre": 342,
      "Ġthat": 343,
      "Ġ20": 344,
      "ver": 345,
      "ow": 346,
      "Ġ22": 347,
      "ad": 348,
      "Ġ21": 349,
      "ion": 350,
      "'s": 351,
      "Ġhe": 352,
      "Ġthis": 353,
      "ay": 354,
      "com": 355,
      "Ġwh": 356,
      "Ġ24": 357,
      "Ġst": 358,
      "st": 359,
      "Ġ23": 360,
      "gh": 361,
      "Ġ25": 362,
      "Ġ26": 363,
      "ch": 364,
      "et": 365,
      "Ġwas": 366,
      "Ġy": 367,
      "vie": 368,
      "Ġ/><": 369,
      "ri": 370,
      "Ġ28": 371,
      "ww": 372,
      "ith": 373,
      "ilm": 374,
      "oo": 375,
      "all": 376,
      "Ġfilm": 377,
      "Ġfor": 378,
      "Ġ29": 379,
      "Ġ27": 380,
      "ce": 381,
      "Ġas": 382,
      "am": 383,
      "Ġwith": 384,
      "ke": 385,
      "ld": 386,
      "id": 387,
      "se": 388,
      "ĠA": 389,
      "Ġan": 390,
      "Ġse": 391,
      "Ġ30": 392,
      "ĠS": 393,
      "ro": 394,
      "un": 395,
      "Ġ31": 396,
      "Ġmovie": 397,
      "ir": 398,
      "ĠThe": 399,
      "Ġ32": 400,
      "Ġyou": 401,
      "Ġ34": 402,
      "Ġha": 403,
      "10": 404,
      "Ġ33": 405,
      "Ġ35": 406,
      ".<": 407,
      "Ġ36": 408,
      "ment": 409,
      "ĠB": 410,
      "her": 411,
      "ur": 412,
      "Ġ37": 413,
      "Ġli": 414,
      "Ġ39": 415,
      "ra": 416,
      "00": 417,
      "Ġbut": 418,
      "ĠM": 419,
      "ter": 420,
      "'t": 421,
      "ally": 422,
      "Ġnot": 423,
      "Ġ42": 424,
      "11": 425,
      "Ġ(": 426,
      "ck": 427,
      "ill": 428,
      "Ġ38": 429,
      "Ġ40": 430,
      "Ġ43": 431,
      "ĠC": 432,
      "Ġ\"": 433,
      "Ġ44": 434,
      "ĠH": 435,
      "Ġ45": 436,
      "Ġare": 437,
      "12": 438,
      "Ġsh": 439,
      "ers": 440,
      "Ġ47": 441,
      "Ġhis": 442,
      "ul": 443,
      "Ġch": 444,
      "13": 445,
      "ould": 446,
      "..": 447,
      "Ġ48": 448,
      "14": 449,
      "ĠW": 450,
      "Ġ49": 451,
      "Ġ46": 452,
      "pe": 453,
      "ome": 454,
      "ments": 455,
      "ght": 456,
      "Ġhave": 457,
      "16": 458,
      "15": 459,
      "if": 460,
      "up": 461,
      "ĠD": 462,
      "19": 463,
      "est": 464,
      "itle": 465,
      "18": 466,
      "ust": 467,
      "Ġj": 468,
      "em": 469,
      "17": 470,
      "Ġ52": 471,
      "ble": 472,
      "db": 473,
      "end": 474,
      "Ġsc": 475,
      "out": 476,
      "el": 477,
      "user": 478,
      "title": 479,
      "//": 480,
      "ttp": 481,
      "://": 482,
      "www": 483,
      "imdb": 484,
      "http": 485,
      "comments": 486,
      "usercomments": 487,
      "Ġ0": 488,
      "Ġ50": 489,
      "ess": 490,
      "Ġact": 491,
      "Ġdo": 492,
      "Ġ53": 493,
      "ain": 494,
      "Ġwho": 495,
      "Ġone": 496,
      "Ġex": 497,
      "Ġ54": 498,
      "rom": 499,
      "Ġ55": 500,
      "Ġ56": 501,
      "Ġk": 502,
      "act": 503,
      "Ġ57": 504,
      "ol": 505,
      "Ġpl": 506,
      "ant": 507,
      "very": 508,
      "ood": 509,
      "Ġcom": 510,
      "Ġ58": 511,
      "02": 512,
      "Ġat": 513,
      "04": 514,
      "03": 515,
      "op": 516,
      "art": 517,
      "Ġall": 518,
      "ak": 519,
      "ag": 520,
      "Ġab": 521,
      "Ġso": 522,
      "Ġwe": 523,
      "Ġal": 524,
      "Ġby": 525,
      "Ġ62": 526,
      "Ġ59": 527,
      "Ġ64": 528,
      "08": 529,
      "th": 530,
      "Ġ66": 531,
      "ous": 532,
      "Ġ65": 533,
      "09": 534,
      "Ġ63": 535,
      "Ġde": 536,
      "and": 537,
      "75": 538,
      "06": 539,
      "73": 540,
      "ist": 541,
      "Ġ68": 542,
      "79": 543,
      "76": 544,
      "ĠP": 545,
      "05": 546,
      "78": 547,
      "72": 548,
      "Ġfrom": 549,
      "ast": 550,
      "ĠL": 551,
      "ie": 552,
      "Ġthey": 553,
      "Ġwor": 554,
      "one": 555,
      "ĠR": 556,
      "qu": 557,
      "Ġne": 558,
      "Ġlike": 559,
      "Ġout": 560,
      "ation": 561,
      "74": 562,
      "ven": 563,
      "ĠF": 564,
      "Ġsome": 565,
      "Ġwhe": 566,
      "92": 567,
      "Ġor": 568,
      "96": 569,
      "Ġ74": 570,
      "Ġcon": 571,
      "94": 572,
      "Ġ72": 573,
      "95": 574,
      "Ġsu": 575,
      "ĠJ": 576,
      "ate": 577,
      "ĠG": 578,
      "ough": 579,
      "Ġ73": 580,
      "ire": 581,
      "Ġher": 582,
      "98": 583,
      "Ġ76": 584,
      "Ġle": 585,
      "93": 586,
      "um": 587,
      "Ġ75": 588,
      "os": 589,
      "Ġ78": 590,
      "Ġhas": 591,
      "Ġjust": 592,
      "Ġabout": 593,
      "ĠIt": 594,
      "ard": 595,
      "ap": 596,
      "24": 597,
      "ind": 598,
      "ich": 599,
      "Ġ83": 600,
      "26": 601,
      "23": 602,
      "Ġme": 603,
      "25": 604,
      "ack": 605,
      "Ġpro": 606,
      "ory": 607,
      "res": 608,
      "ĠN": 609,
      "Ġ85": 610,
      "ort": 611,
      "Ġchar": 612,
      "ive": 613,
      "28": 614,
      "ud": 615,
      "Ġ84": 616,
      "Ġcan": 617,
      "Ġun": 618,
      "ig": 619,
      "Ġ88": 620,
      "07": 621,
      "63": 622,
      "65": 623,
      "Ġtim": 624,
      "Ġr": 625,
      "99": 626,
      "ook": 627,
      "The": 628,
      "his": 629,
      "ĠE": 630,
      "ake": 631,
      "64": 632,
      "68": 633,
      "reat": 634,
      "77": 635,
      "ight": 636,
      "Ġcharact": 637,
      "44": 638,
      "ong": 639,
      "Ġup": 640,
      "Ġ93": 641,
      "fe": 642,
      "Ġgood": 643,
      "22": 644,
      "Ġman": 645,
      "Ġlo": 646,
      "ore": 647,
      "Ġwat": 648,
      "ies": 649,
      "Ġ95": 650,
      "Ġany": 651,
      "01": 652,
      "ĠO": 653,
      "ere": 654,
      "Ġint": 655,
      "Ġmore": 656,
      "Ġtr": 657,
      "ity": 658,
      "85": 659,
      "45": 660,
      "83": 661,
      "70": 662,
      "66": 663,
      "43": 664,
      "Ġno": 665,
      "Ġsee": 666,
      "Ġwould": 667,
      "ound": 668,
      "Ġfe": 669,
      "Ġvery": 670,
      "pp": 671,
      "Ġthere": 672,
      "ure": 673,
      "ther": 674,
      "71": 675,
      "Ġwhat": 676,
      "Ġgo": 677,
      "ame": 678,
      "ite": 679,
      "use": 680,
      "pt": 681,
      "88": 682,
      "Ġmy": 683,
      "ge": 684,
      "able": 685,
      "91": 686,
      "35": 687,
      "90": 688,
      "Ġstory": 689,
      "84": 690,
      "20": 691,
      "97": 692,
      "are": 693,
      "Ġget": 694,
      "od": 695,
      "33": 696,
      "Ġ105": 697,
      "Ġtime": 698,
      "ci": 699,
      "21": 700,
      "Ġshe": 701,
      "Ġwhen": 702,
      "hing": 703,
      "27": 704,
      "ell": 705,
      "Ġen": 706,
      "48": 707,
      "Ġtheir": 708,
      "ab": 709,
      "Ġscen": 710,
      "oy": 711,
      "46": 712,
      "29": 713,
      "55": 714,
      "pl": 715,
      "Ġ103": 716,
      "Ġ-": 717,
      "Ġreally": 718,
      "ick": 719,
      "Ġhad": 720,
      "itt": 721,
      "Ġonly": 722,
      "Ġwatch": 723,
      "86": 724,
      "Ġif": 725,
      "Ġhim": 726,
      "ink": 727,
      "Ġv": 728,
      "so": 729,
      "Ġshow": 730,
      "Ġeven": 731,
      "Ġper": 732,
      "Ġwere": 733,
      "man": 734,
      "ĠK": 735,
      "Ġother": 736,
      "ine": 737,
      "Ġwhich": 738,
      "Ġthem": 739,
      "og": 740,
      "ca": 741,
      "Ġcl": 742,
      "our": 743,
      "Ġ41": 744,
      "ves": 745,
      "ond": 746,
      "Ġthan": 747,
      "Ġkn": 748,
      "ars": 749,
      "53": 750,
      "69": 751,
      "Ġdid": 752,
      "ays": 753,
      "uch": 754,
      "Ġend": 755,
      "Ġpre": 756,
      "ade": 757,
      "Ġdoes": 758,
      "62": 759,
      "67": 760,
      "ac": 761,
      "Ġ94": 762,
      "ence": 763,
      "Ġ98": 764,
      "Ġ113": 765,
      "Ġpe": 766,
      "nt": 767,
      "Ġ115": 768,
      "60": 769,
      "Ġ60": 770,
      "61": 771,
      "...": 772,
      "Ġgreat": 773,
      "ue": 774,
      "ice": 775,
      "Ġlook": 776,
      "Ġqu": 777,
      "Ġbad": 778,
      "42": 779,
      "Ġmuch": 780,
      "irect": 781,
      "ry": 782,
      "ert": 783,
      "ne": 784,
      "Ġar": 785,
      "ople": 786,
      "Ġcould": 787,
      "irst": 788,
      "Ġbeen": 789,
      "80": 790,
      "ple": 791,
      "lf": 792,
      "ile": 793,
      "ide": 794,
      "Ġwill": 795,
      "Ġhow": 796,
      "Ġinto": 797,
      "Ġpo": 798,
      "Ġover": 799,
      "Ġim": 800,
      "int": 801,
      "Ġ123": 802,
      "cause": 803,
      "47": 804,
      "89": 805,
      "40": 806,
      "ff": 807,
      "ass": 808,
      "Ġ125": 809,
      "Ġwell": 810,
      "82": 811,
      "Ġmost": 812,
      "ĠThis": 813,
      "for": 814,
      "ep": 815,
      "ving": 816,
      "Ġpeople": 817,
      "49": 818,
      "other": 819,
      "41": 820,
      "Ġknow": 821,
      "87": 822,
      "Ġtw": 823,
      "Ġro": 824,
      "ose": 825,
      "age": 826,
      "Ġthink": 827,
      "Ġdis": 828,
      "Ġoff": 829,
      "81": 830,
      "Ġ70": 831,
      "Ġus": 832,
      "Ġbecause": 833,
      "Ġtoo": 834,
      "Ġad": 835,
      "ors": 836,
      "Ġag": 837,
      "fter": 838,
      "ish": 839,
      "ful": 840,
      "Ġmake": 841,
      "Ġ133": 842,
      "Ġ67": 843,
      "Ġevery": 844,
      "Ġreal": 845,
      "Ġ135": 846,
      "Ġdirect": 847,
      "Ġpart": 848,
      "ull": 849,
      "Ġfirst": 850,
      "aw": 851,
      "und": 852,
      "Ġam": 853,
      "Ġthing": 854,
      "Ġ80": 855,
      "Ġsp": 856,
      "Ġ82": 857,
      "ny": 858,
      "Ġ79": 859,
      "Ġmade": 860,
      "vies": 861,
      "hat": 862,
      "ost": 863,
      "Ġfun": 864,
      "Ġway": 865,
      "Ġfa": 866,
      "ict": 867,
      "Ġalso": 868,
      "ary": 869,
      "ian": 870,
      "te": 871,
      "oll": 872,
      "own": 873,
      "ated": 874,
      "au": 875,
      "Ġ61": 876,
      "Ġ87": 877,
      "Ġ143": 878,
      "ob": 879,
      "Ġseem": 880,
      "Ġmovies": 881,
      "Ġdon": 882,
      "akes": 883,
      "Ġbl": 884,
      "Ġcharacter": 885,
      "Ġthr": 886,
      "ical": 887,
      "Ġits": 888,
      "gin": 889,
      "Ġgu": 890,
      "Ġ'": 891,
      "Ġwr": 892,
      "Ġinter": 893,
      "Ġ145": 894,
      "Ġcharacters": 895,
      "ress": 896,
      "Ġ71": 897,
      "iz": 898,
      "30": 899,
      "Ġ69": 900,
      "ious": 901,
      "view": 902,
      "Ġ90": 903,
      "Ġ77": 904,
      "Ġ86": 905,
      "Ġri": 906,
      "ng": 907,
      "Ġwork": 908,
      "Ġ92": 909,
      "36": 910,
      "Ġ96": 911,
      "ually": 912,
      "34": 913,
      "ult": 914,
      "fect": 915,
      "37": 916,
      "ĠAnd": 917,
      "hed": 918,
      "39": 919,
      "ĠY": 920,
      "pect": 921,
      "Ġfilms": 922,
      "Ġ155": 923,
      "ĠCh": 924,
      "ial": 925,
      "32": 926,
      "Ġfl": 927,
      "self": 928,
      "ces": 929,
      "Ġplot": 930,
      "38": 931,
      "Ġplay": 932,
      "ved": 933,
      "ang": 934,
      "Ġ81": 935,
      "Ġthen": 936,
      "Ġbeing": 937,
      "50": 938,
      "Ġseen": 939,
      "ĠV": 940,
      "ens": 941,
      "Ġwant": 942,
      "omet": 943,
      "31": 944,
      "Ġ97": 945,
      "Ġ108": 946,
      "ance": 947,
      "Ġye": 948,
      "Ġyour": 949,
      "Ġser": 950,
      "mer": 951,
      "Ġaw": 952,
      "Ġ106": 953,
      "54": 954,
      "ĠBut": 955,
      "ans": 956,
      "Ġ99": 957,
      "ittle": 958,
      "),": 959,
      "Ġtwo": 960,
      "Ġafter": 961,
      "ip": 962,
      "Ġ89": 963,
      "Ġlove": 964,
      "Ġte": 965,
      "Ġmany": 966,
      "Ġnever": 967,
      "urn": 968,
      "57": 969,
      "52": 970,
      "cc": 971,
      "Ġ100": 972,
      "Ġvi": 973,
      "Ġsay": 974,
      ").": 975,
      "Ġwhere": 976,
      "Ġacting": 977,
      "ark": 978,
      "du": 979,
      "ber": 980,
      "tter": 981,
      "58": 982,
      "51": 983,
      "red": 984,
      "Ġ<": 985,
      "Ġ104": 986,
      "ĠHe": 987,
      "ĠIn": 988,
      "Ġ102": 989,
      "Ġent": 990,
      "Ġsup": 991,
      "ach": 992,
      "Ġ107": 993,
      "Ġback": 994,
      "This": 995,
      "59": 996,
      "Ġ109": 997,
      "Ġthrough": 998,
      "56": 999,
      "Ġlittle": 1000,
      "Ġlife": 1001,
      "get": 1002,
      "Ġbest": 1003,
      "ild": 1004,
      "Ġhor": 1005,
      "per": 1006,
      "Ġund": 1007,
      "Ġsomet": 1008,
      "ise": 1009,
      "Ġrem": 1010,
      "Ġever": 1011,
      "ather": 1012,
      "ĠSt": 1013,
      "ily": 1014,
      "ace": 1015,
      "ions": 1016,
      "we": 1017,
      "hy": 1018,
      "de": 1019,
      "vel": 1020,
      "Ġbetter": 1021,
      "Ġ91": 1022,
      "Ġ112": 1023,
      "wn": 1024,
      "Ġ114": 1025,
      "Ġdes": 1026,
      "be": 1027,
      "Ġ119": 1028,
      "Ġ51": 1029,
      "Ġscene": 1030,
      "Ġperfor": 1031,
      "Ġ110": 1032,
      "Ġfind": 1033,
      "Ġatt": 1034,
      "Ġ116": 1035,
      "!!": 1036,
      "ase": 1037,
      "aking": 1038,
      "ought": 1039,
      "Ġshould": 1040,
      "rap": 1041,
      "ru": 1042,
      "thing": 1043,
      "Ġ126": 1044,
      "Ġ101": 1045,
      "Ġsl": 1046,
      "Ġscenes": 1047,
      "les": 1048,
      "Ġcont": 1049,
      "Ġ117": 1050,
      "ertain": 1051,
      "less": 1052,
      "ual": 1053,
      "vers": 1054,
      "Ġunder": 1055,
      "Ġ128": 1056,
      "augh": 1057,
      "Ġ122": 1058,
      "Ġmin": 1059,
      "Ġfeel": 1060,
      "riend": 1061,
      "lie": 1062,
      "ree": 1063,
      "Ġ129": 1064,
      "ever": 1065,
      "ĠU": 1066,
      "Ġ134": 1067,
      "'ve": 1068,
      "Ġgr": 1069,
      "Ġagain": 1070,
      "Ġ111": 1071,
      "igh": 1072,
      "peci": 1073,
      "Ġbr": 1074,
      "Ġ127": 1075,
      "Ġ138": 1076,
      "fer": 1077,
      "Ġhere": 1078,
      "Ġ120": 1079,
      "Ġkill": 1080,
      "ons": 1081,
      "ning": 1082,
      "ense": 1083,
      "ably": 1084,
      "Ġinterest": 1085,
      "ating": 1086,
      "Ġstill": 1087,
      "ations": 1088,
      "Ġi": 1089,
      "fore": 1090,
      "ĠThere": 1091,
      "ents": 1092,
      "Ġsomething": 1093,
      "Ġ124": 1094,
      "the": 1095,
      "li": 1096,
      "Ġ121": 1097,
      "ath": 1098,
      "Ġ136": 1099,
      "Ġhapp": 1100,
      "Ġthese": 1101,
      "Ġlot": 1102,
      "'m": 1103,
      "Ġsuch": 1104,
      "Ġsur": 1105,
      "Ġcr": 1106,
      "Ġimp": 1107,
      "der": 1108,
      "Ġmay": 1109,
      "ror": 1110,
      "ock": 1111,
      "Ġ144": 1112,
      "Ġ153": 1113,
      "Ġperforman": 1114,
      "Ġhum": 1115,
      "ave": 1116,
      "ect": 1117,
      "arly": 1118,
      "Ġ132": 1119,
      "alk": 1120,
      "Ġold": 1121,
      "reen": 1122,
      "ia": 1123,
      "Ġ139": 1124,
      "Ġgi": 1125,
      "Ġcast": 1126,
      "cl": 1127,
      "ater": 1128,
      "ale": 1129,
      "Ġpoint": 1130,
      "Ġ137": 1131,
      "Ġ163": 1132,
      "Ġdoesn": 1133,
      "Ġ118": 1134,
      "Ġra": 1135,
      "Ġ130": 1136,
      "Ġthose": 1137,
      "ying": 1138,
      "Ġgen": 1139,
      "Ġres": 1140,
      "Ġ148": 1141,
      "Ġap": 1142,
      "Ġdidn": 1143,
      "oth": 1144,
      "Ġsim": 1145,
      "Ġ165": 1146,
      "Ġwom": 1147,
      "Ġactors": 1148,
      "Ġguy": 1149,
      "joy": 1150,
      "Ġwatching": 1151,
      "irl": 1152,
      "Ġ131": 1153,
      "Ġcou": 1154,
      "Ġyears": 1155,
      "Ġ146": 1156,
      "ris": 1157,
      "ffect": 1158,
      "Ġ149": 1159,
      "Ġmus": 1160,
      "Ġfam": 1161,
      "Ġche": 1162,
      "Ġfunny": 1163,
      "Ġ154": 1164,
      "Ġ142": 1165,
      "Ġstart": 1166,
      "Ġmakes": 1167,
      "Ġfact": 1168,
      "ute": 1169,
      "Ġ140": 1170,
      "Ġdec": 1171,
      "old": 1172,
      "iss": 1173,
      "oss": 1174,
      "Ġgoing": 1175,
      "Ġview": 1176,
      "Ġenjoy": 1177,
      "oc": 1178,
      "edy": 1179,
      "Ġtra": 1180,
      "ft": 1181,
      "erson": 1182,
      "Ġ156": 1183,
      "Ġbelie": 1184,
      "Ġdown": 1185,
      "az": 1186,
      "Ġ152": 1187,
      "Ġsame": 1188,
      "Ġob": 1189,
      "ĠIf": 1190,
      "Ġ166": 1191,
      "Ġ147": 1192,
      "Ġcomp": 1193,
      "Ġfew": 1194,
      "Ġ162": 1195,
      "ran": 1196,
      "ub": 1197,
      "ool": 1198,
      "Ġactually": 1199,
      "ram": 1200,
      "Ġbefore": 1201,
      "tty": 1202,
      "Ġem": 1203,
      "ĠAl": 1204,
      "Ġfin": 1205,
      "Ġwhile": 1206,
      "Ġlong": 1207,
      "Ġ159": 1208,
      "Ġ158": 1209,
      "ason": 1210,
      "Ġdif": 1211,
      "**": 1212,
      "Ġown": 1213,
      "--": 1214,
      "ĠJo": 1215,
      "Ġter": 1216,
      "Ġprodu": 1217,
      "ience": 1218,
      "Ġ168": 1219,
      "Ġsub": 1220,
      "Ġyoung": 1221,
      "Ġwhy": 1222,
      "Ġ175": 1223,
      "Ġke": 1224,
      "Ġ141": 1225,
      "Ġnow": 1226,
      "Ġbit": 1227,
      "rigin": 1228,
      "Ġthought": 1229,
      "ings": 1230,
      "Ġgot": 1231,
      "Ġdirector": 1232,
      "Ġ150": 1233,
      "ction": 1234,
      "ript": 1235,
      "Ġ164": 1236,
      "Ġ185": 1237,
      "'re": 1238,
      "Ġsm": 1239,
      "Ġtri": 1240,
      "Ġnew": 1241,
      "Ġ169": 1242,
      "Ġturn": 1243,
      "Ġbet": 1244,
      "Ġthough": 1245,
      "Ġnothing": 1246,
      "Ġ167": 1247,
      "Ġ183": 1248,
      "hen": 1249,
      "Ġbig": 1250,
      "Ġanother": 1251,
      "Ġexce": 1252,
      "Ġorigin": 1253,
      "ren": 1254,
      "ible": 1255,
      "Ġ&": 1256,
      "Ġ172": 1257,
      "ew": 1258,
      "Ġsupp": 1259,
      "Ġ151": 1260,
      "Ġinv": 1261,
      "Ġcomple": 1262,
      "ib": 1263,
      "iting": 1264,
      "Ġeffect": 1265,
      "ically": 1266,
      "Ġfriend": 1267,
      "Ġ161": 1268,
      "Ġgirl": 1269,
      "Ġ188": 1270,
      "onder": 1271,
      "Ġ176": 1272,
      "meric": 1273,
      "Ġ173": 1274,
      "ness": 1275,
      "Ġrel": 1276,
      "aut": 1277,
      "Ġaround": 1278,
      "Ġthings": 1279,
      "Ġquite": 1280,
      "Ġseems": 1281,
      "Ġ157": 1282,
      "ince": 1283,
      "ign": 1284,
      "Ġ178": 1285,
      "Ġ160": 1286,
      "Ġsa": 1287,
      "ster": 1288,
      "Ġscreen": 1289,
      "Ġ184": 1290,
      "Ġev": 1291,
      "app": 1292,
      "Ġpretty": 1293,
      "Ġenough": 1294,
      "Ġapp": 1295,
      "Ġ186": 1296,
      "ced": 1297,
      "ween": 1298,
      "Ġright": 1299,
      "Ġ192": 1300,
      "most": 1301,
      "Ġ182": 1302,
      "ash": 1303,
      "ched": 1304,
      "Ġ195": 1305,
      "ways": 1306,
      "Ġscript": 1307,
      "hes": 1308,
      "Ġlaugh": 1309,
      "ately": 1310,
      "Ġworld": 1311,
      "Ġhard": 1312,
      "Ġ174": 1313,
      "Ġ170": 1314,
      "Ġ203": 1315,
      "Ġ198": 1316,
      "Ġrec": 1317,
      "Ġaction": 1318,
      "Ġ177": 1319,
      "ord": 1320,
      "here": 1321,
      "Ġkid": 1322,
      "Ġ171": 1323,
      "ner": 1324,
      "Ġoriginal": 1325,
      "Ġneed": 1326,
      "Ġfar": 1327,
      "Ġtake": 1328,
      "ead": 1329,
      "Ġins": 1330,
      "Ġhigh": 1331,
      "rill": 1332,
      "Ġbetween": 1333,
      "Ġ189": 1334,
      "Ġ213": 1335,
      "ention": 1336,
      "Ġ196": 1337,
      "ĠShe": 1338,
      "Ġ194": 1339,
      "Ġwonder": 1340,
      "Ġpr": 1341,
      "ward": 1342,
      "utes": 1343,
      "Ġhorror": 1344,
      "Ġperson": 1345,
      "Ġgive": 1346,
      "its": 1347,
      "Ġmust": 1348,
      "Ġes": 1349,
      "iv": 1350,
      "Ġkind": 1351,
      "Ġ205": 1352,
      "Ġop": 1353,
      "vious": 1354,
      "Ġset": 1355,
      "Ġappe": 1356,
      "ĠAmeric": 1357,
      "Ġ215": 1358,
      "Ġsex": 1359,
      "Ġsec": 1360,
      "Ġrole": 1361,
      "Ġbecom": 1362,
      "inem": 1363,
      "ĠAs": 1364,
      "ks": 1365,
      "\",": 1366,
      "Ġlead": 1367,
      "Ġ218": 1368,
      "Ġmom": 1369,
      "Ġwhole": 1370,
      "Ġmusic": 1371,
      "ased": 1372,
      "gg": 1373,
      "ex": 1374,
      "Ġ180": 1375,
      "Ġinteresting": 1376,
      "Ġtell": 1377,
      "Ġisn": 1378,
      "Ġ202": 1379,
      "Ġ208": 1380,
      "Ġbu": 1381,
      "Ġleast": 1382,
      "Ġseries": 1383,
      "oot": 1384,
      "Ġ204": 1385,
      "Ġgets": 1386,
      "Ġcomedy": 1387,
      "Ġ214": 1388,
      "Ġalways": 1389,
      "Ġput": 1390,
      "ody": 1391,
      "ime": 1392,
      "Ġhel": 1393,
      "Ġmain": 1394,
      "Ġtimes": 1395,
      "Ġsaw": 1396,
      "Ġ216": 1397,
      "ĠHow": 1398,
      "ĠThey": 1399,
      "Ġ179": 1400,
      "co": 1401,
      "Ġcome": 1402,
      "ife": 1403,
      "Ġchild": 1404,
      "Ġboth": 1405,
      "ĠYou": 1406,
      "Ġdiffer": 1407,
      "ully": 1408,
      "Ġ181": 1409,
      "Ġexpect": 1410,
      "Ġ225": 1411,
      "hn": 1412,
      "icul": 1413,
      "Ġhand": 1414,
      "Ġwithout": 1415,
      "Ġ197": 1416,
      "Ġdone": 1417,
      "Ġclass": 1418,
      "Ġminutes": 1419,
      "Ġread": 1420,
      "Ġcam": 1421,
      "Ġexpl": 1422,
      "ines": 1423,
      "uring": 1424,
      "Ġ200": 1425,
      "Ġide": 1426,
      "Ġworth": 1427,
      "Ġ190": 1428,
      "Ġ224": 1429,
      "Ġmight": 1430,
      "Ġcare": 1431,
      "ĠBr": 1432,
      "Ġalmost": 1433,
      "Ġcons": 1434,
      "als": 1435,
      "rible": 1436,
      "'ll": 1437,
      "Ġ217": 1438,
      "Ġ210": 1439,
      "arr": 1440,
      "Ġ222": 1441,
      "ouse": 1442,
      "Ġshot": 1443,
      "Ġlast": 1444,
      "Ġbeaut": 1445,
      "Ġ193": 1446,
      "Ġcomplete": 1447,
      "Ġ243": 1448,
      "son": 1449,
      "Ġ223": 1450,
      "Ġ226": 1451,
      "ĠBe": 1452,
      "Ġ212": 1453,
      "bably": 1454,
      "Ġbegin": 1455,
      "Ġsound": 1456,
      "stand": 1457,
      "ism": 1458,
      "ane": 1459,
      "Ġep": 1460,
      "Ġcinem": 1461,
      "Ġaud": 1462,
      "Ġperformance": 1463,
      "Ġac": 1464,
      "Ġ233": 1465,
      "ĠSh": 1466,
      "Ġext": 1467,
      "ros": 1468,
      "ĠTh": 1469,
      "Ġcour": 1470,
      "Ġcle": 1471,
      "Ġinst": 1472,
      "Ġanything": 1473,
      "Ġco": 1474,
      "Ġcar": 1475,
      "It": 1476,
      "uck": 1477,
      "Ġacc": 1478,
      "Ġ201": 1479,
      "though": 1480,
      "era": 1481,
      "Ġ228": 1482,
      "Ġ235": 1483,
      "Ġ219": 1484,
      "Ġentertain": 1485,
      "Ġsequ": 1486,
      "xt": 1487,
      "Ġbook": 1488,
      "Ġhelp": 1489,
      "Ġaway": 1490,
      "Ġ206": 1491,
      "Ġ232": 1492,
      "ative": 1493,
      "istic": 1494,
      "Ġfamily": 1495,
      "Ġ227": 1496,
      "Ġfound": 1497,
      "Ġel": 1498,
      "Ġ238": 1499,
      "wh": 1500,
      "\".": 1501,
      "ah": 1502,
      "oney": 1503,
      "ail": 1504,
      "Ġ191": 1505,
      "ott": 1506,
      "Ġwar": 1507,
      "ialog": 1508,
      "ont": 1509,
      "Ġcall": 1510,
      "ee": 1511,
      "aster": 1512,
      "ates": 1513,
      "tting": 1514,
      "pecially": 1515,
      "Ġrun": 1516,
      "ograp": 1517,
      "ĠWh": 1518,
      "ures": 1519,
      "vid": 1520,
      "ling": 1521,
      "Ġ237": 1522,
      "wood": 1523,
      "Ġ255": 1524,
      "ition": 1525,
      "mend": 1526,
      "Ġdialog": 1527,
      "Ġ248": 1528,
      "Ġprobably": 1529,
      "ĠTV": 1530,
      "Ġ207": 1531,
      "Ġwoman": 1532,
      "me": 1533,
      "ject": 1534,
      "atch": 1535,
      "Ġ244": 1536,
      "Ġsince": 1537,
      "Ġ245": 1538,
      "Ġ230": 1539,
      "Ġsure": 1540,
      "Ġart": 1541,
      "av": 1542,
      "Ġ265": 1543,
      "oint": 1544,
      "Ġreason": 1545,
      "Ġhappen": 1546,
      "Ġrather": 1547,
      "ER": 1548,
      "osed": 1549,
      "Ġ211": 1550,
      ".\"": 1551,
      "Ġ221": 1552,
      "Ġadd": 1553,
      "ingly": 1554,
      "Ġkeep": 1555,
      "ĠSo": 1556,
      "Ġdifferent": 1557,
      "ither": 1558,
      "Ġ229": 1559,
      "dd": 1560,
      "Ġ252": 1561,
      "VD": 1562,
      "Ġsurp": 1563,
      "Ġ412": 1564,
      "ok": 1565,
      "sh": 1566,
      "Ġlik": 1567,
      "Ġtrying": 1568,
      "Ġ416": 1569,
      "yp": 1570,
      "alf": 1571,
      "ower": 1572,
      "Ġworst": 1573,
      "apt": 1574,
      "olly": 1575,
      "Ġour": 1576,
      "ĠAn": 1577,
      "Ġpoor": 1578,
      "Ġ231": 1579,
      "Ġmaking": 1580,
      "Ġ220": 1581,
      "led": 1582,
      "ĠJohn": 1583,
      "Ġabs": 1584,
      "Ġdef": 1585,
      "Ġcourse": 1586,
      "Ġsense": 1587,
      "Ġbor": 1588,
      "Ġ275": 1589,
      "Ġbelieve": 1590,
      "Ġ249": 1591,
      "Ġmean": 1592,
      "Ġ246": 1593,
      "Ġdel": 1594,
      "Ġeach": 1595,
      "Ġ242": 1596,
      "atter": 1597,
      "blem": 1598,
      "Ġ254": 1599,
      "ĠDVD": 1600,
      "Ġ239": 1601,
      "ins": 1602,
      "Ġplace": 1603,
      "Ġ258": 1604,
      "Ġ410": 1605,
      "Ġ256": 1606,
      "Ġinc": 1607,
      "Ġanyone": 1608,
      "ics": 1609,
      "Ġcomes": 1610,
      "ember": 1611,
      "isod": 1612,
      "Ġ234": 1613,
      "Ġ419": 1614,
      "ray": 1615,
      "Ġcre": 1616,
      "ady": 1617,
      "Ġpol": 1618,
      "Ġending": 1619,
      "ope": 1620,
      "Ġmind": 1621,
      "att": 1622,
      "Ġyet": 1623,
      "Ġshows": 1624,
      "arent": 1625,
      "Ġspe": 1626,
      "ann": 1627,
      "Ġ259": 1628,
      "day": 1629,
      "ollow": 1630,
      "Ġ400": 1631,
      "Ġgoes": 1632,
      "Ġ187": 1633,
      "Ġpres": 1634,
      "Ġjob": 1635,
      "Ġ262": 1636,
      "Ġplayed": 1637,
      "Ġdep": 1638,
      "iter": 1639,
      "Ġ257": 1640,
      "empt": 1641,
      "Ġ241": 1642,
      "ĠThat": 1643,
      "Ġ274": 1644,
      "ality": 1645,
      "Ġ411": 1646,
      "Ġ266": 1647,
      "Ġvers": 1648,
      "Ġ236": 1649,
      "Ġproblem": 1650,
      "umb": 1651,
      "commend": 1652,
      "Ġbeautif": 1653,
      "pecial": 1654,
      "Ġless": 1655,
      "Ġ415": 1656,
      "'d": 1657,
      "ature": 1658,
      "Ġboy": 1659,
      "Ġconf": 1660,
      "ĠWhat": 1661,
      "Ġepisod": 1662,
      "ortun": 1663,
      "Ġ284": 1664,
      "Ġ240": 1665,
      "io": 1666,
      "Ġstr": 1667,
      "Ġstand": 1668,
      "Ġ273": 1669,
      "air": 1670,
      "ĠDe": 1671,
      "Ġ253": 1672,
      "Ġ283": 1673,
      "Ġrest": 1674,
      "Ġ418": 1675,
      "Ġday": 1676,
      "sc": 1677,
      "ied": 1678,
      "ney": 1679,
      "Ġ199": 1680,
      "Ġ285": 1681,
      "ilar": 1682,
      "Ġ264": 1683,
      "ream": 1684,
      "Ġ272": 1685,
      "land": 1686,
      "Ġperfect": 1687,
      "Ġmoney": 1688,
      "Ġcreat": 1689,
      "Ġplays": 1690,
      "Ġlooks": 1691,
      "Ġ209": 1692,
      "iece": 1693,
      "Ġeffects": 1694,
      "aps": 1695,
      "....": 1696,
      "ret": 1697,
      "Ġwasn": 1698,
      "ider": 1699,
      "Ġlooking": 1700,
      "Ġgl": 1701,
      "clud": 1702,
      "arn": 1703,
      "Ġ276": 1704,
      "sy": 1705,
      "Ġ413": 1706,
      "Ġ268": 1707,
      "Ġdram": 1708,
      "Ġport": 1709,
      "Ġactor": 1710,
      "gether": 1711,
      "Ġtogether": 1712,
      "Ġfan": 1713,
      "Ġ286": 1714,
      "Ġshort": 1715,
      "ph": 1716,
      "Ġ294": 1717,
      "way": 1718,
      "Ġ281": 1719,
      "Ġsuper": 1720,
      "Ġhead": 1721,
      "Ġ414": 1722,
      "ences": 1723,
      "Ġrecommend": 1724,
      "Ġcertain": 1725,
      "Ġhaving": 1726,
      "Ġwatched": 1727,
      "Ġsaid": 1728,
      "Ġmiss": 1729,
      "Ġ250": 1730,
      "Ġsecond": 1731,
      "Ġtakes": 1732,
      "rist": 1733,
      "Ġ278": 1734,
      "ĠAll": 1735,
      "ues": 1736,
      "Ġ292": 1737,
      "Ġ251": 1738,
      "Ġunderstand": 1739,
      "Ġhalf": 1740,
      "Ġsit": 1741,
      "ists": 1742,
      "Ġ247": 1743,
      "Ġaudience": 1744,
      "ross": 1745,
      "Ġ298": 1746,
      "Ġ269": 1747,
      "Ġfollow": 1748,
      "ĠNot": 1749,
      "ĠWe": 1750,
      "ollywood": 1751,
      "Ġelse": 1752,
      "llent": 1753,
      "cept": 1754,
      "not": 1755,
      "ĠTH": 1756,
      "Ġtalk": 1757,
      "ited": 1758,
      "Ġsomeone": 1759,
      "Ġfav": 1760,
      "Ġ295": 1761,
      "uff": 1762,
      "Ġ293": 1763,
      "Ġ277": 1764,
      "Ġ287": 1765,
      "Ġposs": 1766,
      "Ġ296": 1767,
      "Ġthree": 1768,
      "Ġ313": 1769,
      "ĠAmerican": 1770,
      "ired": 1771,
      "Ġreview": 1772,
      "Ġhimself": 1773,
      "ident": 1774,
      "udget": 1775,
      "atic": 1776,
      "Ġnight": 1777,
      "Ġmon": 1778,
      "Ġ306": 1779,
      "cing": 1780,
      "Ġind": 1781,
      "Ġ303": 1782,
      "Ġ289": 1783,
      "Ġespecially": 1784,
      "ames": 1785,
      "ply": 1786,
      "Ġfall": 1787,
      "Ġ282": 1788,
      "Ġspecial": 1789,
      "Ġed": 1790,
      "ix": 1791,
      "ĠBl": 1792,
      "Ġcomm": 1793,
      "like": 1794,
      "Ġ302": 1795,
      "Ġ279": 1796,
      "Ġnice": 1797,
      "Ġleft": 1798,
      "Ġ288": 1799,
      "Ġ270": 1800,
      "Ġ260": 1801,
      "Ġlet": 1802,
      "Ġtrue": 1803,
      "ox": 1804,
      "Ġdet": 1805,
      "ted": 1806,
      "Ġvis": 1807,
      "Ġidea": 1808,
      "ĠFor": 1809,
      "ional": 1810,
      "Ġ267": 1811,
      "Ġ280": 1812,
      "Ġsk": 1813,
      "Ġ261": 1814,
      "Ġrele": 1815,
      "Ġobvious": 1816,
      "Ġinvol": 1817,
      "ty": 1818,
      "Ġmur": 1819,
      "Ġentire": 1820,
      "Ġ271": 1821,
      "Ġimag": 1822,
      "ug": 1823,
      "Ġ417": 1824,
      "Ġcame": 1825,
      "Ġduring": 1826,
      "Ġph": 1827,
      "Ġ308": 1828,
      "Ġ299": 1829,
      "ĠRob": 1830,
      "ier": 1831,
      "Ġhour": 1832,
      "upid": 1833,
      "chool": 1834,
      "omb": 1835,
      "fully": 1836,
      "Ġwife": 1837,
      "Ġ325": 1838,
      "ork": 1839,
      "ting": 1840,
      "ĠMar": 1841,
      "Ġeverything": 1842,
      "Ġmen": 1843,
      "orn": 1844,
      "Ġdist": 1845,
      "Ġseeing": 1846,
      "Ġfight": 1847,
      "Ġ335": 1848,
      "Ġtot": 1849,
      "Ġmar": 1850,
      "Ġused": 1851,
      "Ġexcellent": 1852,
      "Ġey": 1853,
      "yle": 1854,
      "Ġeveryone": 1855,
      "Ġversion": 1856,
      "Ġ333": 1857,
      "Ġ312": 1858,
      "ĠCl": 1859,
      "appoint": 1860,
      "ĠUn": 1861,
      "Ġele": 1862,
      "Ġhome": 1863,
      "Ġattempt": 1864,
      "ĠRe": 1865,
      "Ġlater": 1866,
      "Ġonce": 1867,
      "ird": 1868,
      "ĠSe": 1869,
      "orm": 1870,
      "Ġsing": 1871,
      "Ġ309": 1872,
      "ten": 1873,
      "ery": 1874,
      "Ġtal": 1875,
      "ount": 1876,
      "ets": 1877,
      "Ġ304": 1878,
      "Ġbeautiful": 1879,
      "Ġ518": 1880,
      "Ġhist": 1881,
      "Ġcompletely": 1882,
      "Ġexper": 1883,
      "amp": 1884,
      "Ġ316": 1885,
      "Ġ315": 1886,
      "but": 1887,
      "Ġyear": 1888,
      "ove": 1889,
      "Ġlow": 1890,
      "Ġlack": 1891,
      "Ġass": 1892,
      "Ġunt": 1893,
      "Ġdeath": 1894,
      "ains": 1895,
      "Ġrep": 1896,
      "Ġsimply": 1897,
      "Ġexp": 1898,
      "Ġ514": 1899,
      "Ġuse": 1900,
      "Ġfather": 1901,
      "Ġmem": 1902,
      "Ġ300": 1903,
      "Ġstupid": 1904,
      "ared": 1905,
      "Ġdisappoint": 1906,
      "gr": 1907,
      "Ġ500": 1908,
      "ĠSc": 1909,
      "hip": 1910,
      "Ġgener": 1911,
      "olute": 1912,
      "Ġcop": 1913,
      "ract": 1914,
      "Ġtop": 1915,
      "aring": 1916,
      "my": 1917,
      "Ġ513": 1918,
      "Ġge": 1919,
      "Ġret": 1920,
      "Ã©": 1921,
      "Ġ291": 1922,
      "Ġhuman": 1923,
      "ĠSp": 1924,
      "Ġ352": 1925,
      "cess": 1926,
      "Ġcouple": 1927,
      "Ġopen": 1928,
      "Ġ326": 1929,
      "Ġ314": 1930,
      "cer": 1931,
      "Ġsus": 1932,
      "Ġ297": 1933,
      "Ġserious": 1934,
      "Ġword": 1935,
      "Ġperformances": 1936,
      "fic": 1937,
      "Ġinclud": 1938,
      "Ġ328": 1939,
      "ĠHollywood": 1940,
      "Ġbeh": 1941,
      "ities": 1942,
      "Ġdefin": 1943,
      "Ġ334": 1944,
      "Ġwrong": 1945,
      "In": 1946,
      "Ġstud": 1947,
      "Ġcra": 1948,
      "Ġ322": 1949,
      "Ġalong": 1950,
      "ĠWhen": 1951,
      "Ġpict": 1952,
      "Ġ327": 1953,
      "Ġtry": 1954,
      "Ġsy": 1955,
      "ax": 1956,
      "vin": 1957,
      "Ġgra": 1958,
      "Ġboring": 1959,
      "Ġmess": 1960,
      "Ġ--": 1961,
      "Ġ339": 1962,
      "Ġremember": 1963,
      "Ġline": 1964,
      "Ġsupposed": 1965,
      "med": 1966,
      "play": 1967,
      "Ġ365": 1968,
      "ĠAr": 1969,
      "Ġcamera": 1970,
      "Ġheart": 1971,
      "uth": 1972,
      "Ġviol": 1973,
      "Ġ510": 1974,
      "itten": 1975,
      "Ġ366": 1976,
      "ography": 1977,
      "Ġ318": 1978,
      "Ġeas": 1979,
      "Ġloc": 1980,
      "iness": 1981,
      "Ġ516": 1982,
      "Ġanim": 1983,
      "Ġemot": 1984,
      "reak": 1985,
      "Ġwomen": 1986,
      "Ġ319": 1987,
      "Ġfriends": 1988,
      "Ġ348": 1989,
      "Ġeither": 1990,
      "Ġcount": 1991,
      "Ġ346": 1992,
      "Ġhope": 1993,
      "Ġsmall": 1994,
      "Ġ345": 1995,
      "Ġ330": 1996,
      "Ġ263": 1997,
      "Ġ336": 1998,
      "haps": 1999,
      "Ġ343": 2000,
      "Ġvide": 2001,
      "Ġhero": 2002,
      "Ġ342": 2003,
      "Ġ344": 2004,
      "Ġkids": 2005,
      "uly": 2006,
      "Ġblack": 2007,
      "Ġabsolute": 2008,
      "ĠHowever": 2009,
      "ote": 2010,
      "Ġ383": 2011,
      "Ġsurpris": 2012,
      "Ġsong": 2013,
      "elt": 2014,
      "Ġ317": 2015,
      "011": 2016,
      "ike": 2017,
      "Ġdra": 2018,
      "ĠZ": 2019,
      "Ġuntil": 2020,
      "Ġhumor": 2021,
      "Ġstar": 2022,
      "Ġ362": 2023,
      "que": 2024,
      "Ġ340": 2025,
      "ger": 2026,
      "ize": 2027,
      "Ġpass": 2028,
      "Ġ354": 2029,
      "Ġ515": 2030,
      "Ġ349": 2031,
      "velop": 2032,
      "Ġ324": 2033,
      "Ġgiven": 2034,
      "vis": 2035,
      "cy": 2036,
      "ank": 2037,
      "sel": 2038,
      "Ġflick": 2039,
      "oon": 2040,
      "Ġ355": 2041,
      "ĠOne": 2042,
      "oice": 2043,
      "Ġmoments": 2044,
      "itely": 2045,
      "Ġ321": 2046,
      "Ġschool": 2047,
      "Ġbudget": 2048,
      "Ġproduction": 2049,
      "Ġlight": 2050,
      "fortun": 2051,
      "ently": 2052,
      "Ġ359": 2053,
      "Ġhouse": 2054,
      "Ġ290": 2055,
      "olog": 2056,
      "aj": 2057,
      "Ġ311": 2058,
      "Ġsad": 2059,
      "Ġ358": 2060,
      "tern": 2061,
      "Ġ329": 2062,
      "Ġrom": 2063,
      "Ġ353": 2064,
      "Ġitself": 2065,
      "Ġmother": 2066,
      "Ġname": 2067,
      "Ġ347": 2068,
      "ĠMy": 2069,
      "Ġ351": 2070,
      "enn": 2071,
      "Ġsort": 2072,
      "Ġclassic": 2073,
      "Ġgetting": 2074,
      "Ġtruly": 2075,
      "Ġfull": 2076,
      "Ġmurder": 2077,
      "iant": 2078,
      "Ġinstead": 2079,
      "ility": 2080,
      "Ġexam": 2081,
      "Ġ517": 2082,
      "Ġwon": 2083,
      "ows": 2084,
      "Ġcred": 2085,
      "ĠNo": 2086,
      "Ġ519": 2087,
      "Ġ374": 2088,
      "Ġ357": 2089,
      "Ġ376": 2090,
      "Ġ307": 2091,
      "Ġparticul": 2092,
      "Ġfavor": 2093,
      "Ġportray": 2094,
      "Ġ332": 2095,
      "IN": 2096,
      ",\"": 2097,
      "Ġ511": 2098,
      "gu": 2099,
      "Ġ305": 2100,
      "Ġ364": 2101,
      "Ġnext": 2102,
      "idd": 2103,
      "ton": 2104,
      "Ġ337": 2105,
      "Ġsever": 2106,
      "ric": 2107,
      "Ġ356": 2108,
      "Ġ363": 2109,
      "Ġ361": 2110,
      "ps": 2111,
      "Ġbas": 2112,
      "010": 2113,
      "Ġ372": 2114,
      "Ġple": 2115,
      "ized": 2116,
      "Ġexc": 2117,
      "vent": 2118,
      "illy": 2119,
      "Ġdead": 2120,
      "itch": 2121,
      "Ġpain": 2122,
      "ories": 2123,
      "Ġ373": 2124,
      "Ġamaz": 2125,
      "Ġgives": 2126,
      "Ġ394": 2127,
      "Ġface": 2128,
      "Ġawful": 2129,
      "ĠLe": 2130,
      "Ġdri": 2131,
      "Ġdoing": 2132,
      "Ġreg": 2133,
      "Ġcoll": 2134,
      "aughter": 2135,
      "Ġ388": 2136,
      "Ġpower": 2137,
      "Ġ350": 2138,
      "Ġ385": 2139,
      "Ġ378": 2140,
      "Ġexcept": 2141,
      "Ġ380": 2142,
      "ĠChrist": 2143,
      "Ġconsider": 2144,
      "Ġterrible": 2145,
      "Ġwa": 2146,
      "ĠÂ": 2147,
      "Ġ368": 2148,
      "cu": 2149,
      "Ġ375": 2150,
      "Ġothers": 2151,
      "Ġ606": 2152,
      "ister": 2153,
      "Ġdialogue": 2154,
      "Ġ608": 2155,
      "ides": 2156,
      "Ġplaying": 2157,
      "Ġ382": 2158,
      "imes": 2159,
      "Ġ609": 2160,
      "Ġlines": 2161,
      "reme": 2162,
      "Ġtalent": 2163,
      "Ġ405": 2164,
      "Ġ512": 2165,
      "Ġwent": 2166,
      "ĠAt": 2167,
      "ĠWill": 2168,
      "ined": 2169,
      "Ġ603": 2170,
      "right": 2171,
      "Ġ323": 2172,
      "oid": 2173,
      "Ġ367": 2174,
      "ĠHar": 2175,
      "Ġguess": 2176,
      "Ġ386": 2177,
      "Ġfr": 2178,
      "Ġtitle": 2179,
      "Ġhowever": 2180,
      "Ġ612": 2181,
      "Ġentertaining": 2182,
      "Ġoften": 2183,
      "If": 2184,
      "Ġwonderful": 2185,
      "ony": 2186,
      "Ġdevelop": 2187,
      "ĠCar": 2188,
      "Ġ393": 2189,
      "ming": 2190,
      "Ġcouldn": 2191,
      "ĠMan": 2192,
      "Ġbecome": 2193,
      "Ġ384": 2194,
      "ler": 2195,
      "Ġ602": 2196,
      "Ġ387": 2197,
      "Ġ613": 2198,
      "Ġ320": 2199,
      "ibly": 2200,
      "Ġ395": 2201,
      "Ġvideo": 2202,
      "Ġ605": 2203,
      "ange": 2204,
      "Ġslow": 2205,
      "ĠTHE": 2206,
      "Ġcor": 2207,
      "Ġ403": 2208,
      "Ġquest": 2209,
      "ĠMr": 2210,
      "Ġrid": 2211,
      "Ġann": 2212,
      "Ġlive": 2213,
      "Ġcut": 2214,
      "Ġ369": 2215,
      "Ġliked": 2216,
      "ley": 2217,
      "Ġ618": 2218,
      "Ġearly": 2219,
      "cial": 2220,
      "Ġ616": 2221,
      "Ġ423": 2222,
      "Ġform": 2223,
      "Ġcase": 2224,
      "Ġepisode": 2225,
      "ude": 2226,
      "Ġstop": 2227,
      "ĠOn": 2228,
      "Ġ389": 2229,
      "Ġpiece": 2230,
      "Ġbrill": 2231,
      "Ġmatter": 2232,
      "Ġ409": 2233,
      "Ġ615": 2234,
      "Ġpop": 2235,
      "Ġmaybe": 2236,
      "Ġstyle": 2237,
      "Ġimpress": 2238,
      "ĠNew": 2239,
      "Ġ445": 2240,
      "Ġ610": 2241,
      "mentary": 2242,
      "line": 2243,
      "ored": 2244,
      "used": 2245,
      "Ġstars": 2246,
      "Ġmention": 2247,
      "Ġrelations": 2248,
      "Ġdark": 2249,
      "Ġactress": 2250,
      "yn": 2251,
      "ular": 2252,
      "Ġ371": 2253,
      "008": 2254,
      "unk": 2255,
      "Ġ360": 2256,
      "Ġ432": 2257,
      "ĠDon": 2258,
      "Ġ377": 2259,
      "Ġ604": 2260,
      "Ġ404": 2261,
      "body": 2262,
      "Ġchildren": 2263,
      "Ġstrong": 2264,
      "Ġ.": 2265,
      "Ġdeli": 2266,
      "There": 2267,
      "Ġmis": 2268,
      "ccess": 2269,
      "Ġ331": 2270,
      "Ġfelt": 2271,
      "Ġ398": 2272,
      "Ġ676": 2273,
      "Ġ397": 2274,
      "ĠJack": 2275,
      "Ġ617": 2276,
      "ĠWell": 2277,
      "Ġ421": 2278,
      "ype": 2279,
      "Ġ433": 2280,
      "pite": 2281,
      "selves": 2282,
      "atur": 2283,
      "Ġagainst": 2284,
      "Ġdefinitely": 2285,
      "unch": 2286,
      "Ġ392": 2287,
      "Ġ448": 2288,
      "Ġside": 2289,
      "Ġguys": 2290,
      "lish": 2291,
      "Ġ431": 2292,
      "Ġ453": 2293,
      "Ġbeginning": 2294,
      "Ġrent": 2295,
      "Ġ338": 2296,
      "Ġ425": 2297,
      "Ġ424": 2298,
      "Ġtrans": 2299,
      "Ġ399": 2300,
      "uss": 2301,
      "Ġz": 2302,
      "Ġpicture": 2303,
      "Ġworse": 2304,
      "ĠMc": 2305,
      "Ġ430": 2306,
      "Ġ436": 2307,
      "Ġ696": 2308,
      "Ġ310": 2309,
      "Ġcertainly": 2310,
      "Ġwaste": 2311,
      "iam": 2312,
      "Ġabsolutely": 2313,
      "off": 2314,
      "Ġseemed": 2315,
      "ific": 2316,
      "Ġca": 2317,
      "Ġpast": 2318,
      "Ġ391": 2319,
      "Ġextreme": 2320,
      "Ġ406": 2321,
      "Ġsw": 2322,
      "Ġ379": 2323,
      "els": 2324,
      "Ġseveral": 2325,
      "ready": 2326,
      "ron": 2327,
      "Ġpar": 2328,
      "Ġ428": 2329,
      "ung": 2330,
      "aken": 2331,
      "Ġ301": 2332,
      "ts": 2333,
      "Ġclose": 2334,
      "Ġdirection": 2335,
      "Ġ673": 2336,
      "fortunately": 2337,
      "Ġwritten": 2338,
      "Ġrelationship": 2339,
      "Ġ619": 2340,
      "Ġlives": 2341,
      "Ġthrill": 2342,
      "Ġ468": 2343,
      "Ġ614": 2344,
      "ĠHis": 2345,
      "Ġ455": 2346,
      "Ġblood": 2347,
      "Ġ422": 2348,
      "Ġ443": 2349,
      "by": 2350,
      "Ġgrou": 2351,
      "ael": 2352,
      "Ġbecomes": 2353,
      "Ġdrama": 2354,
      "Ġfans": 2355,
      "rew": 2356,
      "ĠDa": 2357,
      "Ġ426": 2358,
      "Ġwanted": 2359,
      "Ġ454": 2360,
      "Ġ462": 2361,
      "Ġ396": 2362,
      "Ġbrilliant": 2363,
      "Ġ600": 2364,
      "Ġ672": 2365,
      "ages": 2366,
      "vable": 2367,
      "Ġfant": 2368,
      "Ġsomew": 2369,
      "Ġmaster": 2370,
      "Ġsuccess": 2371,
      "ried": 2372,
      "Ġgame": 2373,
      "Ġtotally": 2374,
      "Ġ611": 2375,
      "Ġadm": 2376,
      "Ġable": 2377,
      "Ġalready": 2378,
      "che": 2379,
      "Ġsusp": 2380,
      "ĠSte": 2381,
      "ik": 2382,
      "ĠEven": 2383,
      "Ġ427": 2384,
      "Ġcinema": 2385,
      "Ġ440": 2386,
      "Ġ678": 2387,
      "Ġ407": 2388,
      "ĠEng": 2389,
      "Ġvill": 2390,
      "Ġ401": 2391,
      "Ġ692": 2392,
      "Ġbrother": 2393,
      "osp": 2394,
      "Ġtown": 2395,
      "Ġ341": 2396,
      "Ġ465": 2397,
      "Ġloved": 2398,
      "ĠFran": 2399,
      "Ġself": 2400,
      "Ġdou": 2401,
      "Ġref": 2402,
      "Ġ483": 2403,
      "Ġ438": 2404,
      "Ġ693": 2405,
      "Ġsupport": 2406,
      "Ġtou": 2407,
      "ches": 2408,
      "Ġ706": 2409,
      "Ġet": 2410,
      "Ġ439": 2411,
      "to": 2412,
      "Ġalthough": 2413,
      "Ġfine": 2414,
      "Ġ466": 2415,
      "rop": 2416,
      "Ġson": 2417,
      "sych": 2418,
      ").<": 2419,
      "Ġ694": 2420,
      "Ġ402": 2421,
      "Ġ442": 2422,
      "Ġcalled": 2423,
      "Ġ444": 2424,
      "Ġ712": 2425,
      "Ġpur": 2426,
      "Ġ710": 2427,
      "Ġcent": 2428,
      "!<": 2429,
      "Ġ478": 2430,
      "Ġbased": 2431,
      "ĠChar": 2432,
      "ene": 2433,
      "ĠSome": 2434,
      "Ġocc": 2435,
      "Ġwants": 2436,
      "oke": 2437,
      "Ġ702": 2438,
      "Ġ437": 2439,
      "Ġ446": 2440,
      "Ġstuff": 2441,
      "Ġ447": 2442,
      "Ġ675": 2443,
      "Ġlost": 2444,
      "Ġ449": 2445,
      "Ġ467": 2446,
      "chn": 2447,
      "Ġ450": 2448,
      "Ġ390": 2449,
      "Ġtries": 2450,
      "ms": 2451,
      "range": 2452,
      "Ġexample": 2453,
      "Ġ703": 2454,
      "Ġimport": 2455,
      "Ġdaughter": 2456,
      "Ġ679": 2457,
      "Ġ472": 2458,
      "Ġgenre": 2459,
      "Ġfail": 2460,
      "Ġ698": 2461,
      "Ġ474": 2462,
      "Ġquality": 2463,
      "Ġthroughout": 2464,
      "Ġeff": 2465,
      "Ġdeal": 2466,
      "ichael": 2467,
      "fl": 2468,
      "Ġpresent": 2469,
      "Ġ457": 2470,
      "Ġmor": 2471,
      "Ġ381": 2472,
      "Ġhistory": 2473,
      "ĠÂĸ": 2474,
      "Ġ716": 2475,
      "Ġ796": 2476,
      "ination": 2477,
      "rib": 2478,
      "Ġannoy": 2479,
      "Ġwalk": 2480,
      "orge": 2481,
      "using": 2482,
      "Ġ495": 2483,
      "Ġ460": 2484,
      "Ġdeser": 2485,
      "Ġsitu": 2486,
      "iet": 2487,
      "Ġav": 2488,
      "Ġval": 2489,
      "Ġcapt": 2490,
      "urb": 2491,
      "Ġ705": 2492,
      "Ġ475": 2493,
      "erman": 2494,
      "Ġteen": 2495,
      "Ġviewer": 2496,
      "Ġcult": 2497,
      "Ġstra": 2498,
      "Ġsat": 2499,
      "rodu": 2500,
      "itive": 2501,
      "Ġ477": 2502,
      "Ġthemselves": 2503,
      "Ġpred": 2504,
      "Ġ488": 2505,
      "Ġhon": 2506,
      "??": 2507,
      "Ġ473": 2508,
      "band": 2509,
      "Ġappear": 2510,
      "con": 2511,
      "Ġdocu": 2512,
      "Ġenjoyed": 2513,
      "amed": 2514,
      "Ġ490": 2515,
      "ished": 2516,
      "Ġ486": 2517,
      "Ġ456": 2518,
      "Ġfair": 2519,
      "Ġstarts": 2520,
      "Ġgroup": 2521,
      "Ġ695": 2522,
      "Ġbra": 2523,
      "Ġdem": 2524,
      "Ġfinal": 2525,
      "ey": 2526,
      "Ġnum": 2527,
      "Ġwriting": 2528,
      "ient": 2529,
      "ĠTo": 2530,
      "Ġworks": 2531,
      "Ġ718": 2532,
      "tic": 2533,
      "Ġ458": 2534,
      "ĠIs": 2535,
      "ump": 2536,
      "Ġparts": 2537,
      "ĠAfter": 2538,
      "Ġmyster": 2539,
      "Ġturns": 2540,
      "Ġmag": 2541,
      "Ġlist": 2542,
      "Ġfem": 2543,
      "Ġ452": 2544,
      "ards": 2545,
      "ered": 2546,
      "Ġ476": 2547,
      "Ġtoday": 2548,
      "ured": 2549,
      "Ġ779": 2550,
      "Ġ700": 2551,
      "Ġlearn": 2552,
      "Ġgave": 2553,
      "Ġ709": 2554,
      "Ġ408": 2555,
      "Ġdr": 2556,
      "Ġkilled": 2557,
      "Ġmed": 2558,
      "Ġ420": 2559,
      "uc": 2560,
      "Ġ451": 2561,
      "Ġetc": 2562,
      "Ġ793": 2563,
      "Ġnovel": 2564,
      "Ġ484": 2565,
      "OT": 2566,
      "Ġhorrible": 2567,
      "ats": 2568,
      "Ġ775": 2569,
      "Ġ493": 2570,
      "Ġlevel": 2571,
      "Ġ435": 2572,
      "ese": 2573,
      "Ġ543": 2574,
      "Ġ674": 2575,
      "Ġexact": 2576,
      "Ġcontin": 2577,
      "Ġtyp": 2578,
      "Ġ713": 2579,
      "ator": 2580,
      "Ġ773": 2581,
      "arth": 2582,
      "Ġdays": 2583,
      "Ġpat": 2584,
      "Ġ469": 2585,
      "ering": 2586,
      "Ġ,": 2587,
      "Ġcol": 2588,
      "Ġ470": 2589,
      "ĠQ": 2590,
      "akers": 2591,
      "Ġkiller": 2592,
      "ajor": 2593,
      "Ġ704": 2594,
      "ek": 2595,
      "Ġshoot": 2596,
      "ĠRobert": 2597,
      "Ġ479": 2598,
      "Ġprom": 2599,
      "Ġhilar": 2600,
      "Ġmoment": 2601,
      "Ġ497": 2602,
      "Ġlea": 2603,
      "Ġfinally": 2604,
      "eth": 2605,
      "Ġfavorite": 2606,
      "Ġ461": 2607,
      "Ġ507": 2608,
      "usband": 2609,
      "Ġ496": 2610,
      "As": 2611,
      "Ġopp": 2612,
      "Ġ715": 2613,
      "Ġdecent": 2614,
      "owing": 2615,
      "Ġ489": 2616,
      "oil": 2617,
      "iculous": 2618,
      "Ġbus": 2619,
      "na": 2620,
      "ĠThen": 2621,
      "antly": 2622,
      "Ġbehind": 2623,
      "Ġmyself": 2624,
      "Ġcrit": 2625,
      "Ġ481": 2626,
      "Ġ776": 2627,
      "Ġamazing": 2628,
      "ĠWith": 2629,
      "astic": 2630,
      "Ġir": 2631,
      "ĠInd": 2632,
      "Ġdeep": 2633,
      "ovie": 2634,
      "Ġ503": 2635,
      "Ġeffort": 2636,
      "Ġsn": 2637,
      "Ġ806": 2638,
      "Ġlate": 2639,
      "Ġ717": 2640,
      "Ġask": 2641,
      "Ġthinking": 2642,
      "cut": 2643,
      "ĠAlso": 2644,
      "Ġfig": 2645,
      "sp": 2646,
      "Ġsays": 2647,
      "Ġcost": 2648,
      "Ġ815": 2649,
      "arb": 2650,
      "Ġfoot": 2651,
      "urt": 2652,
      "ots": 2653,
      "Ġ523": 2654,
      "iled": 2655,
      "Ġpick": 2656,
      "Ġ494": 2657,
      "gs": 2658,
      "Ġ459": 2659,
      "Ġmot": 2660,
      "Ġ816": 2661,
      "Ġtype": 2662,
      "ĠHer": 2663,
      "Ġ505": 2664,
      "Ġevil": 2665,
      "ma": 2666,
      "Ġ471": 2667,
      "Ġ498": 2668,
      "okes": 2669,
      "Ġ792": 2670,
      "Ġtook": 2671,
      "Ġ491": 2672,
      "Ġhappens": 2673,
      "bl": 2674,
      "Ġfore": 2675,
      "Ġprof": 2676,
      "dy": 2677,
      "Ġ805": 2678,
      "Ġ708": 2679,
      "Ġ795": 2680,
      "Ġexperience": 2681,
      "Ġ772": 2682,
      "Ġconst": 2683,
      "Ġ798": 2684,
      "tra": 2685,
      "Ġeyes": 2686,
      "over": 2687,
      "Ġheard": 2688,
      "Ġdesc": 2689,
      "Ġ480": 2690,
      "Ġ714": 2691,
      "AN": 2692,
      "Ġ812": 2693,
      "Ġperhaps": 2694,
      "Ġ535": 2695,
      "ĠBrit": 2696,
      "Ġhilarious": 2697,
      "Ġintell": 2698,
      "Ġ521": 2699,
      "Ġsoon": 2700,
      "Ġincred": 2701,
      "ians": 2702,
      "Ġ520": 2703,
      "Ġ823": 2704,
      "Ġchang": 2705,
      "Ġ502": 2706,
      "Ġpsych": 2707,
      "Ġ525": 2708,
      "Ġhold": 2709,
      "ield": 2710,
      "Ġviolence": 2711,
      "Ġ527": 2712,
      "Ġ778": 2713,
      "ĠGe": 2714,
      "Ġfeeling": 2715,
      "antic": 2716,
      "Ġ487": 2717,
      "Ġroles": 2718,
      "side": 2719,
      "rit": 2720,
      "Ġhusband": 2721,
      "rie": 2722,
      "Ġstru": 2723,
      "uge": 2724,
      "Ġnon": 2725,
      "Ġ814": 2726,
      "ĠWar": 2727,
      "Ġ506": 2728,
      "aced": 2729,
      "Ġ810": 2730,
      "any": 2731,
      "Ġhappened": 2732,
      "Ġstories": 2733,
      "ĠOf": 2734,
      "Ġinvolved": 2735,
      "Ġvoice": 2736,
      "Ġridiculous": 2737,
      "Ġ544": 2738,
      "Ġresult": 2739,
      "Ġdirected": 2740,
      "ones": 2741,
      "Ġroom": 2742,
      "rench": 2743,
      "Ġ464": 2744,
      "Ġmajor": 2745,
      "Ġsol": 2746,
      "aces": 2747,
      "What": 2748,
      "ĠWhy": 2749,
      "how": 2750,
      "ives": 2751,
      "Ġlooked": 2752,
      "Ġextremely": 2753,
      "zy": 2754,
      "Ġ873": 2755,
      "pped": 2756,
      "wards": 2757,
      "Ġ531": 2758,
      "Ġ529": 2759,
      "Ġ509": 2760,
      "Ġ802": 2761,
      "Ġsle": 2762,
      "Ġ800": 2763,
      "ĠMichael": 2764,
      "Ġcinemat": 2765,
      "Ġ499": 2766,
      ".)": 2767,
      "Ġste": 2768,
      "ters": 2769,
      "Ġgirls": 2770,
      "Ġ804": 2771,
      "Ġ555": 2772,
      "Ġscore": 2773,
      "Ġopin": 2774,
      "AT": 2775,
      "head": 2776,
      "Ġ864": 2777,
      "Ġgun": 2778,
      "Ġ863": 2779,
      "Ġcheap": 2780,
      "ien": 2781,
      "Ġ826": 2782,
      "vol": 2783,
      "ĠEd": 2784,
      "Ġ563": 2785,
      "Ġ538": 2786,
      "Ġdisco": 2787,
      "Ġ825": 2788,
      "Ġ522": 2789,
      "ĠWhile": 2790,
      "ique": 2791,
      "Ġ811": 2792,
      "Ġ526": 2793,
      "Ġtele": 2794,
      "ĠGod": 2795,
      "Ġleave": 2796,
      "Ġcool": 2797,
      "Ġtaken": 2798,
      "cent": 2799,
      "Ġwouldn": 2800,
      "Ġtold": 2801,
      "Ġ541": 2802,
      "ĠPl": 2803,
      "Ġ501": 2804,
      "ST": 2805,
      "rison": 2806,
      "ĠMay": 2807,
      "IL": 2808,
      "Ġ719": 2809,
      "Ġ794": 2810,
      "Ġ809": 2811,
      "Ġ547": 2812,
      "Ġbreak": 2813,
      "Ġ818": 2814,
      "And": 2815,
      "Ġcoming": 2816,
      "Ġorder": 2817,
      "ina": 2818,
      "Ġ532": 2819,
      "Ġquick": 2820,
      "Ġ819": 2821,
      "eng": 2822,
      "Ġ579": 2823,
      "Ġ576": 2824,
      "Ġbring": 2825,
      "Ġchance": 2826,
      "ov": 2827,
      "aged": 2828,
      "Ġpredict": 2829,
      "Ġ542": 2830,
      "Ġ556": 2831,
      "Ġ585": 2832,
      "iddle": 2833,
      "Ġstre": 2834,
      "Ġshock": 2835,
      "ON": 2836,
      "bel": 2837,
      "aul": 2838,
      "Ġhit": 2839,
      "Ġreturn": 2840,
      "ĠDan": 2841,
      "Ġago": 2842,
      "Ġcannot": 2843,
      "Ġ536": 2844,
      "Ġknown": 2845,
      "lin": 2846,
      "Ġ560": 2847,
      "ĠKe": 2848,
      "Ġmove": 2849,
      "Ġwhite": 2850,
      "ational": 2851,
      "Ġ572": 2852,
      "Ġweak": 2853,
      "Ġcareer": 2854,
      "mp": 2855,
      "ided": 2856,
      "ys": 2857,
      "Ġswe": 2858,
      "Ġdream": 2859,
      "Ġ573": 2860,
      "Ġ623": 2861,
      "gan": 2862,
      "But": 2863,
      "Ġacross": 2864,
      "Ġ824": 2865,
      "Ġcrap": 2866,
      "Ġstay": 2867,
      "Ġsimple": 2868,
      "ĠCon": 2869,
      "Ġ874": 2870,
      "Ġbo": 2871,
      "Ġ482": 2872,
      "Ġ574": 2873,
      "Ġ557": 2874,
      "Ġ808": 2875,
      "ury": 2876,
      "Ġ463": 2877,
      "Ġvar": 2878,
      "Ġcomed": 2879,
      "Ġ817": 2880,
      "Ġ429": 2881,
      "Ġ559": 2882,
      "ances": 2883,
      "Ġ566": 2884,
      "Ġ561": 2885,
      "Ġtechn": 2886,
      "ground": 2887,
      "Ġpolit": 2888,
      "Ġ711": 2889,
      "ili": 2890,
      "Ġ553": 2891,
      "real": 2892,
      "Ġwin": 2893,
      "Ġ577": 2894,
      "Ġ879": 2895,
      "ole": 2896,
      "Ġ540": 2897,
      "Ġcountry": 2898,
      "cks": 2899,
      "OR": 2900,
      "Ġ534": 2901,
      "lic": 2902,
      "Ġ564": 2903,
      "Ġ441": 2904,
      "Ġ875": 2905,
      "ĠOr": 2906,
      "Ġ892": 2907,
      "Ġbuild": 2908,
      "ends": 2909,
      "Ġfut": 2910,
      "Ġ539": 2911,
      "ĠEvery": 2912,
      "Ġ868": 2913,
      "Ġobviously": 2914,
      "Ġ551": 2915,
      "Ġevent": 2916,
      "Ġ586": 2917,
      "Ġstrange": 2918,
      "arch": 2919,
      "Ġshown": 2920,
      "Ġpri": 2921,
      "Ġ569": 2922,
      "anger": 2923,
      "Ġhours": 2924,
      "Ġ582": 2925,
      "ĠNow": 2926,
      "ential": 2927,
      "ĠGr": 2928,
      "Ġfeature": 2929,
      "Ġ568": 2930,
      "aid": 2931,
      "Ġpos": 2932,
      "ean": 2933,
      "Ġparent": 2934,
      "Ġ583": 2935,
      "Ġfour": 2936,
      "outh": 2937,
      "Ġ581": 2938,
      "ky": 2939,
      "Ġ545": 2940,
      "Ġannoying": 2941,
      "Ġexactly": 2942,
      "ĠDavid": 2943,
      "Ġ558": 2944,
      "!!!": 2945,
      "Ġ580": 2946,
      "iction": 2947,
      "back": 2948,
      "read": 2949,
      "Ġpay": 2950,
      "AR": 2951,
      "Ġ594": 2952,
      "aim": 2953,
      "wise": 2954,
      "itting": 2955,
      "vision": 2956,
      "Ġ813": 2957,
      "enty": 2958,
      "rid": 2959,
      "...<": 2960,
      "Ġsimilar": 2961,
      "Ġfeat": 2962,
      "ĠEnglish": 2963,
      "Ġlar": 2964,
      "Ġapparent": 2965,
      "Ġ562": 2966,
      "ĠTom": 2967,
      "Ġfoc": 2968,
      "Ġhighly": 2969,
      "unt": 2970,
      "Ġ549": 2971,
      "Ġ434": 2972,
      "ĠJust": 2973,
      "Ġ878": 2974,
      "Ġ552": 2975,
      "Ġends": 2976,
      "ald": 2977,
      "Ġ370": 2978,
      "Ġ865": 2979,
      "Ġ872": 2980,
      "Ġ492": 2981,
      "Ġ589": 2982,
      "hetic": 2983,
      "Ġwriter": 2984,
      "Ġpolice": 2985,
      "estern": 2986,
      "Ġimportant": 2987,
      "Ġ533": 2988,
      "Ġprem": 2989,
      "Ġsubject": 2990,
      "go": 2991,
      "Ġgore": 2992,
      "oud": 2993,
      "Ġhuge": 2994,
      "Ġphot": 2995,
      "Ġ917": 2996,
      "Ġ893": 2997,
      "Ġsuspense": 2998,
      "Ġ592": 2999,
      "Ġpull": 3000,
      "Ġopinion": 3001,
      "Ġang": 3002,
      "Ġhonest": 3003,
      "Ġ903": 3004,
      "ĠPet": 3005,
      "Ġ876": 3006,
      "Ġ565": 3007,
      "Ġtreat": 3008,
      "Ġ587": 3009,
      "Ġsaying": 3010,
      "Ġopening": 3011,
      "oof": 3012,
      "ended": 3013,
      "Ġyourself": 3014,
      "Ġ898": 3015,
      "Ġfinds": 3016,
      "Ġ645": 3017,
      "ichÃ©": 3018,
      "Ġbody": 3019,
      "ained": 3020,
      "Ġdoub": 3021,
      "Ġgang": 3022,
      "Ġfemale": 3023,
      "Ġstraight": 3024,
      "Ġpossible": 3025,
      "Ġdev": 3026,
      "Ġsave": 3027,
      "Ġhot": 3028,
      "Ġ595": 3029,
      "Ġprot": 3030,
      "Ġ909": 3031,
      "Ġreality": 3032,
      "Ġdocumentary": 3033,
      "Ġparticularly": 3034,
      "****": 3035,
      "Ġstarted": 3036,
      "Ġdest": 3037,
      "Ġnumber": 3038,
      "Ġ639": 3039,
      "Ġdisappointed": 3040,
      "Ġsomewhat": 3041,
      "Ġsometimes": 3042,
      "Ġjokes": 3043,
      "Ġreleased": 3044,
      "Ġ508": 3045,
      "Ġfilmm": 3046,
      "Ġattention": 3047,
      "rise": 3048,
      "Ġill": 3049,
      "Ġage": 3050,
      "Ġ646": 3051,
      "ral": 3052,
      "oun": 3053,
      "Ġchange": 3054,
      "ush": 3055,
      "oul": 3056,
      "Ġnear": 3057,
      "Ġ699": 3058,
      "Ġ625": 3059,
      "Ġwhose": 3060,
      "ised": 3061,
      "Ġturned": 3062,
      "ned": 3063,
      "Ġusual": 3064,
      "Ġmoder": 3065,
      "Ġ634": 3066,
      "Ġliving": 3067,
      "ĠJames": 3068,
      "Ġ550": 3069,
      "Ġ895": 3070,
      "Ġ588": 3071,
      "Ġsuff": 3072,
      "ants": 3073,
      "ball": 3074,
      "ety": 3075,
      "form": 3076,
      "Ġrunning": 3077,
      "ino": 3078,
      "Ġ570": 3079,
      "ctor": 3080,
      "tte": 3081,
      "Ġsilly": 3082,
      "Ġsingle": 3083,
      "Ġ638": 3084,
      "Ġ666": 3085,
      "Ġ707": 3086,
      "Ġ626": 3087,
      "Ġcinematography": 3088,
      "Ġfill": 3089,
      "Ġ537": 3090,
      "Ġmusical": 3091,
      "Ġ591": 3092,
      "Ġ598": 3093,
      "Ġshots": 3094,
      "Ġ659": 3095,
      "Ġones": 3096,
      "Ġ912": 3097,
      "utter": 3098,
      "Ġ628": 3099,
      "ĠAm": 3100,
      "Ġ924": 3101,
      "Ġnarr": 3102,
      "Ġwish": 3103,
      "lling": 3104,
      "Ġpot": 3105,
      "ĠWilliam": 3106,
      "ĠAd": 3107,
      "Ġ655": 3108,
      "Ġ524": 3109,
      "Ġcomment": 3110,
      "ING": 3111,
      "reci": 3112,
      "Ġair": 3113,
      "Ġ622": 3114,
      "ĠDo": 3115,
      "ĠRich": 3116,
      "ires": 3117,
      "orth": 3118,
      "Ġalone": 3119,
      "yond": 3120,
      "Ġ657": 3121,
      "light": 3122,
      "Ġteam": 3123,
      "otic": 3124,
      "Ġtaking": 3125,
      "Ġvict": 3126,
      "ĠPer": 3127,
      "Ġknew": 3128,
      "Ġ668": 3129,
      "Ġ928": 3130,
      "usion": 3131,
      "Ġknows": 3132,
      "Ġwords": 3133,
      "!\"": 3134,
      "ĠclichÃ©": 3135,
      "Ġleg": 3136,
      "Ġhell": 3137,
      "ĠPe": 3138,
      "Ġlocal": 3139,
      "ital": 3140,
      "Ġdespite": 3141,
      "Ġ601": 3142,
      "Ġproblems": 3143,
      "Ġ584": 3144,
      "Ġ919": 3145,
      "Ġ896": 3146,
      "ously": 3147,
      "Ġtouch": 3148,
      "Ġ660": 3149,
      "Ġmeet": 3150,
      "Ġsequel": 3151,
      "Ġequ": 3152,
      "003": 3153,
      "Ġsent": 3154,
      "sw": 3155,
      "Ġ624": 3156,
      "Ġ631": 3157,
      "mosp": 3158,
      "Ġplan": 3159,
      "Ġ902": 3160,
      "Ġ686": 3161,
      "Ġ530": 3162,
      "Ġremind": 3163,
      "uri": 3164,
      "Ġ663": 3165,
      "Ġmiddle": 3166,
      "Ġ653": 3167,
      "Ġ632": 3168,
      "Ġ894": 3169,
      "Ġ735": 3170,
      "aris": 3171,
      "Ġcart": 3172,
      "Ġinn": 3173,
      "Ġ916": 3174,
      "Ġ633": 3175,
      "Ġrating": 3176,
      "Ġland": 3177,
      "004": 3178,
      "Ġ627": 3179,
      "gy": 3180,
      "Ġ822": 3181,
      "Ġve": 3182,
      "Ġbel": 3183,
      "Ġ910": 3184,
      "Ġ641": 3185,
      "Ġrespect": 3186,
      "Ġ777": 3187,
      "Ġ658": 3188,
      "Ġhop": 3189,
      "apan": 3190,
      "Ġamong": 3191,
      "Ġincluding": 3192,
      "Ġsets": 3193,
      "Ġ504": 3194,
      "Ġusually": 3195,
      "Ġpub": 3196,
      "Ġ637": 3197,
      "ĠGerman": 3198,
      "Ġsubt": 3199,
      "Ġevents": 3200,
      "Ġtells": 3201,
      "orable": 3202,
      "Ġ918": 3203,
      "which": 3204,
      "Ġ571": 3205,
      "Ġcompl": 3206,
      "Ġ904": 3207,
      "EN": 3208,
      "Ġ621": 3209,
      "Ġ485": 3210,
      "Ġclear": 3211,
      "Ġ774": 3212,
      "Ġsister": 3213,
      "Ġatmosp": 3214,
      "Ġtalking": 3215,
      "Ġeng": 3216,
      "ĠBritish": 3217,
      "Ġdru": 3218,
      "aker": 3219,
      "Ġconvin": 3220,
      "attle": 3221,
      "Ġmodern": 3222,
      "Ġcontro": 3223,
      "Ġsequence": 3224,
      "iod": 3225,
      "Ġsign": 3226,
      "Ġforg": 3227,
      "Ġmist": 3228,
      "Ġ683": 3229,
      "Ġ647": 3230,
      "Ġcover": 3231,
      "Ġintellig": 3232,
      "Ġ905": 3233,
      "Ġ635": 3234,
      "Ġprevious": 3235,
      "Ġ649": 3236,
      "of": 3237,
      "Ġ906": 3238,
      "St": 3239,
      "Ġ670": 3240,
      "Ġ914": 3241,
      "Ġquestion": 3242,
      "Ġten": 3243,
      "Ġhands": 3244,
      "work": 3245,
      "Ġaren": 3246,
      "Ġ575": 3247,
      "Ġsurvi": 3248,
      "Ġapart": 3249,
      "Ġ597": 3250,
      "Ġ656": 3251,
      "orld": 3252,
      "Ġmark": 3253,
      "Ġ648": 3254,
      "Ġ733": 3255,
      "who": 3256,
      "cle": 3257,
      "key": 3258,
      "Ġdue": 3259,
      "Ġunf": 3260,
      "wr": 3261,
      "where": 3262,
      "ĠCom": 3263,
      "Ġ669": 3264,
      "ficult": 3265,
      "Ġ554": 3266,
      "Ġsoci": 3267,
      "aterial": 3268,
      "Ġ979": 3269,
      "Ġ642": 3270,
      "Ġappears": 3271,
      "ubb": 3272,
      "Ġ546": 3273,
      "Ġ681": 3274,
      "Ġ688": 3275,
      "Ġ650": 3276,
      "Ġ978": 3277,
      "amb": 3278,
      "Ġ925": 3279,
      "ĠPh": 3280,
      "val": 3281,
      "Ġfuture": 3282,
      "ior": 3283,
      "Ġ643": 3284,
      "Ġsum": 3285,
      "Ġmostly": 3286,
      "Al": 3287,
      "Ġnone": 3288,
      "Ġ636": 3289,
      "Ġ671": 3290,
      "Ġ684": 3291,
      "oor": 3292,
      "Ġ908": 3293,
      "irector": 3294,
      "Ġscary": 3295,
      "Ġ620": 3296,
      "Ġaspect": 3297,
      "Ġdifficult": 3298,
      "eg": 3299,
      "orry": 3300,
      "Ġhate": 3301,
      "track": 3302,
      "aught": 3303,
      "arre": 3304,
      "row": 3305,
      "asc": 3306,
      "Ġways": 3307,
      "ara": 3308,
      "Ġ665": 3309,
      "009": 3310,
      "ending": 3311,
      "Ġ578": 3312,
      "inal": 3313,
      "ĠEl": 3314,
      "Ġ1024": 3315,
      "Ġ651": 3316,
      "Ġant": 3317,
      "Ġ911": 3318,
      "Ġ799": 3319,
      "ices": 3320,
      "Ġparents": 3321,
      "Ġ1006": 3322,
      "Ġult": 3323,
      "Ġbox": 3324,
      "Ġ725": 3325,
      "Ġhappy": 3326,
      "Ġromantic": 3327,
      "Ġdull": 3328,
      "Ġcomic": 3329,
      "Ġstoryline": 3330,
      "Ġappreci": 3331,
      "Ġ1009": 3332,
      "Ġ923": 3333,
      "Ġ680": 3334,
      "Ġ689": 3335,
      "Ġear": 3336,
      "ĠSam": 3337,
      "My": 3338,
      "Ġprog": 3339,
      "Ġ590": 3340,
      "Ġclearly": 3341,
      "Ġpredictable": 3342,
      "Ġflaw": 3343,
      "Ġgiving": 3344,
      "Ġcamp": 3345,
      "Ġ1019": 3346,
      "Ġabove": 3347,
      "Ġmaterial": 3348,
      "Ġsold": 3349,
      "Ġ964": 3350,
      "Ġhaven": 3351,
      "Ġ593": 3352,
      "Ġeasily": 3353,
      "Ġenjoyable": 3354,
      "Ġ742": 3355,
      "Ġ567": 3356,
      "006": 3357,
      "Ġ768": 3358,
      "Ġ1002": 3359,
      "ution": 3360,
      "Ġ985": 3361,
      "ĠJapan": 3362,
      "Ġseriously": 3363,
      "asons": 3364,
      "Ġ926": 3365,
      "ĠYork": 3366,
      "imp": 3367,
      "oph": 3368,
      "Ġtwist": 3369,
      "Ġ973": 3370,
      "asy": 3371,
      "Ġattack": 3372,
      "belie": 3373,
      "ggest": 3374,
      "Ġadv": 3375,
      "Ġepisodes": 3376,
      "Ġsexual": 3377,
      "Ġ743": 3378,
      "Ġmet": 3379,
      "Ġbeyond": 3380,
      "Ġ807": 3381,
      "oose": 3382,
      "Ġtelevision": 3383,
      "Ġpersonal": 3384,
      "Ġvictim": 3385,
      "Ġ548": 3386,
      "Ġ764": 3387,
      "Ġ994": 3388,
      "Ġsurprised": 3389,
      "Ġfast": 3390,
      "Ġ1003": 3391,
      "Ġdoubt": 3392,
      "ouble": 3393,
      "Ġbunch": 3394,
      "Ġ691": 3395,
      "Ġfalls": 3396,
      "dden": 3397,
      "AL": 3398,
      "007": 3399,
      "Ġ726": 3400,
      "iest": 3401,
      "Ġ1011": 3402,
      "Ġ652": 3403,
      "Ġ528": 3404,
      "Ġdetail": 3405,
      "Ġelements": 3406,
      "well": 3407,
      "Ġ1010": 3408,
      "Ġiss": 3409,
      "uses": 3410,
      "ening": 3411,
      "Ġ975": 3412,
      "Ġ765": 3413,
      "oe": 3414,
      "sem": 3415,
      "Ġ664": 3416,
      "Ġsuggest": 3417,
      "ĠUS": 3418,
      "rated": 3419,
      "Ġ866": 3420,
      "aur": 3421,
      "Ġtheme": 3422,
      "Ġ996": 3423,
      "Ġ756": 3424,
      "ension": 3425,
      "Ġodd": 3426,
      "Ġeye": 3427,
      "Ġslight": 3428,
      "Ġupon": 3429,
      "Ġmessage": 3430,
      "Ġtried": 3431,
      "ĠOsc": 3432,
      "Ġpleas": 3433,
      "Ġeasy": 3434,
      "Ġ746": 3435,
      "Ġnamed": 3436,
      "Ġ737": 3437,
      "ĠAny": 3438,
      "Ġcheck": 3439,
      "Ġthriller": 3440,
      "Ġ963": 3441,
      "Ġ1015": 3442,
      "Ġ995": 3443,
      "Ġsoundtrack": 3444,
      "?<": 3445,
      "eless": 3446,
      "ressed": 3447,
      "Ġsongs": 3448,
      "Ġ913": 3449,
      "Ġperiod": 3450,
      "Ġneeds": 3451,
      "Ġsecret": 3452,
      "ye": 3453,
      "Ġmil": 3454,
      "iment": 3455,
      "Ġ661": 3456,
      "Ġentertainment": 3457,
      "Ġ965": 3458,
      "Ġ754": 3459,
      "Ġ762": 3460,
      "Ġkept": 3461,
      "Ġtheat": 3462,
      "Ġred": 3463,
      "Ġ687": 3464,
      "ĠFrench": 3465,
      "Ġ755": 3466,
      "Ġadult": 3467,
      "Ġ722": 3468,
      "ula": 3469,
      "Ġbegins": 3470,
      "Ġru": 3471,
      "ha": 3472,
      "cape": 3473,
      "Ġ690": 3474,
      "ising": 3475,
      "Ġstri": 3476,
      "atural": 3477,
      "Ġlarge": 3478,
      "Ġpoints": 3479,
      "',": 3480,
      "more": 3481,
      "Ġaccept": 3482,
      "Ġtypical": 3483,
      "Ġmeans": 3484,
      "Ġ1028": 3485,
      "Ġvisual": 3486,
      "Ġrelease": 3487,
      "An": 3488,
      "Ġ1016": 3489,
      "Ġ1023": 3490,
      "Ġ741": 3491,
      "ially": 3492,
      "Ġdisc": 3493,
      "Ġ1018": 3494,
      "Ġshowing": 3495,
      "Ġworking": 3496,
      "Ġ1004": 3497,
      "Ġ1095": 3498,
      "ĠAmerica": 3499,
      "verage": 3500,
      "Ġtruth": 3501,
      "Ġ976": 3502,
      "Ġmix": 3503,
      "Ġ1014": 3504,
      "Ġcomb": 3505,
      "Ġ739": 3506,
      "Ġinsp": 3507,
      "comp": 3508,
      "Ġfilmed": 3509,
      "Ġ1005": 3510,
      "Ġfeels": 3511,
      "Ġemb": 3512,
      "Ġcreep": 3513,
      "Ġreve": 3514,
      "Ġleads": 3515,
      "Ġspir": 3516,
      "Ġfree": 3517,
      "bs": 3518,
      "Ġ766": 3519,
      "Ġsupporting": 3520,
      "kay": 3521,
      "Ġ747": 3522,
      "Ġ640": 3523,
      "Ġ745": 3524,
      "Ġviewers": 3525,
      "ĠPaul": 3526,
      "Ġ738": 3527,
      "Ġ760": 3528,
      "Ġwithin": 3529,
      "ĠBer": 3530,
      "Ġ599": 3531,
      "Ġbro": 3532,
      "Ġcomments": 3533,
      "Ġ1045": 3534,
      "ĠNe": 3535,
      "012": 3536,
      "Ġ629": 3537,
      "Ġ607": 3538,
      "!!!!": 3539,
      "bb": 3540,
      "ĠIM": 3541,
      "Ġbrought": 3542,
      "ĠGeorge": 3543,
      "min": 3544,
      "Ġ797": 3545,
      "Ġpost": 3546,
      "ceed": 3547,
      "So": 3548,
      "ĠAng": 3549,
      "Ġherself": 3550,
      "Ġ757": 3551,
      "Ġ993": 3552,
      "Ġ944": 3553,
      "Ġ740": 3554,
      "Ġdecided": 3555,
      "Ġ1108": 3556,
      "Ġsil": 3557,
      "Ġ945": 3558,
      "Ġzomb": 3559,
      "Ġsens": 3560,
      "Ġviewing": 3561,
      "Ġ763": 3562,
      "Ġ785": 3563,
      "Ġ1065": 3564,
      "Ġ728": 3565,
      "Ġwrit": 3566,
      "Ġ770": 3567,
      "ipp": 3568,
      "cious": 3569,
      "ĠRichard": 3570,
      "gic": 3571,
      "Ġ972": 3572,
      "Ġnorm": 3573,
      "Ġ734": 3574,
      "Ġbusiness": 3575,
      "Ġ1008": 3576,
      "Ġmoving": 3577,
      "opp": 3578,
      "Ġcity": 3579,
      "Ġsequences": 3580,
      "ĠNOT": 3581,
      "Ġ915": 3582,
      "hic": 3583,
      "Ġhear": 3584,
      "Ġreviews": 3585,
      "Ġ761": 3586,
      "aby": 3587,
      "Ġactual": 3588,
      "000": 3589,
      "atever": 3590,
      "Ġ752": 3591,
      "ĠCol": 3592,
      "Ġ753": 3593,
      "OU": 3594,
      "esy": 3595,
      "Ġ834": 3596,
      "Ġbelievable": 3597,
      "Ġoverall": 3598,
      "ĠDr": 3599,
      "Ġ751": 3600,
      "You": 3601,
      "Ġdie": 3602,
      "Ġ1013": 3603,
      "ĠBen": 3604,
      "rific": 3605,
      "Ġintrodu": 3606,
      "!)": 3607,
      "Ġcrime": 3608,
      "Ġ1026": 3609,
      "ĠFrank": 3610,
      "Wh": 3611,
      "Ġ790": 3612,
      "Ġrare": 3613,
      "Ġ877": 3614,
      "Ġ780": 3615,
      "Ġprison": 3616,
      "Ġ729": 3617,
      "ĠItal": 3618,
      "cher": 3619,
      "Ġ1043": 3620,
      "ai": 3621,
      "Ġ988": 3622,
      "kn": 3623,
      "ĠDis": 3624,
      "Ġsuperb": 3625,
      "Ġexist": 3626,
      "Ġ943": 3627,
      "Ġclim": 3628,
      "Ġpremise": 3629,
      "rest": 3630,
      "Ġ833": 3631,
      "Ġusing": 3632,
      "time": 3633,
      "Ġ1076": 3634,
      "Ġ1104": 3635,
      "Ġ855": 3636,
      "Ġspeak": 3637,
      "Ġtale": 3638,
      "Ġnearly": 3639,
      "Ġbuy": 3640,
      "Ġ983": 3641,
      "Ġbackground": 3642,
      "Ġediting": 3643,
      "Ġexpected": 3644,
      "ining": 3645,
      "Ġ759": 3646,
      "Ġ783": 3647,
      "RE": 3648,
      "Ġ984": 3649,
      "Ġ1102": 3650,
      "Ġrealistic": 3651,
      "Ġgrand": 3652,
      "Ġ1044": 3653,
      "icks": 3654,
      "Ġ1124": 3655,
      "upp": 3656,
      "Ġbasically": 3657,
      "Ġadapt": 3658,
      "Ġ724": 3659,
      "verall": 3660,
      "Ġ968": 3661,
      "aling": 3662,
      "irlf": 3663,
      "Ġfigure": 3664,
      "Ġ948": 3665,
      "cted": 3666,
      "esome": 3667,
      "lier": 3668,
      "Ġcur": 3669,
      "Ġgay": 3670,
      "ĠMor": 3671,
      "?\"": 3672,
      "piece": 3673,
      "Ġ786": 3674,
      "Âħ": 3675,
      "Ġfell": 3676,
      "Ġ1109": 3677,
      "Ġ730": 3678,
      "ĠOK": 3679,
      "ĠLee": 3680,
      "Ġ723": 3681,
      "Ġ827": 3682,
      "Ġstate": 3683,
      "Ġ836": 3684,
      "Ġ1025": 3685,
      "Ġkilling": 3686,
      "ges": 3687,
      "Ġcrew": 3688,
      "Ġ992": 3689,
      "Ġ788": 3690,
      "ively": 3691,
      "irlfriend": 3692,
      "Ġstere": 3693,
      "Ġ803": 3694,
      "Ġ731": 3695,
      "Ġavoid": 3696,
      "Ġ1063": 3697,
      "came": 3698,
      "Ġ1115": 3699,
      "rey": 3700,
      "Ġ922": 3701,
      "Ġ748": 3702,
      "Ġ899": 3703,
      "Ġ1093": 3704,
      "Ġwit": 3705,
      "Ġ801": 3706,
      "Ġ1103": 3707,
      "Ġ/>\"": 3708,
      "Ġutter": 3709,
      "ries": 3710,
      "ĠGu": 3711,
      "Ġtre": 3712,
      "Ġ1017": 3713,
      "Ġweird": 3714,
      "Ġ883": 3715,
      "Ġatmosphere": 3716,
      "Ġ1117": 3717,
      "ĠMaybe": 3718,
      "ips": 3719,
      "Ġfamous": 3720,
      "Ġ*": 3721,
      "Ġsituation": 3722,
      "Ġ789": 3723,
      "Ġ1192": 3724,
      "Ġbar": 3725,
      "Ġ1085": 3726,
      "Ġ998": 3727,
      "Ġ1012": 3728,
      "Ġ1072": 3729,
      "Ġ701": 3730,
      "Ġlots": 3731,
      "Ġid": 3732,
      "Ġwait": 3733,
      "uro": 3734,
      "zz": 3735,
      "Ġ1073": 3736,
      "omin": 3737,
      "Ġ1092": 3738,
      "Ġobs": 3739,
      "Ġforced": 3740,
      "Ġprovid": 3741,
      "ĠQu": 3742,
      "Ġdeliver": 3743,
      "Ġ832": 3744,
      "Ġ857": 3745,
      "Ġsurprise": 3746,
      "ze": 3747,
      "Ġfront": 3748,
      "hys": 3749,
      "Ġleaves": 3750,
      "Ġ1096": 3751,
      "Ġ1098": 3752,
      "ĠUnfortunately": 3753,
      "Ġtheater": 3754,
      "ogn": 3755,
      "ĠJul": 3756,
      "look": 3757,
      "Ġfive": 3758,
      "Ġ900": 3759,
      "Ġpoorly": 3760,
      "ĠTr": 3761,
      "Ġ720": 3762,
      "Ġ677": 3763,
      "Ġparticular": 3764,
      "Ġ1035": 3765,
      "Ch": 3766,
      "Ġfantastic": 3767,
      "ills": 3768,
      "ĠOh": 3769,
      "Ġresp": 3770,
      "Ġclever": 3771,
      "Ġexe": 3772,
      "Ġmeaning": 3773,
      "Ġ946": 3774,
      "Ġ1163": 3775,
      "Ġ782": 3776,
      "Ġ820": 3777,
      "Ġgone": 3778,
      "friend": 3779,
      "isf": 3780,
      "Ġforget": 3781,
      "Ġaverage": 3782,
      "Ġbored": 3783,
      "When": 3784,
      "Ġ839": 3785,
      "urther": 3786,
      "Ġ685": 3787,
      "ring": 3788,
      "Ġrefer": 3789,
      "Ġ838": 3790,
      "Ġgreatest": 3791,
      "Ġ841": 3792,
      "ĠOscar": 3793,
      "Ġbecame": 3794,
      "Ġ1106": 3795,
      "venge": 3796,
      "Ġlame": 3797,
      "ĠSm": 3798,
      "avy": 3799,
      "Ġpure": 3800,
      "Ġwhether": 3801,
      "par": 3802,
      "Ġmale": 3803,
      "Ġ727": 3804,
      "Ġ845": 3805,
      "Ġ771": 3806,
      "One": 3807,
      "iences": 3808,
      "hel": 3809,
      "ĠCan": 3810,
      "Ġ749": 3811,
      "Ġappro": 3812,
      "Ġapparently": 3813,
      "Ġultim": 3814,
      "ager": 3815,
      "Ġ846": 3816,
      "ged": 3817,
      "Ġer": 3818,
      "Ġ1224": 3819,
      "Ġ837": 3820,
      "Ġ654": 3821,
      "Ġfootage": 3822,
      "host": 3823,
      "Ġdumb": 3824,
      "Ġ1118": 3825,
      "Ġstereot": 3826,
      "Ġstage": 3827,
      "Ġdog": 3828,
      "Ġallow": 3829,
      "Ġanimation": 3830,
      "Ġinterested": 3831,
      "ĠGra": 3832,
      "ius": 3833,
      "bers": 3834,
      "anks": 3835,
      "Ġinf": 3836,
      "Ġsudden": 3837,
      "Ġ860": 3838,
      "ĠAlthough": 3839,
      "Ġ831": 3840,
      "Ġaff": 3841,
      "Ġ1083": 3842,
      "ĠPr": 3843,
      "Ġ850": 3844,
      "Ġwood": 3845,
      "Ġ1066": 3846,
      "ask": 3847,
      "ĠPeter": 3848,
      "Ġpublic": 3849,
      "Ġ907": 3850,
      "Ġ682": 3851,
      "Ġstrugg": 3852,
      "Ġ1144": 3853,
      "Ġ1213": 3854,
      "Ġstun": 3855,
      "Ġ853": 3856,
      "Ġ1168": 3857,
      "ises": 3858,
      "Ġ1116": 3859,
      "Ġ697": 3860,
      "Ġ867": 3861,
      "lle": 3862,
      "Ġproject": 3863,
      "Ġmystery": 3864,
      "Ġminute": 3865,
      "Ġmemorable": 3866,
      "Ġsociety": 3867,
      "Ġ1074": 3868,
      "cers": 3869,
      "Ġ885": 3870,
      "angu": 3871,
      "ĠMart": 3872,
      "acing": 3873,
      "Ġvillain": 3874,
      "'.": 3875,
      "olf": 3876,
      "Ġrock": 3877,
      "ume": 3878,
      "Ġcredits": 3879,
      "chie": 3880,
      "por": 3881,
      "this": 3882,
      "Ġ781": 3883,
      "wo": 3884,
      "Ġ1135": 3885,
      "Ġ849": 3886,
      "Ġlaw": 3887,
      "agon": 3888,
      "Ġearlier": 3889,
      "avi": 3890,
      "inc": 3891,
      "Ġ1113": 3892,
      "Ġconcept": 3893,
      "Ġunique": 3894,
      "Ġ1114": 3895,
      "emy": 3896,
      "iliar": 3897,
      "action": 3898,
      "Ġworked": 3899,
      "Ġ1175": 3900,
      "Ġemotional": 3901,
      "Ġ851": 3902,
      "Ġvir": 3903,
      "Ġ856": 3904,
      "ĠWood": 3905,
      "ival": 3906,
      "Ġlos": 3907,
      "Ġfeatures": 3908,
      "Ġ1064": 3909,
      "Ġlaughs": 3910,
      "Ġneeded": 3911,
      "ĠFilm": 3912,
      "Ġtast": 3913,
      "Ġ744": 3914,
      "Ġperfectly": 3915,
      "Ġquickly": 3916,
      "Ġcheesy": 3917,
      "Ġprofess": 3918,
      "ĠIMD": 3919,
      "Ġprop": 3920,
      "Ġ840": 3921,
      "Ġ882": 3922,
      "rent": 3923,
      "Ġkeeps": 3924,
      "Ġtowards": 3925,
      "Ġsomehow": 3926,
      "hood": 3927,
      "Ġ736": 3928,
      "roy": 3929,
      "ĠMost": 3930,
      "Ġshame": 3931,
      "Ġdiscover": 3932,
      "Ġ1000": 3933,
      "Ġspoil": 3934,
      "Ġmonster": 3935,
      "Ġliter": 3936,
      "Ġgirlfriend": 3937,
      "Ġ1094": 3938,
      "Ġexpress": 3939,
      "Ġcopy": 3940,
      "rief": 3941,
      "Ġ1185": 3942,
      "Th": 3943,
      "erv": 3944,
      "Ġ791": 3945,
      "Ġthird": 3946,
      "Ġagree": 3947,
      "Ġgeneral": 3948,
      "ero": 3949,
      "ionally": 3950,
      "Ġdan": 3951,
      "Ġ888": 3952,
      "Ġpowerful": 3953,
      "Ġ847": 3954,
      "Ġ935": 3955,
      "reed": 3956,
      "For": 3957,
      "Ġ1048": 3958,
      "ĠFrom": 3959,
      "with": 3960,
      "Ġ1133": 3961,
      "urd": 3962,
      "Ġ630": 3963,
      "Ġlim": 3964,
      "Ġscreenplay": 3965,
      "Ġsick": 3966,
      "Ġwind": 3967,
      "Ġ1211": 3968,
      "Ġhom": 3969,
      "Ġinvest": 3970,
      "king": 3971,
      "onic": 3972,
      "Ġ1202": 3973,
      "Ġweek": 3974,
      "Ġ667": 3975,
      "Ġpossibly": 3976,
      "Ġmeant": 3977,
      "Ġrealize": 3978,
      "bert": 3979,
      "Ġ852": 3980,
      "Ġ1126": 3981,
      "Ġ999": 3982,
      "Ġ1143": 3983,
      "Ġsetting": 3984,
      "Ġtrouble": 3985,
      "arry": 3986,
      "Ġ859": 3987,
      "Ġreading": 3988,
      "Ġdam": 3989,
      "Ġrich": 3990,
      "ĠKing": 3991,
      "Ġdisturb": 3992,
      "no": 3993,
      "Ġclos": 3994,
      "Ġdesign": 3995,
      "Ġ1145": 3996,
      "Ġcat": 3997,
      "Ġadvent": 3998,
      "Ġ1216": 3999,
      "Ġpret": 4000,
      "ĠWho": 4001,
      "ĠJim": 4002,
      "aked": 4003,
      "Ġ769": 4004,
      "Ġ$": 4005,
      "Ġ1165": 4006,
      "unny": 4007,
      "Ġhistor": 4008,
      "Ġmill": 4009,
      "stead": 4010,
      "Ġ1088": 4011,
      "Ġromance": 4012,
      "Ġ1111": 4013,
      "Ġ887": 4014,
      "arring": 4015,
      "Ġnature": 4016,
      "Ġyes": 4017,
      "Ġvarious": 4018,
      "iver": 4019,
      "Ġanyway": 4020,
      "Ġ1105": 4021,
      "Ġolder": 4022,
      "LE": 4023,
      "yl": 4024,
      "udd": 4025,
      "Ġpurp": 4026,
      "Ġcir": 4027,
      "rif": 4028,
      "Ġcap": 4029,
      "Ġ1128": 4030,
      "Ġwhom": 4031,
      "acy": 4032,
      "Ġwrite": 4033,
      "Ġinde": 4034,
      "ĠEx": 4035,
      "Ġ966": 4036,
      "Ġ861": 4037,
      "Ġ1215": 4038,
      "oman": 4039,
      "Ġcry": 4040,
      "Ġamount": 4041,
      "Ġ1183": 4042,
      "bor": 4043,
      "Ġwriters": 4044,
      "Ġfire": 4045,
      "\")": 4046,
      "Ġforward": 4047,
      "ĠFl": 4048,
      "Ġ835": 4049,
      "Ġimagine": 4050,
      "ivers": 4051,
      "Ġ1212": 4052,
      "Ġ1208": 4053,
      "Ġ881": 4054,
      "Ġsleep": 4055,
      "Ġmeets": 4056,
      "ĠYes": 4057,
      "Ġtotal": 4058,
      "Ġenc": 4059,
      "Ġoper": 4060,
      "Ġconne": 4061,
      "Ġextra": 4062,
      "Ġ927": 4063,
      "Ġ1178": 4064,
      "arl": 4065,
      "Ġ1172": 4066,
      "Ġ...": 4067,
      "Ġrepe": 4068,
      "Ġconcer": 4069,
      "cessary": 4070,
      "andy": 4071,
      "itty": 4072,
      "Ġpopular": 4073,
      "Ġbrings": 4074,
      "ĠIts": 4075,
      "itted": 4076,
      "Ġspace": 4077,
      "Ġ1235": 4078,
      "All": 4079,
      "Ġ828": 4080,
      "005": 4081,
      "Ġdevelopment": 4082,
      "Ġbadly": 4083,
      "ĠBlack": 4084,
      "Ġ1265": 4085,
      "Ġ1219": 4086,
      "Ġ1046": 4087,
      "Ġ938": 4088,
      "Ġ1086": 4089,
      "Ġ886": 4090,
      "bo": 4091,
      "Ġ644": 4092,
      "acher": 4093,
      "Ġcollect": 4094,
      "ĠAust": 4095,
      "ĠScott": 4096,
      "Ġ920": 4097,
      "Ġ1179": 4098,
      "ape": 4099,
      "Ġnor": 4100,
      "Ġ901": 4101,
      "Ġ767": 4102,
      "Ġfairly": 4103,
      "Ġ1033": 4104,
      "045": 4105,
      "Ġbattle": 4106,
      "Ġinnoc": 4107,
      "ases": 4108,
      "ford": 4109,
      "Ġansw": 4110,
      "Ġbare": 4111,
      "Ġ870": 4112,
      "allow": 4113,
      "ĠThese": 4114,
      "iny": 4115,
      "Ġ929": 4116,
      "Ġmasterpiece": 4117,
      "Ġacted": 4118,
      "Ġunlike": 4119,
      "Ġconv": 4120,
      "Ġmanages": 4121,
      "Ġ1210": 4122,
      "Ġ662": 4123,
      "Ġ750": 4124,
      "Ġ1022": 4125,
      "Ġ977": 4126,
      "Ġhair": 4127,
      "Ġreasons": 4128,
      "Ġdirecting": 4129,
      "?)": 4130,
      "Ġment": 4131,
      "Ġ821": 4132,
      "038": 4133,
      "Ġadmit": 4134,
      "Ġ1174": 4135,
      "Ġdramatic": 4136,
      "ele": 4137,
      "Ġmad": 4138,
      "Ġ940": 4139,
      "Ġ1125": 4140,
      "ades": 4141,
      "Ġ939": 4142,
      "ĠJapanese": 4143,
      "Ġ936": 4144,
      "ology": 4145,
      "Ġ889": 4146,
      "Ġoccas": 4147,
      "Ġrecogn": 4148,
      "Ġ1217": 4149,
      "Ġ1206": 4150,
      "Ġexecut": 4151,
      "af": 4152,
      "iel": 4153,
      "berg": 4154,
      "Ġincredibly": 4155,
      "Ġfasc": 4156,
      "OO": 4157,
      "boy": 4158,
      "Ġ1268": 4159,
      "Ġcolle": 4160,
      "men": 4161,
      "mist": 4162,
      "Ġneg": 4163,
      "izing": 4164,
      "Ġcatch": 4165,
      "une": 4166,
      "ki": 4167,
      "Ġident": 4168,
      "Ġ884": 4169,
      "ĠDisney": 4170,
      "Ġattract": 4171,
      "Ġ1273": 4172,
      "Ġ991": 4173,
      "Ġeventually": 4174,
      "Ġcartoon": 4175,
      "Ġideas": 4176,
      "Ġ1155": 4177,
      "002": 4178,
      "ĠLike": 4179,
      "Ġ784": 4180,
      "Ġ1223": 4181,
      "Ġ952": 4182,
      "Ġfails": 4183,
      "Ġ1228": 4184,
      "ĠJoe": 4185,
      "ĠChe": 4186,
      "ĠWorld": 4187,
      "Ġ848": 4188,
      "han": 4189,
      "pro": 4190,
      "ague": 4191,
      "Ġaut": 4192,
      "Ġdeserves": 4193,
      "Ġplease": 4194,
      "itation": 4195,
      "Ġ921": 4196,
      "ĠAN": 4197,
      "Ġportrayed": 4198,
      "Ġ1304": 4199,
      "Ġ1233": 4200,
      "udity": 4201,
      "Ġseason": 4202,
      "Ġwasted": 4203,
      "erry": 4204,
      "oles": 4205,
      "Ġ596": 4206,
      "Ġ1198": 4207,
      "Ġ934": 4208,
      "ging": 4209,
      "Ġ1312": 4210,
      "Ġ830": 4211,
      "vil": 4212,
      "Ġoffic": 4213,
      "Ġcreate": 4214,
      "Ġcommun": 4215,
      "Ġjoke": 4216,
      "Ġleading": 4217,
      "Ġplain": 4218,
      "resh": 4219,
      "ĠEm": 4220,
      "Ġcond": 4221,
      "Ġflash": 4222,
      "movie": 4223,
      "Ġign": 4224,
      "Ġ1184": 4225,
      "Ġ1075": 4226,
      "Ġformer": 4227,
      "Ġ1283": 4228,
      "medi": 4229,
      "Ġ1275": 4230,
      "ites": 4231,
      "ĠBy": 4232,
      "ĠGood": 4233,
      "Ġinside": 4234,
      "Ġ950": 4235,
      "Ġ937": 4236,
      "Ġera": 4237,
      "Ġ957": 4238,
      "Ġ974": 4239,
      "Ġmissing": 4240,
      "Ġband": 4241,
      "Ġspent": 4242,
      "ĠIMDb": 4243,
      "Ġlangu": 4244,
      "Ġ1313": 4245,
      "Ġoutside": 4246,
      "Ġcreepy": 4247,
      "Ġ1007": 4248,
      "Ġimm": 4249,
      "Ġ1166": 4250,
      "Ġclaim": 4251,
      "Ġ(\"": 4252,
      "Ġlaughing": 4253,
      "Ġflat": 4254,
      "ĠSim": 4255,
      "Ġremake": 4256,
      "Ġ969": 4257,
      "How": 4258,
      "ĠBill": 4259,
      "Ġpotential": 4260,
      "rup": 4261,
      "Ġfighting": 4262,
      "Ġexpecting": 4263,
      "Ġtelling": 4264,
      "Ġ1316": 4265,
      "ĠEuro": 4266,
      "lo": 4267,
      "Ġindeed": 4268,
      "Ġ1243": 4269,
      "Ġdirectors": 4270,
      "Ġarri": 4271,
      "Ġcreated": 4272,
      "Ġ997": 4273,
      "Ġpolitical": 4274,
      "Ġsymp": 4275,
      "Ġscient": 4276,
      "Ġphys": 4277,
      "Ġ958": 4278,
      "Ġ1078": 4279,
      "inter": 4280,
      "ĠEn": 4281,
      "Ġplenty": 4282,
      "Ġcaught": 4283,
      "Ġexplo": 4284,
      "een": 4285,
      "Ġtrad": 4286,
      "Ġfamiliar": 4287,
      "Ġ1333": 4288,
      "room": 4289,
      "Ġjour": 4290,
      "Ġrob": 4291,
      "cked": 4292,
      "Ġsocial": 4293,
      "Ġcommon": 4294,
      "Ġ1263": 4295,
      "Ġ1119": 4296,
      "Ġ1173": 4297,
      "Ġjud": 4298,
      "ĠLu": 4299,
      "Ġ982": 4300,
      "Ġended": 4301,
      "Ġ1153": 4302,
      "Ġ1279": 4303,
      "ĠCra": 4304,
      "Ġwater": 4305,
      "arrass": 4306,
      "Ġsounds": 4307,
      "Ġfilmmakers": 4308,
      "Ġ1176": 4309,
      "Ġ897": 4310,
      "Ġ1285": 4311,
      "Ġ1375": 4312,
      "Ġ1209": 4313,
      "Ġ1311": 4314,
      "Ġ942": 4315,
      "while": 4316,
      "Ġsorry": 4317,
      "iously": 4318,
      "Ġexplain": 4319,
      "Ġ1122": 4320,
      "rage": 4321,
      "Ġest": 4322,
      "uter": 4323,
      "uine": 4324,
      "Ġ1298": 4325,
      "alth": 4326,
      "su": 4327,
      "Ġsweet": 4328,
      "Ġ:": 4329,
      "Ġ1272": 4330,
      "Ġ1310": 4331,
      "come": 4332,
      "ĠMad": 4333,
      "Ġintri": 4334,
      "ES": 4335,
      "Ġ961": 4336,
      "Ġattempts": 4337,
      "lex": 4338,
      "Ġ1244": 4339,
      "Ġwhatever": 4340,
      "Ġ967": 4341,
      "Ġaccident": 4342,
      "Ġ951": 4343,
      "Ġ862": 4344,
      "Ġrecord": 4345,
      "Ġidi": 4346,
      "AD": 4347,
      "mar": 4348,
      "Ġ1188": 4349,
      "Ġ960": 4350,
      "cap": 4351,
      "aving": 4352,
      "Ġdance": 4353,
      "Ġ1225": 4354,
      "Ġrequ": 4355,
      "sters": 4356,
      "Ġmarried": 4357,
      "Ġescape": 4358,
      "Ġpositive": 4359,
      "Ġ1293": 4360,
      "ĠMe": 4361,
      "Ġ1195": 4362,
      "gest": 4363,
      "mas": 4364,
      "Ġ1186": 4365,
      "Ġcolor": 4366,
      "Ġamb": 4367,
      "Ġtalented": 4368,
      "fi": 4369,
      "ĠFirst": 4370,
      "Ġ1052": 4371,
      "Ġspirit": 4372,
      "Ġnudity": 4373,
      "Ġ1036": 4374,
      "inger": 4375,
      "Ġ1395": 4376,
      "Ġsubtle": 4377,
      "Ġ1084": 4378,
      "Ġ1146": 4379,
      "inary": 4380,
      "ĠNight": 4381,
      "Ġmembers": 4382,
      "ened": 4383,
      "Ġpace": 4384,
      "war": 4385,
      "asher": 4386,
      "Ġ1294": 4387,
      "Ġterror": 4388,
      "Ġ1385": 4389,
      "Ġnote": 4390,
      "Ġachie": 4391,
      "Ġ1218": 4392,
      "Ġ1318": 4393,
      "Ġcrazy": 4394,
      "Ġ1278": 4395,
      "ĠAf": 4396,
      "Ġembarrass": 4397,
      "Ġstereotyp": 4398,
      "Ġ1319": 4399,
      "LY": 4400,
      "cast": 4401,
      "Ġcute": 4402,
      "Ġ962": 4403,
      "umes": 4404,
      "PO": 4405,
      "TH": 4406,
      "Ġ1309": 4407,
      "Ġdoll": 4408,
      "Ġpers": 4409,
      "Ġfunn": 4410,
      "Ġbrief": 4411,
      "gen": 4412,
      "appe": 4413,
      "Ġ871": 4414,
      "Ġ1317": 4415,
      "Ġ1950": 4416,
      "iff": 4417,
      "Ġ987": 4418,
      "clusion": 4419,
      "Ġdepth": 4420,
      "Ġporn": 4421,
      "Ġ1112": 4422,
      "ĠItalian": 4423,
      "ĠRuss": 4424,
      "Ġ1253": 4425,
      "Ġ854": 4426,
      "Ġ1123": 4427,
      "iller": 4428,
      "Ġtravel": 4429,
      "gl": 4430,
      "sequ": 4431,
      "Ġvalue": 4432,
      "ivi": 4433,
      "Ġ956": 4434,
      "Ġcomplex": 4435,
      "Ġ1306": 4436,
      "Ġ1403": 4437,
      "cei": 4438,
      "ĠDra": 4439,
      "Ġmid": 4440,
      "Ġbed": 4441,
      "Ġ1060": 4442,
      "Ġbiz": 4443,
      "Ġstore": 4444,
      "Ġstep": 4445,
      "Ġgenuine": 4446,
      "Ġess": 4447,
      "Ġ953": 4448,
      "Ġuses": 4449,
      "Ġdesper": 4450,
      "ĠPat": 4451,
      "Ġ1069": 4452,
      "pping": 4453,
      "ana": 4454,
      "ĠTra": 4455,
      "Ġ787": 4456,
      "Ġ1374": 4457,
      "ĠII": 4458,
      "ilt": 4459,
      "Ġ1196": 4460,
      "Ġ1245": 4461,
      "ĠSw": 4462,
      "ĠOther": 4463,
      "ĠInstead": 4464,
      "Be": 4465,
      "Ġwestern": 4466,
      "Ġfurther": 4467,
      "ieces": 4468,
      "ashing": 4469,
      "Ġ1326": 4470,
      "Ġentirely": 4471,
      "Ġpointless": 4472,
      "Ġbeauty": 4473,
      "Ġcredit": 4474,
      "Ġ1308": 4475,
      "Ġ1353": 4476,
      "IS": 4477,
      "Ġ1099": 4478,
      "Ġ1050": 4479,
      "vern": 4480,
      "ishing": 4481,
      "Ġboys": 4482,
      "Ġslightly": 4483,
      "nie": 4484,
      "Ġrad": 4485,
      "Ġ1394": 4486,
      "ĠVan": 4487,
      "Ġrecently": 4488,
      "ĠSer": 4489,
      "Ġmedi": 4490,
      "Ġ1405": 4491,
      "ossible": 4492,
      "Ġrevol": 4493,
      "Ġ932": 4494,
      "Ġimmedi": 4495,
      "ective": 4496,
      "Ġ1444": 4497,
      "Ġdecides": 4498,
      "Ġhardly": 4499,
      "Ġ758": 4500,
      "iced": 4501,
      "Ġ1040": 4502,
      "Ġ1264": 4503,
      "Ġbrain": 4504,
      "iers": 4505,
      "Ġ1344": 4506,
      "Ġunbelie": 4507,
      "Ġ891": 4508,
      "ĠGreat": 4509,
      "known": 4510,
      "Ġmentioned": 4511,
      "Ġ1325": 4512,
      "ibility": 4513,
      "Ġcontrol": 4514,
      "On": 4515,
      "Don": 4516,
      "ĠGl": 4517,
      "ization": 4518,
      "Ġimpro": 4519,
      "reg": 4520,
      "aper": 4521,
      "Ġ1379": 4522,
      "ashion": 4523,
      "016": 4524,
      "Ġine": 4525,
      "Ġfit": 4526,
      "Ġmel": 4527,
      "Ġtrail": 4528,
      "Ġfollows": 4529,
      "Ġ1410": 4530,
      "Ġ1030": 4531,
      "Ġportrayal": 4532,
      "Ġ1302": 4533,
      "ĠPro": 4534,
      "Ġ1384": 4535,
      "str": 4536,
      "Ġbother": 4537,
      "lying": 4538,
      "Ġ1980": 4539,
      "Ġ1409": 4540,
      "ĠMon": 4541,
      "Ġwaiting": 4542,
      "Ġrelig": 4543,
      "Ġdied": 4544,
      "alt": 4545,
      "Ġ1408": 4546,
      "Ġ1110": 4547,
      "ĠBra": 4548,
      "Ġsolid": 4549,
      "oes": 4550,
      "irty": 4551,
      "Ġ1284": 4552,
      "Ġ1305": 4553,
      "Ġ1426": 4554,
      "aging": 4555,
      "otten": 4556,
      "ĠEurope": 4557,
      "Ġ1226": 4558,
      "Ġparty": 4559,
      "Ġfollowing": 4560,
      "Ġdelight": 4561,
      "Ġexciting": 4562,
      "Ġchoice": 4563,
      "ĠDes": 4564,
      "Ġmer": 4565,
      "Ġ1376": 4566,
      "Ġconvincing": 4567,
      "AS": 4568,
      "Ġmass": 4569,
      "Ġeffective": 4570,
      "Ġmere": 4571,
      "orror": 4572,
      "Ġcasting": 4573,
      "ding": 4574,
      "Ġ1383": 4575,
      "Ġsatisf": 4576,
      "Ġspl": 4577,
      "Ġ1314": 4578,
      "Ġ1445": 4579,
      "Ġ1510": 4580,
      "Ġ1100": 4581,
      "Ġ1164": 4582,
      "Ġ1027": 4583,
      "Ġ842": 4584,
      "Ġdraw": 4585,
      "Ġappreciate": 4586,
      "Ġ990": 4587,
      "Ġvamp": 4588,
      "Ġsituations": 4589,
      "Ġ1248": 4590,
      "Ġ1324": 4591,
      "Ġ1475": 4592,
      "ĠDead": 4593,
      "Ġ1372": 4594,
      "Ġ1037": 4595,
      "Ġ1276": 4596,
      "Ġviolent": 4597,
      "Ġtort": 4598,
      "Ġ1214": 4599,
      "Ġsees": 4600,
      "ĠFred": 4601,
      "uster": 4602,
      "Ġmod": 4603,
      "Ġ1031": 4604,
      "mon": 4605,
      "ified": 4606,
      "Ġwrote": 4607,
      "Ġ1001": 4608,
      "Ġ1204": 4609,
      "Ġ1296": 4610,
      "Ġmoves": 4611,
      "Ġ880": 4612,
      "Ġaccent": 4613,
      "Ġ1205": 4614,
      "Ġ1194": 4615,
      "Ġ1364": 4616,
      "Ġlonger": 4617,
      "Ġ844": 4618,
      "Ġ1222": 4619,
      "Ġ1039": 4620,
      "ĠHere": 4621,
      "ĠLou": 4622,
      "Ġlady": 4623,
      "Ġ949": 4624,
      "Ġmissed": 4625,
      "ĠAct": 4626,
      "Ġintelligent": 4627,
      "even": 4628,
      "Ġmatch": 4629,
      "Ġ1042": 4630,
      "Ġtension": 4631,
      "Ġotherwise": 4632,
      "standing": 4633,
      "Ġamusing": 4634,
      "Ġdoctor": 4635,
      "Ġ955": 4636,
      "Ġground": 4637,
      "fort": 4638,
      "Ġdecide": 4639,
      "Ġ1081": 4640,
      "Ġ1406": 4641,
      "rect": 4642,
      "Ġ970": 4643,
      "Ġ1363": 4644,
      "Ġ954": 4645,
      "annel": 4646,
      "Ġremark": 4647,
      "Ġ981": 4648,
      "Ġbizarre": 4649,
      "Ġpurpose": 4650,
      "Ġfol": 4651,
      "Ġproduced": 4652,
      "Ġ1177": 4653,
      "033": 4654,
      "Ġlanguage": 4655,
      "Ġcru": 4656,
      "Ġcross": 4657,
      "Ġluck": 4658,
      "Ġ971": 4659,
      "Ġinfl": 4660,
      "Ġ1295": 4661,
      "Ġ1055": 4662,
      "ĠHarry": 4663,
      "itary": 4664,
      "Ġ1415": 4665,
      "Ġsuccessful": 4666,
      "Ġ1266": 4667,
      "urp": 4668,
      "Ġ1513": 4669,
      "ĠWatch": 4670,
      "ares": 4671,
      "Ġsci": 4672,
      "ĠJe": 4673,
      "vide": 4674,
      "ĠMat": 4675,
      "Ġ1428": 4676,
      "Ġspend": 4677,
      "Ġfear": 4678,
      "Ġbrut": 4679,
      "ED": 4680,
      "Ġ1062": 4681,
      "Ġrate": 4682,
      "Ġregard": 4683,
      "Ġ`": 4684,
      "Ġ1335": 4685,
      "Ġscream": 4686,
      "Ġfantasy": 4687,
      "Ġ1516": 4688,
      "Ġsearch": 4689,
      "ribly": 4690,
      "Ġwall": 4691,
      "Ġ1443": 4692,
      "ĠOF": 4693,
      "la": 4694,
      "Ġhumour": 4695,
      "lect": 4696,
      "kin": 4697,
      "arily": 4698,
      "Ġ1041": 4699,
      "Ġ1315": 4700,
      "Ġ1059": 4701,
      "Ġ1132": 4702,
      "ped": 4703,
      "Ġmach": 4704,
      "Ġcompet": 4705,
      "Ġwild": 4706,
      "Ġsuspect": 4707,
      "Ġ1525": 4708,
      "ste": 4709,
      "Ġ1067": 4710,
      "Ġ1498": 4711,
      "ship": 4712,
      "Ġ1101": 4713,
      "ĠSch": 4714,
      "ĠBob": 4715,
      "Ġcontr": 4716,
      "Ġsoul": 4717,
      "Ġproducers": 4718,
      "Ġbiggest": 4719,
      "Ġculture": 4720,
      "Ġopportun": 4721,
      "Ġfocus": 4722,
      "Ġyounger": 4723,
      "eren": 4724,
      "Ġdanger": 4725,
      "Ġ1148": 4726,
      "025": 4727,
      "043": 4728,
      "cock": 4729,
      "Ġ1413": 4730,
      "ĠLa": 4731,
      "Ġ1020": 4732,
      "Ġinvolving": 4733,
      "Ġ1414": 4734,
      "Ġstick": 4735,
      "ateur": 4736,
      "Ġquestions": 4737,
      "Ġfilled": 4738,
      "Ġ1061": 4739,
      "Ġ1089": 4740,
      "Ġ1199": 4741,
      "Ġ1970": 4742,
      "Ġtrain": 4743,
      "Ġ1054": 4744,
      "Ġ1097": 4745,
      "Ġ1518": 4746,
      "Ġcompany": 4747,
      "ront": 4748,
      "Ġ1070": 4749,
      "resent": 4750,
      "Ġunfortunately": 4751,
      "Ġ1049": 4752,
      "Ġ1378": 4753,
      "izes": 4754,
      "Ġdepict": 4755,
      "Ġmanner": 4756,
      "ĠStar": 4757,
      "Ġ1292": 4758,
      "Ġcollege": 4759,
      "Ġfake": 4760,
      "elly": 4761,
      "Ġcrim": 4762,
      "Ġ732": 4763,
      "ological": 4764,
      "Ġ1419": 4765,
      "ruce": 4766,
      "Ġinterview": 4767,
      "Ġrecent": 4768,
      "Ġunless": 4769,
      "Ġchanged": 4770,
      "ĠIndian": 4771,
      "mistry": 4772,
      "Ġ869": 4773,
      "Ġ1478": 4774,
      "formation": 4775,
      "inating": 4776,
      "Ġ1058": 4777,
      "Ġcontri": 4778,
      "OM": 4779,
      "Ġ1137": 4780,
      "Ġminor": 4781,
      "ength": 4782,
      "Ġ1080": 4783,
      "Ġrap": 4784,
      "Ġ1417": 4785,
      "Ġpathetic": 4786,
      "Ġball": 4787,
      "Ġ1424": 4788,
      "Ġ1034": 4789,
      "Ġlikes": 4790,
      "Ġ1303": 4791,
      "ĠMac": 4792,
      "ĠLove": 4793,
      "Ġanti": 4794,
      "let": 4795,
      "Ġ1396": 4796,
      "ĠMovie": 4797,
      "Ġ721": 4798,
      "Ġtest": 4799,
      "Ġsqu": 4800,
      "Ġinvestig": 4801,
      "VER": 4802,
      "Ġ1091": 4803,
      "Ġ1523": 4804,
      "Ġincredible": 4805,
      "Ġbreat": 4806,
      "Not": 4807,
      "round": 4808,
      "OW": 4809,
      "mo": 4810,
      "Ġ1503": 4811,
      "owers": 4812,
      "ĠHen": 4813,
      "Ġ1476": 4814,
      "cra": 4815,
      "down": 4816,
      "Ġ1129": 4817,
      "Ġghost": 4818,
      "Ġ1411": 4819,
      "ĠHol": 4820,
      "Ġshowed": 4821,
      "ini": 4822,
      "Ġweren": 4823,
      "Ġ1465": 4824,
      "Ġcritic": 4825,
      "Ġ1484": 4826,
      "Ġ933": 4827,
      "Ġjump": 4828,
      "Ġ1053": 4829,
      "Ġvalues": 4830,
      "Ġauth": 4831,
      "Ġimpressive": 4832,
      "reaking": 4833,
      "Ġ1474": 4834,
      "Ġ1493": 4835,
      "Ġcontinu": 4836,
      "Ġhang": 4837,
      "Ġ1930": 4838,
      "Ġisland": 4839,
      "Ġ1472": 4840,
      "Ġ1328": 4841,
      "Ġgarb": 4842,
      "Ġ1107": 4843,
      "Ġ1655": 4844,
      "Ġ1152": 4845,
      "Ġthinks": 4846,
      "lessly": 4847,
      "Ġbeat": 4848,
      "Ġglad": 4849,
      "Ġnotice": 4850,
      "Ġruns": 4851,
      "Ġdrug": 4852,
      "Ġ1082": 4853,
      "Ġrand": 4854,
      "Ġ1553": 4855,
      "Ġmood": 4856,
      "Ġdisg": 4857,
      "Ġawesome": 4858,
      "Ġcompared": 4859,
      "Ġ1373": 4860,
      "Ġ1576": 4861,
      "Ġimages": 4862,
      "Ġbomb": 4863,
      "Ġ1468": 4864,
      "Ġ1032": 4865,
      "Ġ1496": 4866,
      "Ġ829": 4867,
      "Ġ1366": 4868,
      "riff": 4869,
      "Ġ989": 4870,
      "Ġtrack": 4871,
      "Ġ1464": 4872,
      "Ġissues": 4873,
      "Ġslasher": 4874,
      "Ġ1355": 4875,
      "ĠCity": 4876,
      "Ġtough": 4877,
      "Ġgovern": 4878,
      "Ġ1307": 4879,
      "Ġkick": 4880,
      "Ġfailed": 4881,
      "Ġproduct": 4882,
      "POIL": 4883,
      "Ġearth": 4884,
      "ottom": 4885,
      "Ġ1505": 4886,
      "arm": 4887,
      "Ġsuddenly": 4888,
      "you": 4889,
      "Ġ1573": 4890,
      "ĠPark": 4891,
      "Ġchemistry": 4892,
      "Well": 4893,
      "Ġbarely": 4894,
      "ify": 4895,
      "Ġ1463": 4896,
      "Ġ1483": 4897,
      "Ġbooks": 4898,
      "Ġ1535": 4899,
      "rian": 4900,
      "Ġ959": 4901,
      "Ġ1494": 4902,
      "under": 4903,
      "Ġ1399": 4904,
      "Ġ1348": 4905,
      "Ġ1492": 4906,
      "Ġrepl": 4907,
      "iring": 4908,
      "ĠBoy": 4909,
      "Ġbasic": 4910,
      "Ġoccur": 4911,
      "Ġ1140": 4912,
      "ĠHitch": 4913,
      "making": 4914,
      "just": 4915,
      "Ġ1323": 4916,
      "that": 4917,
      "Ġcirc": 4918,
      "Ġ1079": 4919,
      "Ġ1502": 4920,
      "rem": 4921,
      "Ġ1071": 4922,
      "Ġ1151": 4923,
      "cond": 4924,
      "Ġ1479": 4925,
      "Ġ1511": 4926,
      "Ġrede": 4927,
      "POILER": 4928,
      "After": 4929,
      "erm": 4930,
      "part": 4931,
      "Ġ1187": 4932,
      "Ġ1167": 4933,
      "Ġ1412": 4934,
      "Ġship": 4935,
      "Ġroll": 4936,
      "***": 4937,
      "Ġ1161": 4938,
      "ales": 4939,
      "Ġ1433": 4940,
      "Ġpun": 4941,
      "iche": 4942,
      "Ġaffect": 4943,
      "Ġavail": 4944,
      "Ġsympat": 4945,
      "Ġdisturbing": 4946,
      "mm": 4947,
      "Ġpract": 4948,
      "Ġnormal": 4949,
      "ĠAg": 4950,
      "Ġcause": 4951,
      "Ġ1068": 4952,
      "Ġ1365": 4953,
      "ĠMary": 4954,
      "ders": 4955,
      "Ġ930": 4956,
      "Ġ1090": 4957,
      "Ġability": 4958,
      "Ġ1180": 4959,
      "Ġrandom": 4960,
      "Ġ1473": 4961,
      "Ġ1425": 4962,
      "face": 4963,
      "Ġ1274": 4964,
      "Ġ1388": 4965,
      "Ġkills": 4966,
      "uk": 4967,
      "Ġpack": 4968,
      "ensive": 4969,
      "Ġbull": 4970,
      "Ġ1189": 4971,
      "Ġ1453": 4972,
      "Ġcompe": 4973,
      "Ġgenius": 4974,
      "Ġ1190": 4975,
      "stit": 4976,
      "Ġneither": 4977,
      "Ġ1246": 4978,
      "Ġ1602": 4979,
      "ĠGold": 4980,
      "Ġappearance": 4981,
      "Ġthreat": 4982,
      "Ġ1191": 4983,
      "Ġoffice": 4984,
      "Ġsmart": 4985,
      "Ġprogram": 4986,
      "Ġ1435": 4987,
      "oop": 4988,
      "Ġconclusion": 4989,
      "Ġinsult": 4990,
      "ĠAngel": 4991,
      "Ġunex": 4992,
      "Ġstudio": 4993,
      "Ġbase": 4994,
      "Ġleaving": 4995,
      "Ġgarbage": 4996,
      "Ġdoor": 4997,
      "Ġ1038": 4998,
      "Ġ1130": 4999,
      "Ġtaste": 5000,
      "Ġbaby": 5001,
      "riage": 5002,
      "Ġ1142": 5003,
      "Ġfavour": 5004,
      "Ġ1564": 5005,
      "aug": 5006,
      "Ġspect": 5007,
      "Ġsuc": 5008,
      "ĠJones": 5009,
      "Ġ1077": 5010,
      "Ġjo": 5011,
      "Ġamateur": 5012,
      "Ġimpossible": 5013,
      "Ġshooting": 5014,
      "night": 5015,
      "Ġ1416": 5016,
      "iles": 5017,
      "lyn": 5018,
      "Ġaccur": 5019,
      "Ġforce": 5020,
      "epend": 5021,
      "Ġcarry": 5022,
      "Ġ1136": 5023,
      "Ġbought": 5024,
      "Ġ1402": 5025,
      "Ġ1519": 5026,
      "ĠRed": 5027,
      "Ġ986": 5028,
      "Ġ1120": 5029,
      "irth": 5030,
      "Ġroad": 5031,
      "Ġpresence": 5032,
      "ceived": 5033,
      "Ġ1514": 5034,
      "awn": 5035,
      "Ġconsidered": 5036,
      "Ġimmediately": 5037,
      "lict": 5038,
      "Ġ1543": 5039,
      "Ġ1051": 5040,
      "ressing": 5041,
      "Ġsucceed": 5042,
      "house": 5043,
      "Ġcold": 5044,
      "Ġ1392": 5045,
      "Ġ931": 5046,
      "iven": 5047,
      "tr": 5048,
      "Ġ1182": 5049,
      "Ġ1455": 5050,
      "Ġrespons": 5051,
      "vert": 5052,
      "aled": 5053,
      "now": 5054,
      "Ġ1418": 5055,
      "Ġ1574": 5056,
      "Ġalien": 5057,
      "Ġ1207": 5058,
      "Ġ1238": 5059,
      "rank": 5060,
      "Ġflashback": 5061,
      "aining": 5062,
      "ander": 5063,
      "ondon": 5064,
      "exic": 5065,
      "ropri": 5066,
      "Ġ1423": 5067,
      "she": 5068,
      "aff": 5069,
      "Ġ1299": 5070,
      "Ġstreet": 5071,
      "Ġ980": 5072,
      "Ġconsidering": 5073,
      "anda": 5074,
      "Ġredeem": 5075,
      "Ġ1021": 5076,
      "Ġsuit": 5077,
      "Ġ1160": 5078,
      "Ġdrink": 5079,
      "Ġ1131": 5080,
      "Ġindust": 5081,
      "Ġ1158": 5082,
      "ands": 5083,
      "Ġtrash": 5084,
      "ĠStre": 5085,
      "ĠBig": 5086,
      "Ġfresh": 5087,
      "Ġ1488": 5088,
      "Ġ1524": 5089,
      "itles": 5090,
      "Ġ1528": 5091,
      "Ġ1565": 5092,
      "Ġ1583": 5093,
      "ĠJane": 5094,
      "ability": 5095,
      "ham": 5096,
      "Ġcomputer": 5097,
      "Ġ1138": 5098,
      "Ġfat": 5099,
      "Ġevid": 5100,
      "Ġplaces": 5101,
      "Jo": 5102,
      "Ġ1495": 5103,
      "Ġ1592": 5104,
      "Ġ1555": 5105,
      "Ġaudiences": 5106,
      "Ġclot": 5107,
      "icated": 5108,
      "Ġstandard": 5109,
      "Ġ1612": 5110,
      "Ġnatural": 5111,
      "Ġheavy": 5112,
      "Ġgod": 5113,
      "Ġultimately": 5114,
      "heart": 5115,
      "Ġlikely": 5116,
      "abor": 5117,
      "Ġsinging": 5118,
      "Ġ1368": 5119,
      "Ġ1698": 5120,
      "Ġ1719": 5121,
      "estival": 5122,
      "Ġfashion": 5123,
      "Ġ1609": 5124,
      "Ġtwists": 5125,
      "ĠMartin": 5126,
      "Ġuns": 5127,
      "ĠCharles": 5128,
      "Ġ1708": 5129,
      "Ġalive": 5130,
      "Ġ1147": 5131,
      "Ġrevenge": 5132,
      "Ġ1595": 5133,
      "Ġ1716": 5134,
      "Ġ858": 5135,
      "Ġ1162": 5136,
      "win": 5137,
      "Ġgrap": 5138,
      "ths": 5139,
      "ĠAfric": 5140,
      "Ġ1393": 5141,
      "036": 5142,
      "Ġdin": 5143,
      "Ġloud": 5144,
      "essed": 5145,
      "048": 5146,
      "Ġhost": 5147,
      "Ġ1613": 5148,
      "Ġadded": 5149,
      "Ġchanges": 5150,
      "ĠSmith": 5151,
      "ĠBruce": 5152,
      "Ġ1156": 5153,
      "Ġ1288": 5154,
      "irt": 5155,
      "Ġintrigu": 5156,
      "Ġ1203": 5157,
      "Ġ1765": 5158,
      "ĠMiss": 5159,
      "ĠNor": 5160,
      "Ġride": 5161,
      "played": 5162,
      "Ġconflict": 5163,
      "ĠCor": 5164,
      "Ġ1517": 5165,
      "Ġ1596": 5166,
      "Ġ1625": 5167,
      "Ġmult": 5168,
      "illing": 5169,
      "Ġmanaged": 5170,
      "Ġcomedies": 5171,
      "Ġ1386": 5172,
      "We": 5173,
      "ĠX": 5174,
      "Ġtend": 5175,
      "Ġ1197": 5176,
      "Ġ1271": 5177,
      "uper": 5178,
      "Ġsexy": 5179,
      "Ġmagic": 5180,
      "Ġbuilding": 5181,
      "itude": 5182,
      "vey": 5183,
      "ief": 5184,
      "Ġokay": 5185,
      "Ġ1407": 5186,
      "Ġdestroy": 5187,
      "ĠPerhaps": 5188,
      "Ġutterly": 5189,
      "field": 5190,
      "Ġ1706": 5191,
      "ĠRay": 5192,
      "Ġthrown": 5193,
      "anna": 5194,
      "Ġ1201": 5195,
      "Ġboyfriend": 5196,
      "stem": 5197,
      "Ġterms": 5198,
      "ĠMexic": 5199,
      "Ġgag": 5200,
      "Ġ1619": 5201,
      "ĠTim": 5202,
      "Ġauthor": 5203,
      "ID": 5204,
      "Ġtrip": 5205,
      "ĠThom": 5206,
      "Ġavailable": 5207,
      "Ġstarring": 5208,
      "Ġimpression": 5209,
      "Ġ1242": 5210,
      "Ġ1668": 5211,
      "Ġ1685": 5212,
      "ĠBur": 5213,
      "Ġ843": 5214,
      "Ġ1359": 5215,
      "ĠEarth": 5216,
      "Ġclimax": 5217,
      "Ġneigh": 5218,
      "oking": 5219,
      "set": 5220,
      "itions": 5221,
      "ĠHigh": 5222,
      "ĠWay": 5223,
      "Ġnowhere": 5224,
      "Ġstunning": 5225,
      "\".<": 5226,
      "Ġdig": 5227,
      "Ġ1221": 5228,
      "Ġ1257": 5229,
      "LL": 5230,
      "Ġ1345": 5231,
      "Ġ1616": 5232,
      "Ġhistorical": 5233,
      "ĠAlex": 5234,
      "elling": 5235,
      "Ġloves": 5236,
      "Ġapproach": 5237,
      "ison": 5238,
      "Ġ1515": 5239,
      "Ġcinematic": 5240,
      "illa": 5241,
      "ĠLondon": 5242,
      "Ġadventure": 5243,
      "Ġ1644": 5244,
      "Ġ1579": 5245,
      "Ġ1675": 5246,
      "Ġdemon": 5247,
      "Ġwitness": 5248,
      "Ġdro": 5249,
      "Ġchall": 5250,
      "anted": 5251,
      "ividu": 5252,
      "mb": 5253,
      "Ġ1251": 5254,
      "046": 5255,
      "Ġappeal": 5256,
      "Ġsuppose": 5257,
      "lease": 5258,
      "Ġgem": 5259,
      "Ġprep": 5260,
      "Ġteacher": 5261,
      "Ġ1170": 5262,
      "Ġ1127": 5263,
      "Ġaddition": 5264,
      "Ġgenerally": 5265,
      "Ġliterally": 5266,
      "esides": 5267,
      "Ġ1056": 5268,
      "film": 5269,
      "Ġ1578": 5270,
      "To": 5271,
      "budget": 5272,
      "Ġ1672": 5273,
      "Ġ1237": 5274,
      "Ġdetails": 5275,
      "Ġtone": 5276,
      "rel": 5277,
      "Ġgovernment": 5278,
      "gue": 5279,
      "Ġhy": 5280,
      "Ġ1508": 5281,
      "Ġemotions": 5282,
      "aa": 5283,
      "ĠMel": 5284,
      "That": 5285,
      "Ġ1347": 5286,
      "ledge": 5287,
      "Ġmysterious": 5288,
      "Ġconstantly": 5289,
      "Ġ1615": 5290,
      "Ġremains": 5291,
      "Ġ1247": 5292,
      "Ġ1709": 5293,
      "ĠYe": 5294,
      "Ġprotagon": 5295,
      "Ġinflu": 5296,
      "Ġsitting": 5297,
      "opher": 5298,
      "Ġ1683": 5299,
      "Ġ1665": 5300,
      "Ġplus": 5301,
      "Ġ1262": 5302,
      "Ġ1277": 5303,
      "Ġ1229": 5304,
      "aine": 5305,
      "mes": 5306,
      "Ġ1608": 5307,
      "First": 5308,
      "Ġscience": 5309,
      "ĠRobin": 5310,
      "Ġinnocent": 5311,
      "wart": 5312,
      "Ġ1486": 5313,
      "ĠSci": 5314,
      "ĠBro": 5315,
      "Ġmilitary": 5316,
      "Ġ1568": 5317,
      "ĠRock": 5318,
      "Ġemotion": 5319,
      "Ġ1485": 5320,
      "Ġcommer": 5321,
      "Ġescap": 5322,
      "Ġdancing": 5323,
      "Ġ1544": 5324,
      "Ġ1377": 5325,
      "ĠCharlie": 5326,
      "Ġcuri": 5327,
      "Ġ1713": 5328,
      "ploy": 5329,
      "Ġbeautifully": 5330,
      "Ġ1526": 5331,
      "Ġterrific": 5332,
      "ena": 5333,
      "ĠCG": 5334,
      "Ġ1572": 5335,
      "Ġscenery": 5336,
      "Ġ1252": 5337,
      "Ġ1635": 5338,
      "ĠDou": 5339,
      "Ġputs": 5340,
      "Ġcostumes": 5341,
      "Ġsilent": 5342,
      "uel": 5343,
      "Ġ1973": 5344,
      "idden": 5345,
      "Ġ1684": 5346,
      "Ġ1231": 5347,
      "Ġ1269": 5348,
      "Ġoffer": 5349,
      "Ġ1696": 5350,
      "Ġ1653": 5351,
      "Ġ1336": 5352,
      "ĠStill": 5353,
      "Ġpainful": 5354,
      "Ġsurprisingly": 5355,
      "Ġnames": 5356,
      "good": 5357,
      "Ġ1679": 5358,
      "Ġtouching": 5359,
      "Ġmakers": 5360,
      "aries": 5361,
      "Ġ1728": 5362,
      "Ġ2006": 5363,
      "ĠChristmas": 5364,
      "Ġ!": 5365,
      "appy": 5366,
      "ĠAdam": 5367,
      "Ġjourney": 5368,
      "Ġboss": 5369,
      "orts": 5370,
      "Ġdescrib": 5371,
      "uous": 5372,
      "Ġgold": 5373,
      "Ġsomewhere": 5374,
      "He": 5375,
      "ĠST": 5376,
      "Ġphotography": 5377,
      "Ġloose": 5378,
      "Ġrace": 5379,
      "ivil": 5380,
      "Ġcentury": 5381,
      "Ġ1624": 5382,
      "Ġdiscuss": 5383,
      "IT": 5384,
      "aus": 5385,
      "Ġ1220": 5386,
      "Ġ1398": 5387,
      "Ġ1341": 5388,
      "Ġthrow": 5389,
      "Ġindividu": 5390,
      "Ġ1960": 5391,
      "Ġsurround": 5392,
      "Ġzombie": 5393,
      "oices": 5394,
      "Ġcharm": 5395,
      "Ġ1329": 5396,
      "aint": 5397,
      "Ġintended": 5398,
      "Ġ1337": 5399,
      "Ġpassion": 5400,
      "Ġnarrative": 5401,
      "Ġlegend": 5402,
      "oh": 5403,
      "Ġ1548": 5404,
      "Ġ1692": 5405,
      "Ġ1626": 5406,
      "Ġ1254": 5407,
      "Ġ1259": 5408,
      "inn": 5409,
      "Ġpresented": 5410,
      "Ġ1249": 5411,
      "Ġlaughable": 5412,
      "Ġ1290": 5413,
      "Ġ1695": 5414,
      "Ġ1645": 5415,
      "Ġ1988": 5416,
      "asty": 5417,
      "aven": 5418,
      "Ġast": 5419,
      "Ġdrive": 5420,
      "Ġunbelievable": 5421,
      "Ġ1618": 5422,
      "Ġ1744": 5423,
      "Ġspec": 5424,
      "Ġcharming": 5425,
      "Ġ1611": 5426,
      "Some": 5427,
      "Ġ1440": 5428,
      "Ġ1990": 5429,
      "ift": 5430,
      "Ġintern": 5431,
      "Ġhoping": 5432,
      "Ġaffair": 5433,
      "Ġ1605": 5434,
      "Ġanimated": 5435,
      "ĠTer": 5436,
      "ĠCr": 5437,
      "ken": 5438,
      "Ġdim": 5439,
      "Ġna": 5440,
      "Ġhappening": 5441,
      "Ġfully": 5442,
      "Ġkey": 5443,
      "Ġsoldiers": 5444,
      "Ġ1154": 5445,
      "ras": 5446,
      "Ġ1715": 5447,
      "Ġobject": 5448,
      "ugg": 5449,
      "Ġbi": 5450,
      "Ġdisappointing": 5451,
      "Ġslowly": 5452,
      "Ġlovely": 5453,
      "Ġstands": 5454,
      "Ġ1735": 5455,
      "Ġlength": 5456,
      "ĠHitchcock": 5457,
      "unting": 5458,
      "itor": 5459,
      "Ġ1281": 5460,
      "Ġ1545": 5461,
      "Ġ1289": 5462,
      "Ġ1321": 5463,
      "Ġrecommended": 5464,
      "Ġsystem": 5465,
      "Ġfeelings": 5466,
      "ern": 5467,
      "Ġ1775": 5468,
      "Ġaspects": 5469,
      "Ġ1664": 5470,
      "Ġspot": 5471,
      "ĠStep": 5472,
      "Ġinit": 5473,
      "Ġresem": 5474,
      "Ġ1230": 5475,
      "Ġfaith": 5476,
      "Ġ1978": 5477,
      "Ġknowing": 5478,
      "Ġ1282": 5479,
      "olic": 5480,
      "entially": 5481,
      "Ġ2009": 5482,
      "ribe": 5483,
      "Ġ1499": 5484,
      "Ġ1995": 5485,
      "ĠHard": 5486,
      "Ġ1356": 5487,
      "ita": 5488,
      "ĠBel": 5489,
      "ĠRE": 5490,
      "arsh": 5491,
      "Ġopportunity": 5492,
      "Ġsix": 5493,
      "Ġ1270": 5494,
      "Ġ1718": 5495,
      "Ġacts": 5496,
      "Ġ1663": 5497,
      "rick": 5498,
      "Ġdad": 5499,
      "Ġ1773": 5500,
      "ples": 5501,
      "Ġabsurd": 5502,
      "Ġstudent": 5503,
      "Ġmedioc": 5504,
      "Ġ1533": 5505,
      "Ġ1873": 5506,
      "Ġ1917": 5507,
      "Ġpieces": 5508,
      "Ġ1604": 5509,
      "Ġ1933": 5510,
      "Ġ1256": 5511,
      "018": 5512,
      "AC": 5513,
      "Ġ1286": 5514,
      "ural": 5515,
      "what": 5516,
      "icide": 5517,
      "Ġexpectations": 5518,
      "Ġimpl": 5519,
      "eral": 5520,
      "Ġ1623": 5521,
      "Ġencoun": 5522,
      "Ġ1588": 5523,
      "Ġfilming": 5524,
      "ooks": 5525,
      "Ġfinish": 5526,
      "Ġ1726": 5527,
      "aches": 5528,
      "Ġ1227": 5529,
      "Ġmarriage": 5530,
      "Ġ1606": 5531,
      ".....": 5532,
      "ĠDirector": 5533,
      "ĠHam": 5534,
      "Ġdrunk": 5535,
      "bad": 5536,
      "Ġ2000": 5537,
      "Ġthemes": 5538,
      "Ġdisappointment": 5539,
      "Ġflicks": 5540,
      "Ġ1575": 5541,
      "034": 5542,
      "ĠHouse": 5543,
      "Ġ1261": 5544,
      "ĠMoo": 5545,
      "Ġbehavi": 5546,
      "?!": 5547,
      "ĠParis": 5548,
      "text": 5549,
      "Ġexception": 5550,
      "ospital": 5551,
      "Now": 5552,
      "Ġ2005": 5553,
      "ision": 5554,
      "Ġburn": 5555,
      "Ġ1448": 5556,
      "Ġ1614": 5557,
      "sey": 5558,
      "ĠBest": 5559,
      "Ġ1157": 5560,
      "Ġdetective": 5561,
      "ĠStan": 5562,
      "Ġmistake": 5563,
      "ĠSure": 5564,
      "Ġ1342": 5565,
      "Ġtired": 5566,
      "Ġ1845": 5567,
      "ached": 5568,
      "ĠOnly": 5569,
      "Ġ1745": 5570,
      "Ġdate": 5571,
      "Ġ1976": 5572,
      "Ġ1340": 5573,
      "Ġ1357": 5574,
      "Ġmoral": 5575,
      "Ġintense": 5576,
      "Ġartist": 5577,
      "Ġadaptation": 5578,
      "Ġ1509": 5579,
      "024": 5580,
      "Ġoutstanding": 5581,
      "Ġlacks": 5582,
      "ĠSteve": 5583,
      "IG": 5584,
      "oom": 5585,
      "Ġ1774": 5586,
      "ĠSand": 5587,
      "ĠBad": 5588,
      "Ġ1975": 5589,
      "Ġequally": 5590,
      "ka": 5591,
      "Ġsoft": 5592,
      "Ġrip": 5593,
      "Ġ1876": 5594,
      "Ġpil": 5595,
      "Ġlikable": 5596,
      "Ġdies": 5597,
      "Ġ1280": 5598,
      "Ġ1622": 5599,
      "Ġ1799": 5600,
      "Ġpictures": 5601,
      "BC": 5602,
      "ns": 5603,
      "Ġ1331": 5604,
      "Ġexcuse": 5605,
      "Ġmillion": 5606,
      "OV": 5607,
      "ĠGen": 5608,
      "Ġprocess": 5609,
      "hand": 5610,
      "Ġ1320": 5611,
      "Ġfascinating": 5612,
      "Ġaf": 5613,
      "oned": 5614,
      "Ġ1512": 5615,
      "ilities": 5616,
      "Ġ1768": 5617,
      "Ġlived": 5618,
      "Ġdisaster": 5619,
      "Ġ1676": 5620,
      "Ġvictims": 5621,
      "Ġtradition": 5622,
      "Ġinclude": 5623,
      "dis": 5624,
      "Ġ1287": 5625,
      "Ġadds": 5626,
      "Ġvirt": 5627,
      "Ġ1776": 5628,
      "onna": 5629,
      "Ġ1241": 5630,
      "ĠBecause": 5631,
      "Ġ1343": 5632,
      "Ġ1390": 5633,
      "ĠLi": 5634,
      "gett": 5635,
      "ĠAnother": 5636,
      "ictor": 5637,
      "Ġ1291": 5638,
      "ĠPol": 5639,
      "ode": 5640,
      "ĠAllen": 5641,
      "Ġ1381": 5642,
      "ĠCal": 5643,
      "Ġ1466": 5644,
      "Ġener": 5645,
      "Ġfault": 5646,
      "Ġwalking": 5647,
      "Ġ1500": 5648,
      "Ġ1566": 5649,
      "Ġ1617": 5650,
      "Ġ1986": 5651,
      "Ġ1338": 5652,
      "aughed": 5653,
      "oved": 5654,
      "Ġmouth": 5655,
      "Ġ1928": 5656,
      "Ġ1940": 5657,
      "Ġproper": 5658,
      "odies": 5659,
      "Ġmagn": 5660,
      "arp": 5661,
      "Ġ1047": 5662,
      "Ġ1855": 5663,
      "Ġ1354": 5664,
      "Ġ1389": 5665,
      "Ġ1382": 5666,
      "Ġcell": 5667,
      "Ġ1864": 5668,
      "Ġserial": 5669,
      "ĠJoan": 5670,
      "Ġ1369": 5671,
      "Ġ1584": 5672,
      "Ġqual": 5673,
      "Ġ1352": 5674,
      "rend": 5675,
      "ops": 5676,
      "Ġfolks": 5677,
      "Ġserv": 5678,
      "Re": 5679,
      "erous": 5680,
      "Ġ1674": 5681,
      "Ġ1796": 5682,
      "Ġstuck": 5683,
      "042": 5684,
      "Ġdread": 5685,
      "Ġdeveloped": 5686,
      "Ġdisgust": 5687,
      "Ġ1297": 5688,
      "Ġ1678": 5689,
      "Ġ1772": 5690,
      "abe": 5691,
      "Ġ1339": 5692,
      "Ġremote": 5693,
      "Ġproducer": 5694,
      "Ġrelationships": 5695,
      "life": 5696,
      "Sh": 5697,
      "Un": 5698,
      "Ġ1806": 5699,
      "Ġconfusing": 5700,
      "Ġfaces": 5701,
      "ĠIr": 5702,
      "014": 5703,
      "port": 5704,
      "Ġ1594": 5705,
      "Ġ1694": 5706,
      "ĠWhere": 5707,
      "Ġnews": 5708,
      "pret": 5709,
      "Ġ1149": 5710,
      "Ġ1134": 5711,
      "gar": 5712,
      "illed": 5713,
      "Ġ1200": 5714,
      "urch": 5715,
      "Ġ1239": 5716,
      "writer": 5717,
      "Ġ1905": 5718,
      "Ġsett": 5719,
      "xual": 5720,
      "Ġ1529": 5721,
      "ĠJeff": 5722,
      "pr": 5723,
      "ica": 5724,
      "Ġnaked": 5725,
      "Ġstudents": 5726,
      "Ġ1965": 5727,
      "Ġ1330": 5728,
      "Ġcurrent": 5729,
      "ĠRy": 5730,
      "Ġcontains": 5731,
      "Ġdisappe": 5732,
      "Ġ1985": 5733,
      "Ġ1945": 5734,
      "odram": 5735,
      "Ġ1334": 5736,
      "Ġ1912": 5737,
      "inese": 5738,
      "ja": 5739,
      "Ġlaughed": 5740,
      "Ġ1710": 5741,
      "Ġlover": 5742,
      "Ġfiction": 5743,
      "Ġ1743": 5744,
      "023": 5745,
      "Ġimpressed": 5746,
      "ĠMcC": 5747,
      "ĠHenry": 5748,
      "Ġ1267": 5749,
      "Ġ1983": 5750,
      "Ġallowed": 5751,
      "Oh": 5752,
      "inally": 5753,
      "Ġ1666": 5754,
      "Ġ1712": 5755,
      "Ġ1808": 5756,
      "Ġbrothers": 5757,
      "Ġnegative": 5758,
      "arant": 5759,
      "Ġconfused": 5760,
      "miss": 5761,
      "Ġ1349": 5762,
      "ĠRog": 5763,
      "Ġcontent": 5764,
      "Ġprim": 5765,
      "ĠPeople": 5766,
      "ĠAustral": 5767,
      "aly": 5768,
      "ĠCanad": 5769,
      "IC": 5770,
      "ss": 5771,
      "Ġ1818": 5772,
      "Ġ1964": 5773,
      "Ġindustry": 5774,
      "lor": 5775,
      "Ġfright": 5776,
      "ĠChristian": 5777,
      "ĠSee": 5778,
      "Ġlif": 5779,
      "asing": 5780,
      "Ġ1968": 5781,
      "ĠDay": 5782,
      "Ġseemingly": 5783,
      "ĠYet": 5784,
      "Ġtrag": 5785,
      "Ġ1755": 5786,
      "Ġ1250": 5787,
      "Ġ1916": 5788,
      "Ġrepresent": 5789,
      "Ġdelivers": 5790,
      "015": 5791,
      "lock": 5792,
      "Ġnumb": 5793,
      "Ġ1798": 5794,
      "Ġ1824": 5795,
      "Ġ1935": 5796,
      "Ġ1955": 5797,
      "ĠJean": 5798,
      "Ġfinding": 5799,
      "Ġindepend": 5800,
      "Ġgiant": 5801,
      "Ġkidn": 5802,
      "Americ": 5803,
      "Ġ2004": 5804,
      "ĠOverall": 5805,
      "omething": 5806,
      "Ġ1764": 5807,
      "Ġoppos": 5808,
      "Ġ1813": 5809,
      "Ġ1391": 5810,
      "Ġ1875": 5811,
      "Ġbreath": 5812,
      "Ġ1804": 5813,
      "Ġ1979": 5814,
      "lled": 5815,
      "Ġ1570": 5816,
      "Ġ1992": 5817,
      "osh": 5818,
      "While": 5819,
      "Ġ1610": 5820,
      "Ġunus": 5821,
      "Ġworthy": 5822,
      "Ġ1401": 5823,
      "Ġshare": 5824,
      "Ġedge": 5825,
      "De": 5826,
      "Ġrout": 5827,
      "Ġquiet": 5828,
      "ium": 5829,
      "Ġ1234": 5830,
      "Ġirrit": 5831,
      "Overall": 5832,
      "Ġdi": 5833,
      "Ġ1539": 5834,
      "uts": 5835,
      "ĠJew": 5836,
      "Ġfalling": 5837,
      "ĠMoore": 5838,
      "With": 5839,
      "Ġpaid": 5840,
      "ĠWest": 5841,
      "039": 5842,
      "Ġconvers": 5843,
      "Ġdifference": 5844,
      "Ġ1451": 5845,
      "Ġug": 5846,
      "Ġ1814": 5847,
      "035": 5848,
      "Ġ1436": 5849,
      "sl": 5850,
      "ators": 5851,
      "ĠMore": 5852,
      "inct": 5853,
      "avis": 5854,
      "Ġ2014": 5855,
      "Ġ2002": 5856,
      "ĠMark": 5857,
      "istent": 5858,
      "compl": 5859,
      "Ġoffers": 5860,
      "Ġdrawn": 5861,
      "Ġbecoming": 5862,
      "Ġflaws": 5863,
      "Ġmulti": 5864,
      "Ġ1786": 5865,
      "ĠSouth": 5866,
      "Ġchase": 5867,
      "agger": 5868,
      "orgeous": 5869,
      "ores": 5870,
      "ustr": 5871,
      "Ġ1430": 5872,
      "Ġ1998": 5873,
      "Ġ1258": 5874,
      "ĠSad": 5875,
      "ĠBilly": 5876,
      "Ġhighlight": 5877,
      "Ġclean": 5878,
      "At": 5879,
      "Ġla": 5880,
      "Ġ1872": 5881,
      "see": 5882,
      "ĠWW": 5883,
      "Ġ1300": 5884,
      "Ġ1723": 5885,
      "Ġ1914": 5886,
      "Ġ1906": 5887,
      "pected": 5888,
      "ĠAmericans": 5889,
      "ser": 5890,
      "017": 5891,
      "Ġ1506": 5892,
      "Ġ1812": 5893,
      "ĠChris": 5894,
      "Ġmerely": 5895,
      "Ġ1788": 5896,
      "Ġanymore": 5897,
      "Ġholes": 5898,
      "anic": 5899,
      "Ġhasn": 5900,
      "Ġ1993": 5901,
      "oughly": 5902,
      "Ġ1057": 5903,
      "Ġ****": 5904,
      "Ġ1597": 5905,
      "Ġ1673": 5906,
      "Ġsight": 5907,
      "Ġhospital": 5908,
      "IE": 5909,
      "ta": 5910,
      "Ġinformation": 5911,
      "Ġ1480": 5912,
      "ĠTony": 5913,
      "Ġ1885": 5914,
      "Ġwondering": 5915,
      "Ġdouble": 5916,
      "ishes": 5917,
      "Ġble": 5918,
      "Ġ1868": 5919,
      "iding": 5920,
      "Ġ1816": 5921,
      "Ġcritics": 5922,
      "Ġhonestly": 5923,
      "Ġcompelling": 5924,
      "aded": 5925,
      "ĠLet": 5926,
      "Ġthank": 5927,
      "Ġactresses": 5928,
      "stein": 5929,
      "Ġspectac": 5930,
      "013": 5931,
      "Ġ1387": 5932,
      "Ġ1943": 5933,
      "cur": 5934,
      "Ġ1139": 5935,
      "Ġ1159": 5936,
      "Ġ1450": 5937,
      "ĠNaz": 5938,
      "Ġ1439": 5939,
      "Ġcorrect": 5940,
      "Ġmart": 5941,
      "ĠTwo": 5942,
      "azz": 5943,
      "ament": 5944,
      "ession": 5945,
      "Ġ1350": 5946,
      "Ġ1358": 5947,
      "Ġ1367": 5948,
      "Ġ2008": 5949,
      "Ġseg": 5950,
      "abl": 5951,
      "Ġ1996": 5952,
      "ĠNothing": 5953,
      "Ġhig": 5954,
      "ĠVery": 5955,
      "gettable": 5956,
      "father": 5957,
      "Ġ1628": 5958,
      "Ġlocation": 5959,
      "cons": 5960,
      "Ġ1913": 5961,
      "Ġstation": 5962,
      "Ġeverybody": 5963,
      "Ġforgotten": 5964,
      "Ġphotograp": 5965,
      "Ġgri": 5966,
      "Ġ1999": 5967,
      "Ġjoy": 5968,
      "ĠEast": 5969,
      "Ġ1558": 5970,
      "Ġ1944": 5971,
      "ading": 5972,
      "ules": 5973,
      "Ġsymb": 5974,
      "Ġinspired": 5975,
      "rough": 5976,
      "Ġpen": 5977,
      "icious": 5978,
      "year": 5979,
      "Ġprovides": 5980,
      "ĠJason": 5981,
      "Ġ1181": 5982,
      "Ġahead": 5983,
      "Ġ1693": 5984,
      "Ġ1784": 5985,
      "Ġ1902": 5986,
      "Ġfort": 5987,
      "Ġ1437": 5988,
      "Ġmainly": 5989,
      "elebr": 5990,
      "do": 5991,
      "Ġ1883": 5992,
      "Ġ1794": 5993,
      "ĠEr": 5994,
      "Ġappeared": 5995,
      "Ġlighting": 5996,
      "Ġforever": 5997,
      "Ġ1825": 5998,
      "ĠAnt": 5999,
      "ville": 6000,
      "raid": 6001,
      "Ġimage": 6002,
      "Ġpersonality": 6003,
      "Ġelement": 6004,
      "Ġden": 6005,
      "gged": 6006,
      "Bl": 6007,
      "Ġ1888": 6008,
      "Ġcomparis": 6009,
      "ech": 6010,
      "Ġ1087": 6011,
      "Ġimpact": 6012,
      "Ġhelps": 6013,
      "ĠBat": 6014,
      "agers": 6015,
      "Ġwilling": 6016,
      "Ġrented": 6017,
      "Ġreminded": 6018,
      "ĠAb": 6019,
      "oted": 6020,
      "Ġ1815": 6021,
      "Ġweap": 6022,
      "Any": 6023,
      "Ġ1909": 6024,
      "Ġ1974": 6025,
      "Ġshouldn": 6026,
      "ĠBrother": 6027,
      "ĠThough": 6028,
      "Ġmelodram": 6029,
      "Ġ1894": 6030,
      "Ġdesert": 6031,
      "ĠWilliams": 6032,
      "Ġtragic": 6033,
      "Ġapartment": 6034,
      "Ġ1530": 6035,
      "Ġ1966": 6036,
      "ĠDu": 6037,
      "Ġ1843": 6038,
      "Ġ1963": 6039,
      "Ġ2028": 6040,
      "ĠWestern": 6041,
      "arded": 6042,
      "mark": 6043,
      "pre": 6044,
      "ĠVin": 6045,
      "Ġcrow": 6046,
      "Ġadults": 6047,
      "Ġattractive": 6048,
      "Ġfunniest": 6049,
      "zen": 6050,
      "ĠGo": 6051,
      "apped": 6052,
      "Ġexplan": 6053,
      "orter": 6054,
      "Ġgorgeous": 6055,
      "Ġanswer": 6056,
      "Ġnobody": 6057,
      "Ġ1972": 6058,
      "Ġ1795": 6059,
      "Ġ1826": 6060,
      "ĠCo": 6061,
      "ĠDark": 6062,
      "Ġprefer": 6063,
      "Ġnons": 6064,
      "Ġ2078": 6065,
      "Ġmarket": 6066,
      "Ġ1785": 6067,
      "Ġ2003": 6068,
      "Ġunne": 6069,
      "Ġ1557": 6070,
      "ĠChinese": 6071,
      "Ġhide": 6072,
      "Ġ1507": 6073,
      "Ġ2010": 6074,
      "gent": 6075,
      "Ġfood": 6076,
      "Ġ1322": 6077,
      "alled": 6078,
      "Ġarea": 6079,
      "resses": 6080,
      "Ġdrag": 6081,
      "Ġmotion": 6082,
      "Ġ1477": 6083,
      "Ġ1598": 6084,
      "mi": 6085,
      "Ġ1593": 6086,
      "Ġ1501": 6087,
      "ĠBond": 6088,
      "Ġzombies": 6089,
      "ĠGar": 6090,
      "Ġround": 6091,
      "ĠCGI": 6092,
      "Ġ1471": 6093,
      "Ġprovide": 6094,
      "Ġmir": 6095,
      "Ġham": 6096,
      "Ġ1822": 6097,
      "Ġonto": 6098,
      "Ġactions": 6099,
      "Ġeat": 6100,
      "Ġeight": 6101,
      "ĠBoth": 6102,
      "entional": 6103,
      "Ġmediocre": 6104,
      "asure": 6105,
      "Ġslap": 6106,
      "Ġ1809": 6107,
      "Ġ1886": 6108,
      "No": 6109,
      "requ": 6110,
      "Ġ1447": 6111,
      "Ġputting": 6112,
      "John": 6113,
      "Ġ1904": 6114,
      "esting": 6115,
      "Ġagent": 6116,
      "rupt": 6117,
      "Ġready": 6118,
      "Ġimagination": 6119,
      "rance": 6120,
      "Ġmember": 6121,
      "Ġlad": 6122,
      "ushed": 6123,
      "Ġ1643": 6124,
      "Ġ1792": 6125,
      "Ġ1844": 6126,
      "Ġ1908": 6127,
      "Ġheld": 6128,
      "abb": 6129,
      "ĠRussian": 6130,
      "bur": 6131,
      "itz": 6132,
      "stal": 6133,
      "ĠMag": 6134,
      "Ġbene": 6135,
      "ĠIS": 6136,
      "Ġ1400": 6137,
      "Ġ1489": 6138,
      "rog": 6139,
      "ĠWil": 6140,
      "Ġunreal": 6141,
      "erk": 6142,
      "Ġaside": 6143,
      "ifer": 6144,
      "ĠDun": 6145,
      "Ġdreams": 6146,
      "can": 6147,
      "Ġ1346": 6148,
      "Ġ1863": 6149,
      "ĠMike": 6150,
      "ennis": 6151,
      "ĠSteven": 6152,
      "Ġcollection": 6153,
      "Ġoh": 6154,
      "AM": 6155,
      "Ġpra": 6156,
      "ĠLew": 6157,
      "Ġunderst": 6158,
      "Ġ1193": 6159,
      "Ġ1746": 6160,
      "Ġ1925": 6161,
      "ĠTheir": 6162,
      "Ġunw": 6163,
      "soci": 6164,
      "Ġcreative": 6165,
      "AY": 6166,
      "Ġ1469": 6167,
      "Ġ1811": 6168,
      "Ġ1915": 6169,
      "ĠSl": 6170,
      "Ġ1452": 6171,
      "Ġcontinue": 6172,
      "omen": 6173,
      "Ġmurders": 6174,
      "Ġboard": 6175,
      "Ġcelebr": 6176,
      "Ġ1819": 6177,
      "Ġangry": 6178,
      "ios": 6179,
      "Ġ1920": 6180,
      "Ġ1457": 6181,
      "Ġfellow": 6182,
      ".,": 6183,
      "Ġ1586": 6184,
      "Ġnasty": 6185,
      "otes": 6186,
      "empor": 6187,
      "Ġprin": 6188,
      "Ġcraft": 6189,
      "Ġturning": 6190,
      "cr": 6191,
      "Ġ1491": 6192,
      "019": 6193,
      "Ġhook": 6194,
      "Ġ1362": 6195,
      "Ġ1434": 6196,
      "iac": 6197,
      "Ġreach": 6198,
      "Ġexplos": 6199,
      "Ġfollowed": 6200,
      "Ġtrailer": 6201,
      "ĠMus": 6202,
      "Ġsuperior": 6203,
      "Ġ1879": 6204,
      "Ġgames": 6205,
      "Ġ1470": 6206,
      "Ġ1896": 6207,
      "star": 6208,
      "Ġcoun": 6209,
      "Ġ1521": 6210,
      "Ġ1351": 6211,
      "Ġformula": 6212,
      "Ġwise": 6213,
      "Ġ1427": 6214,
      "Ġmoved": 6215,
      "Ġran": 6216,
      "Ġcommentary": 6217,
      "TV": 6218,
      "Ġaim": 6219,
      "Ġsour": 6220,
      "Ġled": 6221,
      "Ġachieve": 6222,
      "Ġdubb": 6223,
      "ooper": 6224,
      "ĠHell": 6225,
      "ĠPart": 6226,
      "Ġstandards": 6227,
      "oring": 6228,
      "Ġ1591": 6229,
      "ĠMs": 6230,
      "Ġunknown": 6231,
      "ddie": 6232,
      "Ġcal": 6233,
      "anish": 6234,
      "Ġ1397": 6235,
      "Ġ1567": 6236,
      "Ġ1603": 6237,
      "Ġ1432": 6238,
      "leep": 6239,
      "ĠHel": 6240,
      "Ġ1552": 6241,
      "ĠHoward": 6242,
      "Ġmut": 6243,
      "Ġ2074": 6244,
      "Ġwearing": 6245,
      "Ġbright": 6246,
      "Ġsurprising": 6247,
      "Ġthin": 6248,
      "Ġlatter": 6249,
      "Ġ1763": 6250,
      "Ġ2026": 6251,
      "Ġargu": 6252,
      "Ġ1360": 6253,
      "Ġknock": 6254,
      "Ġsupposedly": 6255,
      "Ġasked": 6256,
      "uh": 6257,
      "iro": 6258,
      "Ġplane": 6259,
      "soever": 6260,
      "Ġdrugs": 6261,
      "Ġ1467": 6262,
      "Ġ1600": 6263,
      "Ġ1783": 6264,
      "Ġ1977": 6265,
      "pective": 6266,
      "ancy": 6267,
      "Ġ1561": 6268,
      "Ġ1549": 6269,
      "Ġdescribe": 6270,
      "Ġ1924": 6271,
      "Ġlose": 6272,
      "ppy": 6273,
      "ropriate": 6274,
      "Ġ1923": 6275,
      "teen": 6276,
      "Ġhelped": 6277,
      "Ġpicked": 6278,
      "Ġthor": 6279,
      "Ġ1370": 6280,
      "Ġblind": 6281,
      "Ġ1607": 6282,
      "Ġ2012": 6283,
      "ĠNever": 6284,
      "Ġ1542": 6285,
      "Ġ2217": 6286,
      "Ġcentral": 6287,
      "Ġ1581": 6288,
      "oos": 6289,
      "Ġcomedic": 6290,
      "Ġ1446": 6291,
      "Ġshocking": 6292,
      "ĠAND": 6293,
      "Ġ1646": 6294,
      "ĠFe": 6295,
      "Ġ1232": 6296,
      "Ġcreature": 6297,
      "Ġpair": 6298,
      "Ġtwice": 6299,
      "azy": 6300,
      "Ġ1793": 6301,
      "Ġ2043": 6302,
      "Ġ2105": 6303,
      "Ġseconds": 6304,
      "Ġscientist": 6305,
      "Ġwide": 6306,
      "Ġ1380": 6307,
      "Ġjustice": 6308,
      "Ġproves": 6309,
      "Ġ1690": 6310,
      "Ġ1732": 6311,
      "Ġ2223": 6312,
      "ĠVictor": 6313,
      "aire": 6314,
      "Ġ2109": 6315,
      "Ġtrust": 6316,
      "Ġgrow": 6317,
      "Ġ1532": 6318,
      "ilos": 6319,
      "Ġ1984": 6320,
      "Ġwhatsoever": 6321,
      "ĠYoung": 6322,
      "Ġintriguing": 6323,
      "ĠKevin": 6324,
      "Ġintroduced": 6325,
      "Ġfavourite": 6326,
      "Ġ2096": 6327,
      "thur": 6328,
      "ĠGirl": 6329,
      "Ġemploy": 6330,
      "Ġtragedy": 6331,
      "ario": 6332,
      "Ġ1301": 6333,
      "Ġ1571": 6334,
      "Ġ1817": 6335,
      "ĠDavis": 6336,
      "add": 6337,
      "sell": 6338,
      "044": 6339,
      "Ġblond": 6340,
      "Ġ1865": 6341,
      "Ġ1846": 6342,
      "plot": 6343,
      "looking": 6344,
      "Ġ1810": 6345,
      "ĠLo": 6346,
      "umble": 6347,
      "Ġthanks": 6348,
      "Ġprofessional": 6349,
      "Ġvampire": 6350,
      "Ġconfront": 6351,
      "arget": 6352,
      "Ġ2113": 6353,
      "Ġnoir": 6354,
      "Ġbottom": 6355,
      "Ġaware": 6356,
      "Ġchildhood": 6357,
      "ĠclichÃ©s": 6358,
      "CH": 6359,
      "rors": 6360,
      "ĠGreen": 6361,
      "Ġprotect": 6362,
      "ashed": 6363,
      "Ġ1255": 6364,
      "Ġ1733": 6365,
      "Ġ2053": 6366,
      "ĠBar": 6367,
      "Ġblame": 6368,
      "Ġbegan": 6369,
      "Ġwooden": 6370,
      "Ġwarm": 6371,
      "kins": 6372,
      "Ġ1420": 6373,
      "Ġmob": 6374,
      "Ġ1725": 6375,
      "Ġ1987": 6376,
      "Ġ2083": 6377,
      "Ġwanting": 6378,
      "Ġbelong": 6379,
      "ls": 6380,
      "Ġ1540": 6381,
      "Ġsell": 6382,
      "Ġnecessary": 6383,
      "Ġcrowd": 6384,
      "Ġ1536": 6385,
      "asts": 6386,
      "Ġunusual": 6387,
      "Ġ1490": 6388,
      "Ġ2033": 6389,
      "ĠShow": 6390,
      "Ġthus": 6391,
      "Ġ2044": 6392,
      "Ġ1459": 6393,
      "Ġperform": 6394,
      "Ġrac": 6395,
      "herent": 6396,
      "Ġphone": 6397,
      "Ġstreng": 6398,
      "Ġphysical": 6399,
      "Ġ1878": 6400,
      "Ġinsight": 6401,
      "Ġbroad": 6402,
      "Ġtour": 6403,
      "Ġ1121": 6404,
      "Ġ1828": 6405,
      "Ġ2183": 6406,
      "hern": 6407,
      "Ġclub": 6408,
      "Ġrealized": 6409,
      "Ġteenage": 6410,
      "Ġ1497": 6411,
      "Ġ2011": 6412,
      "Ġ1919": 6413,
      "Ġborn": 6414,
      "Ġ1534": 6415,
      "uddy": 6416,
      "Ġaccount": 6417,
      "Ġrepeated": 6418,
      "Ġunexpected": 6419,
      ")<": 6420,
      "cont": 6421,
      "eal": 6422,
      "Ġ1580": 6423,
      "Ġafraid": 6424,
      "Ġ1639": 6425,
      "Ġ2123": 6426,
      "Ġ2013": 6427,
      "Ġbits": 6428,
      "Ġver": 6429,
      "enny": 6430,
      "ĠRo": 6431,
      "ĠON": 6432,
      "Ġrelative": 6433,
      "atu": 6434,
      "Ġdying": 6435,
      "Ġclothes": 6436,
      "Ġmemory": 6437,
      "kward": 6438,
      "Ġpath": 6439,
      "Ġ1682": 6440,
      "Ġ1717": 6441,
      "Ġ1627": 6442,
      "Ġ2093": 6443,
      "ĠDid": 6444,
      "Ġder": 6445,
      "ĠPre": 6446,
      "Ġhat": 6447,
      "Ġ1823": 6448,
      "Ġ1941": 6449,
      "Ġsuicide": 6450,
      "Ġloss": 6451,
      "Ġ1833": 6452,
      "bian": 6453,
      "Ġfool": 6454,
      "Ġfreak": 6455,
      "Ġbal": 6456,
      "Ġ1705": 6457,
      "Ġ1754": 6458,
      "Ġ1661": 6459,
      "Ġ1734": 6460,
      "Ġugly": 6461,
      "hero": 6462,
      "Ġaccompl": 6463,
      "Ġ2255": 6464,
      "stick": 6465,
      "Ġchannel": 6466,
      "ĠPal": 6467,
      "Ġcops": 6468,
      "022": 6469,
      "Ġheads": 6470,
      "ĠMany": 6471,
      "Ġbrutal": 6472,
      "Ġ2245": 6473,
      "etic": 6474,
      "Ġepic": 6475,
      "Ġ1633": 6476,
      "irk": 6477,
      "Ġempt": 6478,
      "ĠChristopher": 6479,
      "uct": 6480,
      "Ġ1569": 6481,
      "Ġredeeming": 6482,
      "ĠSil": 6483,
      "ĠLyn": 6484,
      "ĠKelly": 6485,
      "Ġplanet": 6486,
      "Ġintelligence": 6487,
      "Ġ1029": 6488,
      "Ġ2110": 6489,
      "ĠJackson": 6490,
      "anity": 6491,
      "Ġ2184": 6492,
      "Ġ1240": 6493,
      "Ġ2119": 6494,
      "ama": 6495,
      "Ġyouth": 6496,
      "Ġ1649": 6497,
      "ĠToo": 6498,
      "Ġ1918": 6499,
      "Ġ1938": 6500,
      "Ġwatchable": 6501,
      "Ġsurely": 6502,
      "Ġspeaking": 6503,
      "ĠAnyway": 6504,
      "Ġ2075": 6505,
      "Ġ2035": 6506,
      "undred": 6507,
      "oons": 6508,
      "Ġ1749": 6509,
      "Ġ2079": 6510,
      "Ġ2205": 6511,
      "Ġ2068": 6512,
      "Ġasks": 6513,
      "Ġ1559": 6514,
      "Ġdiv": 6515,
      "entious": 6516,
      "ĠTre": 6517,
      "Ġ1934": 6518,
      "ĠSar": 6519,
      "ĠMa": 6520,
      "Ġ1671": 6521,
      "Ġmanage": 6522,
      "ivity": 6523,
      "Ġ1171": 6524,
      "Ġ1848": 6525,
      "Ġ2194": 6526,
      "Ġstat": 6527,
      "Ġsuck": 6528,
      "sm": 6529,
      "vate": 6530,
      "Ġdamn": 6531,
      "Ġ1910": 6532,
      "Ġsubst": 6533,
      "Ġunderstanding": 6534,
      "Ġmartial": 6535,
      "ency": 6536,
      "Ġ1531": 6537,
      "elle": 6538,
      "Ġstruggle": 6539,
      "Ġrelie": 6540,
      "Ġdeb": 6541,
      "don": 6542,
      "Ġ1651": 6543,
      "Ġ1948": 6544,
      "Ġ2176": 6545,
      "ĠFord": 6546,
      "ĠPhil": 6547,
      "Ġhated": 6548,
      "Ġ1577": 6549,
      "ĠFox": 6550,
      "Ġ1150": 6551,
      "Ġhorse": 6552,
      "Ġleader": 6553,
      "Ġbank": 6554,
      "Ġsin": 6555,
      "Ġ1949": 6556,
      "gn": 6557,
      "Ġ1563": 6558,
      "Ġ1800": 6559,
      "ĠSn": 6560,
      "roc": 6561,
      "Ġdepart": 6562,
      "Ġskin": 6563,
      "Ġsac": 6564,
      "Ġ/>-": 6565,
      "Ġ2064": 6566,
      "ĠBo": 6567,
      "Ġincludes": 6568,
      "Ġcivil": 6569,
      "Ġ1722": 6570,
      "ĠOli": 6571,
      "Ġmission": 6572,
      "aton": 6573,
      "Ġhint": 6574,
      "027": 6575,
      "Ġ1677": 6576,
      "Ġstock": 6577,
      "Ġpartner": 6578,
      "Ġ1431": 6579,
      "II": 6580,
      "Ġ1657": 6581,
      "Ġ1779": 6582,
      "Ġ1807": 6583,
      "029": 6584,
      "bles": 6585,
      "Ġ1141": 6586,
      "ĠLittle": 6587,
      "Ġissue": 6588,
      "Ġindependent": 6589,
      "Ġ1658": 6590,
      "owell": 6591,
      "Ġtears": 6592,
      "Ġfilmmaker": 6593,
      "Ġbur": 6594,
      "Ġ1634": 6595,
      "Ġ1654": 6596,
      "Ġ2106": 6597,
      "Ġ2185": 6598,
      "Ġrubb": 6599,
      "Ġfights": 6600,
      "Ġsadly": 6601,
      "Ġ2018": 6602,
      "Ġsepar": 6603,
      "roll": 6604,
      "ousy": 6605,
      "Ġanywhere": 6606,
      "ĠBrown": 6607,
      "Ġlets": 6608,
      "Ġdeserve": 6609,
      "Ġholds": 6610,
      "ET": 6611,
      "esh": 6612,
      "Ġ1629": 6613,
      "Ġ1957": 6614,
      "Ġ2226": 6615,
      "Ġ2165": 6616,
      "Ġawkward": 6617,
      "Ġ2025": 6618,
      "Ġ2265": 6619,
      "vy": 6620,
      "Ġ1994": 6621,
      "Ġstink": 6622,
      "032": 6623,
      "Ġrated": 6624,
      "Ġknowledge": 6625,
      "Ġ1585": 6626,
      "Ġmotiv": 6627,
      "Ġenergy": 6628,
      "hered": 6629,
      "Ġ1699": 6630,
      "ĠAli": 6631,
      "Ġradio": 6632,
      "hum": 6633,
      "Ġ1767": 6634,
      "Ġrese": 6635,
      "Ġris": 6636,
      "Ġheroes": 6637,
      "rical": 6638,
      "ĠTe": 6639,
      "Ġ1991": 6640,
      "Ġ1893": 6641,
      "Ġ2092": 6642,
      "there": 6643,
      "Ġreturns": 6644,
      "ĠGrant": 6645,
      "ĠIN": 6646,
      "unter": 6647,
      "ĠJes": 6648,
      "Ġbirth": 6649,
      "ĠRus": 6650,
      "Ġcourt": 6651,
      "Ġhotel": 6652,
      "Ġ2133": 6653,
      "Ġpersonally": 6654,
      "Ġ2108": 6655,
      "Ġlies": 6656,
      "Ġblock": 6657,
      "top": 6658,
      "Ġanimals": 6659,
      "fin": 6660,
      "Ġted": 6661,
      "Ġgoof": 6662,
      "Ġ1757": 6663,
      "aturally": 6664,
      "Ġnumbers": 6665,
      "ĠVH": 6666,
      ".'": 6667,
      "Ġ1638": 6668,
      "ulation": 6669,
      "047": 6670,
      "ĠJon": 6671,
      "Ġinvent": 6672,
      "Ġ2019": 6673,
      "ĠDick": 6674,
      "olds": 6675,
      "Ġ1711": 6676,
      "Ġ1761": 6677,
      "ensional": 6678,
      "Ġvision": 6679,
      "Ġresponsible": 6680,
      "Ġexplanation": 6681,
      "va": 6682,
      "cture": 6683,
      "amer": 6684,
      "Ġ947": 6685,
      "Ġdeeply": 6686,
      "Although": 6687,
      "American": 6688,
      "Ġ1547": 6689,
      "Ġ1900": 6690,
      "Ġreact": 6691,
      "iful": 6692,
      "ĠEverything": 6693,
      "Ġreligious": 6694,
      "kes": 6695,
      "Ġ1866": 6696,
      "Ġ2116": 6697,
      "ĠRom": 6698,
      "Ġtight": 6699,
      "Ġ1620": 6700,
      "Ġ1737": 6701,
      "Ġ1454": 6702,
      "Ġelect": 6703,
      "Ġlimited": 6704,
      "natural": 6705,
      "Ġpacing": 6706,
      "Ġ1837": 6707,
      "Ġvillains": 6708,
      "Ġpleasure": 6709,
      "Ġaccurate": 6710,
      "Ġ1601": 6711,
      "Ġ1667": 6712,
      "Ġ2094": 6713,
      "Ġ2244": 6714,
      "ĠMen": 6715,
      "ĠWalk": 6716,
      "they": 6717,
      "Ġrarely": 6718,
      "ĠThomas": 6719,
      "Ġ1449": 6720,
      "Ġ2316": 6721,
      "Ġsucks": 6722,
      "UT": 6723,
      "Ġ1636": 6724,
      "ruction": 6725,
      "vit": 6726,
      "reck": 6727,
      "Ġhyp": 6728,
      "anced": 6729,
      "Ġ1631": 6730,
      "Ġ1707": 6731,
      "ender": 6732,
      "ĠAnn": 6733,
      "Ġ1771": 6734,
      "Ġ1648": 6735,
      "Ġ1647": 6736,
      "unted": 6737,
      "Ġdebut": 6738,
      "Ġarmy": 6739,
      "Ġhits": 6740,
      "Ġhurt": 6741,
      "Ġ1720": 6742,
      "Ġ1971": 6743,
      "Ġ2164": 6744,
      "Ġsty": 6745,
      "ateg": 6746,
      "Ġtwenty": 6747,
      "glas": 6748,
      "Ġ1687": 6749,
      "ĠApp": 6750,
      "ĠBas": 6751,
      "Ġarts": 6752,
      "Ġnicely": 6753,
      "Ġ1781": 6754,
      "Ġ1953": 6755,
      "ĠSus": 6756,
      "ache": 6757,
      "iance": 6758,
      "atory": 6759,
      "Ġ1630": 6760,
      "Ġ2268": 6761,
      "ĠMo": 6762,
      "Ġ?": 6763,
      "Ġ1669": 6764,
      "Ġ2355": 6765,
      "Ġmonths": 6766,
      "Ġjudge": 6767,
      "Ġthoroughly": 6768,
      "uzz": 6769,
      "Ġ2045": 6770,
      "Ġ1927": 6771,
      "away": 6772,
      "Ġsurreal": 6773,
      "Ġdeserved": 6774,
      "cise": 6775,
      "ÂĹ": 6776,
      "Ġ1958": 6777,
      "Ġ2084": 6778,
      "Ġ2228": 6779,
      "Ġ2128": 6780,
      "ĠJr": 6781,
      "screen": 6782,
      "Ġsch": 6783,
      "Ġ1680": 6784,
      "Ġ2195": 6785,
      "ĠLind": 6786,
      "ression": 6787,
      "Ġincre": 6788,
      "Ġtorture": 6789,
      "Ġfinished": 6790,
      "Ġ1946": 6791,
      "iety": 6792,
      "Ġforeign": 6793,
      "especially": 6794,
      "Ġ1541": 6795,
      "Ġ1871": 6796,
      "Ġmurdered": 6797,
      "Ġmat": 6798,
      "adow": 6799,
      "Ġlisten": 6800,
      "Ġmixed": 6801,
      "Ġ1937": 6802,
      "Ġcommunity": 6803,
      "Ġ1462": 6804,
      "Ġ1939": 6805,
      "Ġ2017": 6806,
      "Ġ2155": 6807,
      "ĠEddie": 6808,
      "Ġcalls": 6809,
      "Ġ2208": 6810,
      "Ġloving": 6811,
      "Ġfloor": 6812,
      "Ġgrad": 6813,
      "Ġexplained": 6814,
      "Rob": 6815,
      "Ġhundred": 6816,
      "Ġ1803": 6817,
      "Ġ1874": 6818,
      "Ġ2088": 6819,
      "Ġcompare": 6820,
      "ording": 6821,
      "Ġinsane": 6822,
      "Ġsignific": 6823,
      "Ġ1926": 6824,
      "Ġchick": 6825,
      "ĠDespite": 6826,
      "cula": 6827,
      "uz": 6828,
      "Ġ1441": 6829,
      "Ġ1830": 6830,
      "ĠJerry": 6831,
      "Ġplayers": 6832,
      "Ġvehic": 6833,
      "Ġ1442": 6834,
      "Ġ2117": 6835,
      "Ġaband": 6836,
      "They": 6837,
      "anned": 6838,
      "vant": 6839,
      "Ġ1884": 6840,
      "Ġ2166": 6841,
      "ola": 6842,
      "ĠLes": 6843,
      "Ġplots": 6844,
      "ĠJulie": 6845,
      "Ġ1688": 6846,
      "Ġ1942": 6847,
      "Ġ2206": 6848,
      "Ġcomparison": 6849,
      "Ġ2085": 6850,
      "Ġ2112": 6851,
      "ĠJud": 6852,
      "Ġconstant": 6853,
      "Ġ2215": 6854,
      "uns": 6855,
      "ĠBarb": 6856,
      "Ġlocations": 6857,
      "Ġunnecessary": 6858,
      "eks": 6859,
      "Ġtarget": 6860,
      "Ġmine": 6861,
      "Ġthats": 6862,
      "765": 6863,
      "Ġbloody": 6864,
      "Ġopera": 6865,
      "Ġsmile": 6866,
      "itous": 6867,
      "Ġ2023": 6868,
      "ĠOnce": 6869,
      "director": 6870,
      "Ġlacking": 6871,
      "Ġcars": 6872,
      "Ġgangster": 6873,
      "ĠRyan": 6874,
      "Ġ1169": 6875,
      "Ġlay": 6876,
      "Ġ1721": 6877,
      "Ġ2210": 6878,
      "Ġ2214": 6879,
      "Ġ2345": 6880,
      "Ġunint": 6881,
      "Ġartistic": 6882,
      "asm": 6883,
      "ilst": 6884,
      "Ġprove": 6885,
      "bell": 6886,
      "pir": 6887,
      "Ġ1560": 6888,
      "Ġ1802": 6889,
      "Ġ1589": 6890,
      "Ġ1899": 6891,
      "ueen": 6892,
      "Ġremain": 6893,
      "Ġmild": 6894,
      "Ġles": 6895,
      "Ġ2212": 6896,
      "Ġ2295": 6897,
      "Ġ2525": 6898,
      "eman": 6899,
      "ruct": 6900,
      "Ġ1956": 6901,
      "ĠStewart": 6902,
      "Ġ1892": 6903,
      "Ġ2179": 6904,
      "----": 6905,
      "hor": 6906,
      "Ġ2283": 6907,
      "Ġ2143": 6908,
      "Ġscared": 6909,
      "thony": 6910,
      "ĠEll": 6911,
      "Ġlearned": 6912,
      "Ġmachine": 6913,
      "non": 6914,
      "Ġfield": 6915,
      "Ġ1829": 6916,
      "Ġ2216": 6917,
      "Ġ2294": 6918,
      "ĠDeath": 6919,
      "Ġmount": 6920,
      "Ġ1856": 6921,
      "Ġ1951": 6922,
      "Ġ2122": 6923,
      "Ġpilot": 6924,
      ":<": 6925,
      "Ġ1770": 6926,
      "Ġ2001": 6927,
      "Ġproceed": 6928,
      "Ġbland": 6929,
      "Ġguns": 6930,
      "ĠLewis": 6931,
      "Ġ2235": 6932,
      "oses": 6933,
      "cient": 6934,
      "Ġsurvive": 6935,
      "Ġ2016": 6936,
      "Ġ2073": 6937,
      "akespe": 6938,
      "Ġcreating": 6939,
      "ugs": 6940,
      "Ġassist": 6941,
      "Ġefforts": 6942,
      "Ġ1421": 6943,
      "Ġ1522": 6944,
      "ching": 6945,
      "Ġcaptured": 6946,
      "Ġ2047": 6947,
      "ĠNick": 6948,
      "ĠStory": 6949,
      "Ġthous": 6950,
      "Ġ1537": 6951,
      "Ġ1841": 6952,
      "outs": 6953,
      "Ġblue": 6954,
      "Ġwitty": 6955,
      "Ġconcerned": 6956,
      "Ġcow": 6957,
      "Ġ1967": 6958,
      "ĠAc": 6959,
      "Ġ1551": 6960,
      "Ġcircum": 6961,
      "Ġ2114": 6962,
      "Ġcontext": 6963,
      "Ġrape": 6964,
      "arently": 6965,
      "Ġ2193": 6966,
      "Ġ2125": 6967,
      "point": 6968,
      "Ġopt": 6969,
      "Ġ1599": 6970,
      "imal": 6971,
      "Ġ1438": 6972,
      "fortable": 6973,
      "Ġdangerous": 6974,
      "Ġ1952": 6975,
      "Ġ2209": 6976,
      "Ġ1747": 6977,
      "Ġ1736": 6978,
      "uls": 6979,
      "Ġlovers": 6980,
      "Ġvisit": 6981,
      "althy": 6982,
      "Ġcriminal": 6983,
      "Ġ1637": 6984,
      "Ġ2148": 6985,
      "Ġdeterm": 6986,
      "ĠEngland": 6987,
      "Ġtur": 6988,
      "Ġ890": 6989,
      "Ġner": 6990,
      "Ġ1700": 6991,
      "ĠHay": 6992,
      "ĠPres": 6993,
      "cis": 6994,
      "Ġ1662": 6995,
      "Ġ2253": 6996,
      "Ġ2419": 6997,
      "ĠVHS": 6998,
      "rays": 6999,
      "yes": 7000,
      "Ġ2098": 7001,
      "ĠMax": 7002,
      "Ġbelief": 7003,
      "Ġpaper": 7004,
      "Ġ1731": 7005,
      "ĠWild": 7006,
      "Ġpriest": 7007,
      "Ġ1954": 7008,
      "Ġdriving": 7009,
      "ĠStephen": 7010,
      "Ġwonderfully": 7011,
      "Ġmemories": 7012,
      "Ġcontrast": 7013,
      "cue": 7014,
      "Ġ2072": 7015,
      "ĠLaw": 7016,
      "Ġskills": 7017,
      "Ġphilos": 7018,
      "iverse": 7019,
      "ga": 7020,
      "Ġ2243": 7021,
      "ĠDam": 7022,
      "Ġowner": 7023,
      "ĠWayne": 7024,
      "hol": 7025,
      "rous": 7026,
      "Ġ2086": 7027,
      "Ġinterpret": 7028,
      "ĠWhite": 7029,
      "ennifer": 7030,
      "Ġmagnific": 7031,
      "core": 7032,
      "Ġ1482": 7033,
      "ups": 7034,
      "ano": 7035,
      "Ġ1686": 7036,
      "Ġ1969": 7037,
      "irm": 7038,
      "Ġneighbor": 7039,
      "Ġbehavior": 7040,
      "Ġ1621": 7041,
      "ads": 7042,
      "Ġ2392": 7043,
      "ounds": 7044,
      "Ġbigger": 7045,
      "Ġhumanity": 7046,
      "Ġresults": 7047,
      "Ġengaging": 7048,
      "Ġ1520": 7049,
      "Ġ2222": 7050,
      "Ġ2192": 7051,
      "Ġinstance": 7052,
      "Ġbelow": 7053,
      "Ġ2413": 7054,
      "Ġtreated": 7055,
      "Ġmental": 7056,
      "Ġopposite": 7057,
      "Ġ1805": 7058,
      "Ġ2288": 7059,
      "ademy": 7060,
      "Ġ2188": 7061,
      "insp": 7062,
      "Ġhidden": 7063,
      "Ġ1659": 7064,
      "Ġ2022": 7065,
      "Ġ2418": 7066,
      "Ġnoticed": 7067,
      "Ġframe": 7068,
      "Ġreminds": 7069,
      "Ġforces": 7070,
      "Ġdesperate": 7071,
      "Why": 7072,
      "Ġ1724": 7073,
      "Ġ1931": 7074,
      "aybe": 7075,
      "Ġtechnical": 7076,
      "Ġrubbish": 7077,
      "Ġflying": 7078,
      "Ġ2275": 7079,
      "Ġ2276": 7080,
      "Ġ2163": 7081,
      "Ġ2095": 7082,
      "Ġ2366": 7083,
      "783": 7084,
      "Ġnumerous": 7085,
      "Ġremarkable": 7086,
      "iser": 7087,
      "Ġpark": 7088,
      "Ġ1546": 7089,
      "Ġ2344": 7090,
      "Ġuncon": 7091,
      "Ġenth": 7092,
      "Ġ1790": 7093,
      "Ġ2021": 7094,
      "Ġ2343": 7095,
      "urs": 7096,
      "ĠMal": 7097,
      "ails": 7098,
      "ĠWal": 7099,
      "049": 7100,
      "ĠVal": 7101,
      "........": 7102,
      "wolf": 7103,
      "Ġ1869": 7104,
      "Ġ2335": 7105,
      "ĠDel": 7106,
      "083": 7107,
      "Ġgotten": 7108,
      "Ġofficer": 7109,
      "POILERS": 7110,
      "Ġtape": 7111,
      "oooo": 7112,
      "ids": 7113,
      "Ġincluded": 7114,
      "Ġmiser": 7115,
      "Ġhopes": 7116,
      "Ġgags": 7117,
      "Just": 7118,
      "Ġ1769": 7119,
      "Ġ2414": 7120,
      "798": 7121,
      "ques": 7122,
      "Ġkeeping": 7123,
      "ication": 7124,
      "ether": 7125,
      "Ġrevealed": 7126,
      "ushing": 7127,
      "Ġ2219": 7128,
      "Ġanybody": 7129,
      "ashes": 7130,
      "Ġhumans": 7131,
      "Ġ2051": 7132,
      "Ġ2168": 7133,
      "Ġeduc": 7134,
      "Ġlab": 7135,
      "Ġearn": 7136,
      "Ġ2153": 7137,
      "aylor": 7138,
      "icked": 7139,
      "Ġ1880": 7140,
      "Ġ1959": 7141,
      "Ġ2046": 7142,
      "ĠMrs": 7143,
      "Ġboat": 7144,
      "Ġ1832": 7145,
      "Ġ1332": 7146,
      "Ġencounter": 7147,
      "Ġsymbol": 7148,
      "Ġ1562": 7149,
      "atives": 7150,
      "acting": 7151,
      "026": 7152,
      "osexual": 7153,
      "Ġempty": 7154,
      "edding": 7155,
      "Ġ1981": 7156,
      "Ġrend": 7157,
      "Ġrealism": 7158,
      "Ġplayer": 7159,
      "ĠDouglas": 7160,
      "Ġboo": 7161,
      "Ġexperien": 7162,
      "However": 7163,
      "Ġ2266": 7164,
      "ĠEs": 7165,
      "pless": 7166,
      "Ġ1456": 7167,
      "Ġstret": 7168,
      "Ġ2324": 7169,
      "Ġ2385": 7170,
      "Ġ2679": 7171,
      "Ġhadn": 7172,
      "Ġcircumst": 7173,
      "Ġ1877": 7174,
      "Ġ1907": 7175,
      "Ġ941": 7176,
      "imental": 7177,
      "Ġreferences": 7178,
      "Ġ1887": 7179,
      "ĠLife": 7180,
      "ulf": 7181,
      "Ġrelate": 7182,
      "Ġmarry": 7183,
      "although": 7184,
      "Ġ1739": 7185,
      "Ġ1851": 7186,
      "Ġ2233": 7187,
      "Ġ2196": 7188,
      "Ġ2383": 7189,
      "Ġscare": 7190,
      "Ġteenagers": 7191,
      "Even": 7192,
      "dinary": 7193,
      "Ġban": 7194,
      "Ġ1847": 7195,
      "Ġ2328": 7196,
      "Ġenvi": 7197,
      "Ġexpert": 7198,
      "Ġ1582": 7199,
      "028": 7200,
      "OK": 7201,
      "Ġ1740": 7202,
      "ĠPlease": 7203,
      "umps": 7204,
      "Ġdesp": 7205,
      "Ġspeech": 7206,
      "ĠSpace": 7207,
      "ĠTex": 7208,
      "Ġ1801": 7209,
      "Ġ2246": 7210,
      "ĠCapt": 7211,
      "Ġprostit": 7212,
      "Ġresol": 7213,
      "Ġsoldier": 7214,
      "Ġ2173": 7215,
      "unn": 7216,
      "Ġsoap": 7217,
      "Ġopens": 7218,
      "Ġ2375": 7219,
      "Ġassoci": 7220,
      "ominated": 7221,
      "Ġ1791": 7222,
      "ĠDen": 7223,
      "Ġoverly": 7224,
      "Ġprotagonist": 7225,
      "Ġ1738": 7226,
      "Ġ1903": 7227,
      "Ġ1929": 7228,
      "Ġfinale": 7229,
      "hent": 7230,
      "Ġ2293": 7231,
      "ĠHorror": 7232,
      "Ġrecall": 7233,
      "long": 7234,
      "Ġ2048": 7235,
      "ĠWars": 7236,
      "ums": 7237,
      "Ġ1760": 7238,
      "ping": 7239,
      "lla": 7240,
      "Ġ1652": 7241,
      "Ġ1756": 7242,
      "Ġ2224": 7243,
      "Ġ2423": 7244,
      "Ġtherefore": 7245,
      "mare": 7246,
      "some": 7247,
      "Ġtoward": 7248,
      "Ġ1827": 7249,
      "Ġ2317": 7250,
      "Ġbuff": 7251,
      "Ġveter": 7252,
      "Ġwindow": 7253,
      "Ġ1862": 7254,
      "Ġsafe": 7255,
      "Ġsword": 7256,
      "Ġcommercial": 7257,
      "Ġfrequ": 7258,
      "ĠSpanish": 7259,
      "Ġ2065": 7260,
      "Ġ2405": 7261,
      "Ġcharism": 7262,
      "void": 7263,
      "Ġ2077": 7264,
      "Ġ2298": 7265,
      "084": 7266,
      "Ġorgan": 7267,
      "Ġ1527": 7268,
      "Ġsheer": 7269,
      "Ġtrib": 7270,
      "Ġanimal": 7271,
      "board": 7272,
      "Ġ1587": 7273,
      "ĠRon": 7274,
      "Ġcontrived": 7275,
      "mind": 7276,
      "ĠMont": 7277,
      "Ġjunk": 7278,
      "Ġfriendship": 7279,
      "Ġregular": 7280,
      "akespeare": 7281,
      "arian": 7282,
      "Ġgrowing": 7283,
      "ĠAlan": 7284,
      "ext": 7285,
      "Ġing": 7286,
      "ĠSy": 7287,
      "Ġscrew": 7288,
      "Ġtransl": 7289,
      "nam": 7290,
      "Ġ1820": 7291,
      "ĠBarry": 7292,
      "odd": 7293,
      "Ġtalents": 7294,
      "Ġhumorous": 7295,
      "Ġ2278": 7296,
      "cover": 7297,
      "icate": 7298,
      "Ġ1741": 7299,
      "Ġ2066": 7300,
      "Ġ2039": 7301,
      "Ġ2198": 7302,
      "Ġgeneration": 7303,
      "Ġbreaks": 7304,
      "Ġpulled": 7305,
      "Ġ1590": 7306,
      "Ġ2099": 7307,
      "urphy": 7308,
      "Ġindividual": 7309,
      "eed": 7310,
      "yr": 7311,
      "ĠWas": 7312,
      "Ġdisplay": 7313,
      "Ġstereotypes": 7314,
      "OL": 7315,
      "aud": 7316,
      "Ġ2510": 7317,
      "lee": 7318,
      "Ġarm": 7319,
      "Ġcameo": 7320,
      "Ġdealing": 7321,
      "Ġstreets": 7322,
      "ĠViet": 7323,
      "Ġadvice": 7324,
      "Ġbot": 7325,
      "Ġ2082": 7326,
      "Ġsed": 7327,
      "Ġ2273": 7328,
      "ĠRos": 7329,
      "Ġsal": 7330,
      "ĠMer": 7331,
      "ĠJan": 7332,
      "ĠEuropean": 7333,
      "Ġnonsense": 7334,
      "pat": 7335,
      "Ġ2030": 7336,
      "Ġshallow": 7337,
      "plic": 7338,
      "law": 7339,
      "Ġ2277": 7340,
      "Ġ2417": 7341,
      "ulous": 7342,
      "Ġobsc": 7343,
      "rifying": 7344,
      "Ġcateg": 7345,
      "Ġ2395": 7346,
      "037": 7347,
      "Ġdeals": 7348,
      "Ġrefres": 7349,
      "Ġlevels": 7350,
      "Ġfrank": 7351,
      "Ġcable": 7352,
      "Ġ1642": 7353,
      "Ġ2411": 7354,
      "Ġparody": 7355,
      "Ġfate": 7356,
      "Ġ2137": 7357,
      "ribut": 7358,
      "Ġali": 7359,
      "Ġspoof": 7360,
      "athan": 7361,
      "Ġperspective": 7362,
      "Ġpress": 7363,
      "Ġ2055": 7364,
      "Ġpsychological": 7365,
      "Ġdated": 7366,
      "Ġ1852": 7367,
      "Ġ2435": 7368,
      "Ġvol": 7369,
      "Ġvote": 7370,
      "reedom": 7371,
      "Ġchalleng": 7372,
      "Ġ1921": 7373,
      "ĠBE": 7374,
      "Ġfinest": 7375,
      "Ġheroine": 7376,
      "ĠBrothers": 7377,
      ");": 7378,
      "Ġintent": 7379,
      "hearted": 7380,
      "ĠLuc": 7381,
      "umm": 7382,
      "abeth": 7383,
      "ĠChap": 7384,
      "hab": 7385,
      "Ġ2318": 7386,
      "ĠCent": 7387,
      "ĠWat": 7388,
      "Ġprov": 7389,
      "ĠAnne": 7390,
      "Ġsummer": 7391,
      "Ġgonna": 7392,
      "Ġreceived": 7393,
      "Ġattitude": 7394,
      "Ġfif": 7395,
      "Ġ1857": 7396,
      "ĠDor": 7397,
      "ĠDennis": 7398,
      "ĠJohnny": 7399,
      "Ġevidence": 7400,
      "lly": 7401,
      "ometimes": 7402,
      "Ġaward": 7403,
      "Ġterribly": 7404,
      "Ġprint": 7405,
      "Ġstudy": 7406,
      "Ġcrappy": 7407,
      "worth": 7408,
      "arc": 7409,
      "Ġ1870": 7410,
      "Ġ2213": 7411,
      "Yes": 7412,
      "Ġ1481": 7413,
      "imate": 7414,
      "Ġ2174": 7415,
      "osaur": 7416,
      "Ġconsist": 7417,
      "Ġ1834": 7418,
      "Ġ2396": 7419,
      "ĠBlood": 7420,
      "urban": 7421,
      "ĠSat": 7422,
      "Ġsomebody": 7423,
      ".\"<": 7424,
      "Ġmedia": 7425,
      "arden": 7426,
      "Ġmanip": 7427,
      "Ġstarting": 7428,
      "Ġtheatre": 7429,
      "ixt": 7430,
      "ari": 7431,
      "Ġnet": 7432,
      "Ġchore": 7433,
      "Ġring": 7434,
      "ĠSean": 7435,
      "Ġdiscovers": 7436,
      "Ġgory": 7437,
      "Ġ2186": 7438,
      "ĠDO": 7439,
      "Ġreviewers": 7440,
      "Ġwoods": 7441,
      "entle": 7442,
      "ĠArthur": 7443,
      "rate": 7444,
      "Ġtack": 7445,
      "Ġ2406": 7446,
      "Ġ2509": 7447,
      "Ġ2772": 7448,
      "Ġvillage": 7449,
      "yal": 7450,
      "Ġ2319": 7451,
      "ĠNorth": 7452,
      "Ġ1839": 7453,
      "Ġ1858": 7454,
      "Ġ1901": 7455,
      "Ġcontinues": 7456,
      "Ġunrealistic": 7457,
      "Ġincomp": 7458,
      "Ġaltern": 7459,
      "oken": 7460,
      "Ġgrace": 7461,
      "Ġ2225": 7462,
      "Ġ2492": 7463,
      "Ġinvolves": 7464,
      "Ġcruel": 7465,
      "Ġhigher": 7466,
      "Ġ1867": 7467,
      "Ġordinary": 7468,
      "aren": 7469,
      "Ġens": 7470,
      "class": 7471,
      "Ġenviron": 7472,
      "hem": 7473,
      "Ġ1691": 7474,
      "Ġ2199": 7475,
      "Ġwinning": 7476,
      "Ġrelief": 7477,
      "ĠLast": 7478,
      "Ġpretentious": 7479,
      "made": 7480,
      "Ġ1890": 7481,
      "Ġ2528": 7482,
      "Ġ2313": 7483,
      "Ġseat": 7484,
      "ĠSant": 7485,
      "Ġdecade": 7486,
      "Ġsequels": 7487,
      "Ġcares": 7488,
      "Sp": 7489,
      "vest": 7490,
      "ĠIm": 7491,
      "Ġ2606": 7492,
      "ĠHall": 7493,
      "Ġrange": 7494,
      "Ġunfunny": 7495,
      "Ġpupp": 7496,
      "Ġ2495": 7497,
      "anged": 7498,
      "Ġdiscovered": 7499,
      "isa": 7500,
      "Ġfund": 7501,
      "Ġ1404": 7502,
      "Ġ1821": 7503,
      "Ġ2433": 7504,
      "Ġ2323": 7505,
      "Ġmini": 7506,
      "ĠThose": 7507,
      "Ġbroken": 7508,
      "Ġ1371": 7509,
      "ĠThing": 7510,
      "Ġ2526": 7511,
      "rol": 7512,
      "Ġdistract": 7513,
      "Ġremembered": 7514,
      "Ġcapture": 7515,
      "Ġ1461": 7516,
      "Ġ2285": 7517,
      "Ġfeaturing": 7518,
      "hentic": 7519,
      "Ġrefreshing": 7520,
      "Ġur": 7521,
      "Ġ1422": 7522,
      "Ġ1641": 7523,
      "Ġ2348": 7524,
      "Ġflashbacks": 7525,
      "Ġ2175": 7526,
      "Ġ2126": 7527,
      "Ġ2364": 7528,
      "udes": 7529,
      "cluding": 7530,
      "Ġlat": 7531,
      "Ġ2145": 7532,
      "Ġ2511": 7533,
      "char": 7534,
      "Ġking": 7535,
      "Ġreaction": 7536,
      "Ġ2594": 7537,
      "ĠFrance": 7538,
      "ĠStone": 7539,
      "Ġgenuinely": 7540,
      "Ġgru": 7541,
      "Ġ1681": 7542,
      "Ġ1750": 7543,
      "Ġedited": 7544,
      "Ġfailure": 7545,
      "Ġsteal": 7546,
      "Ġirritating": 7547,
      "gra": 7548,
      "Ġ1922": 7549,
      "oyd": 7550,
      "theless": 7551,
      "Ġmonsters": 7552,
      "Ġ1538": 7553,
      "ĠTaylor": 7554,
      "Ġ1860": 7555,
      "Ġ2211": 7556,
      "Ġ2363": 7557,
      "Ġ2617": 7558,
      "urse": 7559,
      "Ġassass": 7560,
      "Ġcapable": 7561,
      "iling": 7562,
      "Ġ2242": 7563,
      "Ġ2378": 7564,
      "ĠJer": 7565,
      "ogy": 7566,
      "???": 7567,
      "Ġintellect": 7568,
      "Ġbodies": 7569,
      "Ġbear": 7570,
      "Ġ2218": 7571,
      "Ġ2583": 7572,
      "Ġvac": 7573,
      "ĠWhich": 7574,
      "Ġspeed": 7575,
      "Ġmeeting": 7576,
      "ĠDracula": 7577,
      "produ": 7578,
      "Ġ1751": 7579,
      "Ġ2409": 7580,
      "Ġloses": 7581,
      "Ġ2305": 7582,
      "Ġ2353": 7583,
      "ĠWH": 7584,
      "Ġteach": 7585,
      "Ġsatire": 7586,
      "nox": 7587,
      "tw": 7588,
      "Ġ2024": 7589,
      "Ġ2368": 7590,
      "Ġ1236": 7591,
      "ordon": 7592,
      "Ġkinda": 7593,
      "des": 7594,
      "Ġgas": 7595,
      "Ġ2493": 7596,
      "Ġ2314": 7597,
      "Ġfeet": 7598,
      "RA": 7599,
      "ĠMurphy": 7600,
      "ĠRoy": 7601,
      "Ġfamil": 7602,
      "Ġ1835": 7603,
      "Ġ1881": 7604,
      "emporary": 7605,
      "nal": 7606,
      "Ġ1487": 7607,
      "Ġ2037": 7608,
      "Ġdecision": 7609,
      "craft": 7610,
      "ĠAnderson": 7611,
      "Ġrescue": 7612,
      "Sc": 7613,
      "stream": 7614,
      "ours": 7615,
      "Ġguest": 7616,
      "Ġcuts": 7617,
      "Ġ1729": 7618,
      "Ġ2190": 7619,
      "Ġ2365": 7620,
      "ĠJose": 7621,
      "Ġunable": 7622,
      "Ġsaved": 7623,
      "Ġidentity": 7624,
      "Ġdreadful": 7625,
      "Ġsite": 7626,
      "itter": 7627,
      "alling": 7628,
      "ĠHolmes": 7629,
      "Ġresearch": 7630,
      "Ġhall": 7631,
      "Ġ2015": 7632,
      "ĠRose": 7633,
      "ĠFar": 7634,
      "Ġvs": 7635,
      "Ġfly": 7636,
      "riday": 7637,
      "ĠSin": 7638,
      "ĠSince": 7639,
      "ĠBatman": 7640,
      "ux": 7641,
      "Ġnin": 7642,
      "Ġ1789": 7643,
      "ĠTw": 7644,
      "Ġ2548": 7645,
      "ĠBrian": 7646,
      "ights": 7647,
      "Ġarch": 7648,
      "Ġdesire": 7649,
      "ĠAnthony": 7650,
      "Ġtreatment": 7651,
      "Ġspectacular": 7652,
      "Ġ2376": 7653,
      "Ġ2612": 7654,
      "ĠBog": 7655,
      "Ġ1742": 7656,
      "Ġ1787": 7657,
      "Ġ2407": 7658,
      "Ġ2302": 7659,
      "Ġconc": 7660,
      "umber": 7661,
      "Ġdepressing": 7662,
      "Ġ2091": 7663,
      "Ġ2533": 7664,
      "ĠSan": 7665,
      "Ġshop": 7666,
      "ĠRod": 7667,
      "Ġvul": 7668,
      "Ġdocument": 7669,
      "Ġcombination": 7670,
      "Ġgraphic": 7671,
      "Ġpowers": 7672,
      "Ġ1961": 7673,
      "Ġ2494": 7674,
      "orted": 7675,
      "Ġvisuals": 7676,
      "Ġ1836": 7677,
      "Ġ2379": 7678,
      "Ġ2506": 7679,
      "Ġconnection": 7680,
      "Ġcounter": 7681,
      "yer": 7682,
      "Ġfal": 7683,
      "Ġ2032": 7684,
      "Ġ2306": 7685,
      "Ġ2388": 7686,
      "Ġ1550": 7687,
      "ĠEveryone": 7688,
      "ĠCraw": 7689,
      "Ġfra": 7690,
      "Ġ2326": 7691,
      "Ġmajority": 7692,
      "Ġemer": 7693,
      "Ġkiss": 7694,
      "Ġdeg": 7695,
      "angers": 7696,
      "Ġoriginally": 7697,
      "ĠShakespeare": 7698,
      "Ġaliens": 7699,
      "fit": 7700,
      "Ġ2416": 7701,
      "Ġsea": 7702,
      "ĠHop": 7703,
      "ĠDE": 7704,
      "745": 7705,
      "ĠAfrican": 7706,
      "lim": 7707,
      "Ġ2089": 7708,
      "ĠMur": 7709,
      "Ġtext": 7710,
      "Ġfacts": 7711,
      "Ġoccasionally": 7712,
      "Ġ2444": 7713,
      "Ġ2535": 7714,
      "723": 7715,
      "Ġprinci": 7716,
      "Ġ2054": 7717,
      "Ġ2473": 7718,
      "ride": 7719,
      "ĠOut": 7720,
      "Ġdescribed": 7721,
      "Ġgreen": 7722,
      "Ġ1850": 7723,
      "Ġ2512": 7724,
      "Ġtypes": 7725,
      "Ġdelivered": 7726,
      "Ġconnect": 7727,
      "omed": 7728,
      "ummy": 7729,
      "ĠFrancis": 7730,
      "ĠColumb": 7731,
      "imm": 7732,
      "ante": 7733,
      "Ġpeace": 7734,
      "Ġmorning": 7735,
      "Ġgross": 7736,
      "iforn": 7737,
      "Ġsole": 7738,
      "ĠDean": 7739,
      "Ġmodel": 7740,
      "Ġbath": 7741,
      "Ġ2111": 7742,
      "Ġ2154": 7743,
      "ĠVer": 7744,
      "Ġultimate": 7745,
      "Ġtor": 7746,
      "Ġ2483": 7747,
      "Ġ2398": 7748,
      "Ġ2668": 7749,
      "Ġproved": 7750,
      "rence": 7751,
      "Ġmarvel": 7752,
      "iversal": 7753,
      "pet": 7754,
      "via": 7755,
      "Ġ2102": 7756,
      "Ġseven": 7757,
      "ĠAsian": 7758,
      "Ġportrays": 7759,
      "Ġtick": 7760,
      "Ġsides": 7761,
      "Ġ2063": 7762,
      "Ġ2315": 7763,
      "Ġstanding": 7764,
      "usive": 7765,
      "Ġ2412": 7766,
      "ĠAndrew": 7767,
      "Ġexistence": 7768,
      "Ġexecuted": 7769,
      "Ġ2486": 7770,
      "Ġcash": 7771,
      "Ġ2498": 7772,
      "Ġ2485": 7773,
      "Ġ2764": 7774,
      "Ġju": 7775,
      "Ġtalks": 7776,
      "ĠDanny": 7777,
      "Ġcyn": 7778,
      "ĠIT": 7779,
      "Ġ2605": 7780,
      "Ġteenager": 7781,
      "Ġstrength": 7782,
      "spe": 7783,
      "world": 7784,
      "Ġsun": 7785,
      "Ġgrew": 7786,
      "Ġ2544": 7787,
      "ĠSecond": 7788,
      "abr": 7789,
      "Ġ2152": 7790,
      "Ġunderrated": 7791,
      "Ġtheaters": 7792,
      "SE": 7793,
      "Ġfame": 7794,
      "Ġ1778": 7795,
      "Ġ2346": 7796,
      "Ġ2809": 7797,
      "Ġsinger": 7798,
      "BI": 7799,
      "Ġ2299": 7800,
      "Ġproud": 7801,
      "Ġpassed": 7802,
      "girl": 7803,
      "inis": 7804,
      "Ġ2696": 7805,
      "ĠMatt": 7806,
      "achel": 7807,
      "eanwhile": 7808,
      "mod": 7809,
      "orious": 7810,
      "Ġ2415": 7811,
      "Ġ2515": 7812,
      "Ġ2563": 7813,
      "Ġsucked": 7814,
      "Ġsympathetic": 7815,
      "Ġsake": 7816,
      "Ġ1327": 7817,
      "Ġ1932": 7818,
      "Ġimagin": 7819,
      "Ġhur": 7820,
      "Ġ2134": 7821,
      "ĠColl": 7822,
      "entionally": 7823,
      "Ġinept": 7824,
      "Ġsend": 7825,
      "Ġwel": 7826,
      "Ġ2080": 7827,
      "Ġ2448": 7828,
      "ĠEric": 7829,
      "beat": 7830,
      "Ġtedious": 7831,
      "Ġpit": 7832,
      "Ġ1840": 7833,
      "Ġ2027": 7834,
      "Ġ2488": 7835,
      "ĠSE": 7836,
      "ĠCass": 7837,
      "Ġchoose": 7838,
      "ĠCarl": 7839,
      "Ġreflect": 7840,
      "amily": 7841,
      "ĠSpe": 7842,
      "ago": 7843,
      "Ġcircumstances": 7844,
      "cor": 7845,
      "dom": 7846,
      "tain": 7847,
      "Ġinex": 7848,
      "Ġ1797": 7849,
      "Ġ2056": 7850,
      "ĠMaster": 7851,
      "Ġadvert": 7852,
      "ĠStr": 7853,
      "Ġasking": 7854,
      "done": 7855,
      "Ġda": 7856,
      "aura": 7857,
      "Ġ1697": 7858,
      "Ġ2070": 7859,
      "Ġ2443": 7860,
      "ĠCamp": 7861,
      "Ġhyster": 7862,
      "Every": 7863,
      "ĠEVER": 7864,
      "Ġexploitation": 7865,
      "UN": 7866,
      "Ġ2408": 7867,
      "Ġ2393": 7868,
      "Ġ2555": 7869,
      "ĠNO": 7870,
      "Ġbrilliantly": 7871,
      "ĠTime": 7872,
      "Ġgratu": 7873,
      "Ġsoph": 7874,
      "Ġ1882": 7875,
      "Ġ2067": 7876,
      "Ġ2036": 7877,
      "Ġ2626": 7878,
      "lder": 7879,
      "Ġskill": 7880,
      "Ġcorrupt": 7881,
      "Ġbag": 7882,
      "Ġlower": 7883,
      "Ġ2514": 7884,
      "Ġ2645": 7885,
      "Ġbuilt": 7886,
      "Ġregret": 7887,
      "Ġhandsome": 7888,
      "!).": 7889,
      "wing": 7890,
      "Ġbatt": 7891,
      "Ġ2835": 7892,
      "ĠMi": 7893,
      "ĠGary": 7894,
      "ichol": 7895,
      "Ġthoughts": 7896,
      "Ġlesson": 7897,
      "ĠREAL": 7898,
      "ĠTexas": 7899,
      "Ġcant": 7900,
      "Ġdry": 7901,
      "Ġ1504": 7902,
      "Ġ1897": 7903,
      "Ġ2062": 7904,
      "Ġallows": 7905,
      "Ġnecess": 7906,
      "ĠJennifer": 7907,
      "Ġlogic": 7908,
      "Ġtruck": 7909,
      "Of": 7910,
      "formed": 7911,
      "ighter": 7912,
      "Ġsuffering": 7913,
      "Ġfamilies": 7914,
      "ani": 7915,
      "Ġ2151": 7916,
      "Ġ2321": 7917,
      "Ġsaving": 7918,
      "ucky": 7919,
      "Ġassume": 7920,
      "ĠPatrick": 7921,
      "Ġ1727": 7922,
      "Ġ2076": 7923,
      "Ġ2292": 7924,
      "Ġ2256": 7925,
      "Ġ2333": 7926,
      "ĠKong": 7927,
      "Ġclassics": 7928,
      "Ġmagnificent": 7929,
      "telling": 7930,
      "Ġ2159": 7931,
      "Ġ2505": 7932,
      "ĠDog": 7933,
      "Ġemotionally": 7934,
      "Se": 7935,
      "Ġ2518": 7936,
      "ĠMic": 7937,
      "ibal": 7938,
      "ĠRussell": 7939,
      "Ġeating": 7940,
      "Ġ2101": 7941,
      "Ġ2136": 7942,
      "Ġ2426": 7943,
      "Ġ2844": 7944,
      "ĠDem": 7945,
      "795": 7946,
      "IGH": 7947,
      "mal": 7948,
      "Ġteens": 7949,
      "ynam": 7950,
      "Ġcartoons": 7951,
      "GE": 7952,
      "Ġ1702": 7953,
      "ĠWin": 7954,
      "ĠFestival": 7955,
      "umph": 7956,
      "ĠYOU": 7957,
      "Ġgrade": 7958,
      "Ġic": 7959,
      "Ġ2545": 7960,
      "ĠLynch": 7961,
      "ilty": 7962,
      "Ġ2160": 7963,
      "ĠLord": 7964,
      "ners": 7965,
      "Ġ2020": 7966,
      "Ġgrown": 7967,
      "ridge": 7968,
      "hh": 7969,
      "rad": 7970,
      "Then": 7971,
      "She": 7972,
      "mary": 7973,
      "Ġ2672": 7974,
      "Ġ2718": 7975,
      "Ġslapstick": 7976,
      "ĠCrawford": 7977,
      "\"),": 7978,
      "Ġ2644": 7979,
      "Ġpropag": 7980,
      "Ġauthentic": 7981,
      "Ġdressed": 7982,
      "Ġ1753": 7983,
      "Ġ2574": 7984,
      "Ġlaughter": 7985,
      "Ġsatisfying": 7986,
      "Let": 7987,
      "ij": 7988,
      "eness": 7989,
      "Ġ2221": 7990,
      "ĠDar": 7991,
      "Ar": 7992,
      "Ġpunch": 7993,
      "Ġ2040": 7994,
      "Ġ2129": 7995,
      "ĠHaw": 7996,
      "ulated": 7997,
      "Ġblow": 7998,
      "Ġbelieves": 7999,
      "Ġwarning": 8000,
      "Ġpromise": 8001,
      "Ġlone": 8002,
      "Ġ1460": 8003,
      "style": 8004,
      "Ġ2763": 8005,
      "ILL": 8006,
      "itiz": 8007,
      "oting": 8008,
      "Ġ1898": 8009,
      "ĠPar": 8010,
      "ĠIsland": 8011,
      "Ġprovided": 8012,
      "Ġ2090": 8013,
      "Ġ2575": 8014,
      "Ġexcite": 8015,
      "Ġpaint": 8016,
      "Ġembarrassing": 8017,
      "Ġ2695": 8018,
      "Ġweeks": 8019,
      "Also": 8020,
      "Ġ2232": 8021,
      "Ġ2157": 8022,
      "Ġ2665": 8023,
      "Ġ2948": 8024,
      "Ġcreatures": 8025,
      "ethod": 8026,
      "Ġsubtitles": 8027,
      "ĠAgain": 8028,
      "low": 8029,
      "Ġ2685": 8030,
      "ĠHor": 8031,
      "Ġhorribly": 8032,
      "Ġcreates": 8033,
      "Ġfrustr": 8034,
      "ĠStreet": 8035,
      "RI": 8036,
      "ault": 8037,
      "mond": 8038,
      "âĢ": 8039,
      "Ġ2289": 8040,
      "Ġ2100": 8041,
      "Ġ2147": 8042,
      "izabeth": 8043,
      "ungle": 8044,
      "Ġsteals": 8045,
      "Ġtable": 8046,
      "ona": 8047,
      "Ġ2031": 8048,
      "Ġ2373": 8049,
      "Ġforth": 8050,
      "ura": 8051,
      "ĠChan": 8052,
      "Ġyeah": 8053,
      "Ġcompan": 8054,
      "ausible": 8055,
      "Ġ2573": 8056,
      "Ġ3000": 8057,
      "Ġsharp": 8058,
      "ĠGordon": 8059,
      "ĠMexican": 8060,
      "Ġ2264": 8061,
      "Ġstom": 8062,
      "Another": 8063,
      "Ġvehicle": 8064,
      "Ġenvironment": 8065,
      "Ġ2236": 8066,
      "Ġ2178": 8067,
      "Ġwhilst": 8068,
      "Ġ2564": 8069,
      "Ġ2796": 8070,
      "osen": 8071,
      "ĠAndy": 8072,
      "Ġrental": 8073,
      "Ġadmir": 8074,
      "ĠLouis": 8075,
      "mother": 8076,
      "ston": 8077,
      "Ġ2546": 8078,
      "ĠTHIS": 8079,
      "Ġ2201": 8080,
      "758": 8081,
      "ogether": 8082,
      "ker": 8083,
      "Ġ2049": 8084,
      "Ġ2592": 8085,
      "Ġanime": 8086,
      "ĠSund": 8087,
      "Ġchurch": 8088,
      "outhern": 8089,
      "acre": 8090,
      "Ġproduce": 8091,
      "Ġcrack": 8092,
      "Ġestabl": 8093,
      "Ġessentially": 8094,
      "ifornia": 8095,
      "Ġfreedom": 8096,
      "ĠTurn": 8097,
      "Ġ2287": 8098,
      "Ġ2633": 8099,
      "ĠCle": 8100,
      "143": 8101,
      "Ġextraord": 8102,
      "ym": 8103,
      "Ġ2263": 8104,
      "Ġ2270": 8105,
      "ĠGene": 8106,
      "Ġnaive": 8107,
      "__": 8108,
      "Ġ2453": 8109,
      "0092": 8110,
      "dim": 8111,
      "ĠRam": 8112,
      "osition": 8113,
      "reek": 8114,
      "Ġpainfully": 8115,
      "oly": 8116,
      "Ġ2187": 8117,
      "Ġ2478": 8118,
      "Ġ2624": 8119,
      "Ġplans": 8120,
      "Ġnormally": 8121,
      "Ġ2150": 8122,
      "Ġ2719": 8123,
      "ĠKenn": 8124,
      "Ġviewed": 8125,
      "Ġreput": 8126,
      "aturday": 8127,
      "Ġexpression": 8128,
      "ĠLaure": 8129,
      "ued": 8130,
      "Ġ2394": 8131,
      "Ġspin": 8132,
      "Ġsnow": 8133,
      "Ġbre": 8134,
      "Ġ2220": 8135,
      "Ġ2124": 8136,
      "Ġ2384": 8137,
      "Ġ2618": 8138,
      "Ġvan": 8139,
      "fortunate": 8140,
      "Ġexcited": 8141,
      "hard": 8142,
      "Ġtem": 8143,
      "Ġfare": 8144,
      "Ġ2250": 8145,
      "Ġ2257": 8146,
      "Ġ2566": 8147,
      "Ġ2795": 8148,
      "ĠMin": 8149,
      "Ġsyn": 8150,
      "Ġshocked": 8151,
      "Ġ1640": 8152,
      "Ġ2678": 8153,
      "Ġ2806": 8154,
      "154": 8155,
      "ĠKu": 8156,
      "asses": 8157,
      "Fi": 8158,
      "oir": 8159,
      "otion": 8160,
      "Ġ1911": 8161,
      "Ġ2354": 8162,
      "Ġ2717": 8163,
      "755": 8164,
      "zo": 8165,
      "Ġdu": 8166,
      "Ġ2081": 8167,
      "urity": 8168,
      "viously": 8169,
      "ĠPlus": 8170,
      "Ġqualities": 8171,
      "Ġ2120": 8172,
      "Ġ2358": 8173,
      "082": 8174,
      "Ġlesbian": 8175,
      "horror": 8176,
      "Ġ2725": 8177,
      "egr": 8178,
      "Ġ2118": 8179,
      "Ġ2534": 8180,
      "Ġ2709": 8181,
      "Ġ2705": 8182,
      "Ġconsequ": 8183,
      "Ġaccomp": 8184,
      "Ġlargely": 8185,
      "Ġinspir": 8186,
      "interesting": 8187,
      "Ġvirtually": 8188,
      "oard": 8189,
      "enstein": 8190,
      "ĠCount": 8191,
      "Ġtechnology": 8192,
      "Ġdollars": 8193,
      "Ġamateurish": 8194,
      "Ġsource": 8195,
      "usi": 8196,
      "Ġ2673": 8197,
      "Ġ2674": 8198,
      "eter": 8199,
      "ĠOld": 8200,
      "Ġwhenever": 8201,
      "ĠGuy": 8202,
      "Ġcab": 8203,
      "Ġpal": 8204,
      "Ġ2663": 8205,
      "Ġ2622": 8206,
      "Ġ2635": 8207,
      "088": 8208,
      "ĠFer": 8209,
      "Ġinvolve": 8210,
      "hett": 8211,
      "Ġ2403": 8212,
      "Ġ2694": 8213,
      "Ġ2788": 8214,
      "Ġterm": 8215,
      "Ġbringing": 8216,
      "From": 8217,
      "Ġ2177": 8218,
      "Ġ2156": 8219,
      "ĠAdd": 8220,
      "Ġscar": 8221,
      "Ġzero": 8222,
      "Ġwalks": 8223,
      "eds": 8224,
      "Ġ2237": 8225,
      "Ġ2436": 8226,
      "Ġ2610": 8227,
      "ĠLA": 8228,
      "Ġtrick": 8229,
      "Ġpurch": 8230,
      "079": 8231,
      "icit": 8232,
      "ĠIre": 8233,
      "Ġ1891": 8234,
      "Ġ2653": 8235,
      "Ġ2896": 8236,
      "oppy": 8237,
      "Ġ2272": 8238,
      "ĠCinem": 8239,
      "ulp": 8240,
      "Ġcorny": 8241,
      "Ġdelightful": 8242,
      "ĠChaplin": 8243,
      "Ġ1758": 8244,
      "Ġ2386": 8245,
      "Ġ2817": 8246,
      "ĠLong": 8247,
      "Ġladies": 8248,
      "Ġ2855": 8249,
      "icted": 8250,
      "Ġlucky": 8251,
      "Ġdisgusting": 8252,
      "Ġ2231": 8253,
      "Ġ2818": 8254,
      "raction": 8255,
      "Ġ1458": 8256,
      "Ġappropriate": 8257,
      "Ġ2207": 8258,
      "Ġendless": 8259,
      "ĠUnd": 8260,
      "Ġstopped": 8261,
      "Ġgratuitous": 8262,
      "erie": 8263,
      "Ġ1361": 8264,
      "Ġ2843": 8265,
      "Ġ2944": 8266,
      "Ġexecution": 8267,
      "Ġ2683": 8268,
      "Ġtheatrical": 8269,
      "Ġtill": 8270,
      "Ġ2284": 8271,
      "Ġ2577": 8272,
      "Ġ2715": 8273,
      "Ġuncle": 8274,
      "iger": 8275,
      "Ġlosing": 8276,
      "Ġ2524": 8277,
      "Ġ2623": 8278,
      "olen": 8279,
      "Ġmatters": 8280,
      "Ġcaused": 8281,
      "gon": 8282,
      "Ġ2307": 8283,
      "Ġ2377": 8284,
      "Ġ2523": 8285,
      "Ġ2565": 8286,
      "ĠKore": 8287,
      "ĠBrad": 8288,
      "Ġlearns": 8289,
      "Ġinevit": 8290,
      "Ġ2239": 8291,
      "ĠAp": 8292,
      "Ġspends": 8293,
      "ocal": 8294,
      "Ġcurious": 8295,
      "Ġ2158": 8296,
      "Ġ2309": 8297,
      "rix": 8298,
      "ĠMiche": 8299,
      "Ġuncom": 8300,
      "Ġmyth": 8301,
      "Ġtwisted": 8302,
      "Ġscreaming": 8303,
      "col": 8304,
      "ingu": 8305,
      "Ġharsh": 8306,
      "lear": 8307,
      "Ġ2584": 8308,
      "Ġ2735": 8309,
      "ĠSH": 8310,
      "ĠComm": 8311,
      "ĠPac": 8312,
      "semble": 8313,
      "ĠCaptain": 8314,
      "cret": 8315,
      "Ġmask": 8316,
      "Ġ2132": 8317,
      "Ġ2646": 8318,
      "ĠMil": 8319,
      "ĠWilson": 8320,
      "Ġ2464": 8321,
      "orting": 8322,
      "Ġcrash": 8323,
      "ĠThank": 8324,
      "Ġcenter": 8325,
      "Ġpleasant": 8326,
      "Ġroutine": 8327,
      "Ġblonde": 8328,
      "Ġpan": 8329,
      "Ġ2924": 8330,
      "Ġdisp": 8331,
      "Ġages": 8332,
      "Ġsurface": 8333,
      "Ġfict": 8334,
      "Ġ2050": 8335,
      "Ġhearing": 8336,
      "Ġ2466": 8337,
      "Ġ2628": 8338,
      "Ġ2812": 8339,
      "Ġ2823": 8340,
      "Ġlift": 8341,
      "078": 8342,
      "Ġdress": 8343,
      "Ġ2204": 8344,
      "Ġ2170": 8345,
      "Ġ3163": 8346,
      "iano": 8347,
      "ĠRoger": 8348,
      "Ġsegment": 8349,
      "zed": 8350,
      "Ġ1936": 8351,
      "Ġlie": 8352,
      "ĠCost": 8353,
      "Ġquir": 8354,
      "ĠKeaton": 8355,
      "Ġrevolution": 8356,
      "Ġexperienced": 8357,
      "762": 8358,
      "ĠLook": 8359,
      "Ġstrongly": 8360,
      "lynn": 8361,
      "Pl": 8362,
      "Ġlink": 8363,
      "Ġlands": 8364,
      "Ġ)": 8365,
      "Ġ2286": 8366,
      "Ġ2470": 8367,
      "Ġ2814": 8368,
      "Ġalco": 8369,
      "ENT": 8370,
      "Ġerotic": 8371,
      "Ġhol": 8372,
      "Ġdrop": 8373,
      "Ġ2279": 8374,
      "Ġ2247": 8375,
      "Ġ2252": 8376,
      "Ġhey": 8377,
      "Ġ2611": 8378,
      "Ġ2744": 8379,
      "Ġ2743": 8380,
      "upt": 8381,
      "086": 8382,
      "Ġunfortunate": 8383,
      "Ġexperiences": 8384,
      "written": 8385,
      "ĠWoody": 8386,
      "whel": 8387,
      "Ġ2868": 8388,
      "Ġshark": 8389,
      "ĠRen": 8390,
      "Ġpregn": 8391,
      "Ġholding": 8392,
      "Ġspeaks": 8393,
      "fire": 8394,
      "Ġ1842": 8395,
      "104": 8396,
      "Ġmakeup": 8397,
      "Ġreviewer": 8398,
      "Ġhomosexual": 8399,
      "ĠAcademy": 8400,
      "after": 8401,
      "enced": 8402,
      "Ġlousy": 8403,
      "Ġ2352": 8404,
      "ĠJess": 8405,
      "Ġexcitement": 8406,
      "Ġfits": 8407,
      "Ġrece": 8408,
      "Ġ2833": 8409,
      "Ġprice": 8410,
      "phas": 8411,
      "Ġportraying": 8412,
      "Ġfeatured": 8413,
      "ube": 8414,
      "Ġ2522": 8415,
      "103": 8416,
      "ĠDian": 8417,
      "085": 8418,
      "Ġconvey": 8419,
      "ait": 8420,
      "den": 8421,
      "Ġ2180": 8422,
      "Ġruined": 8423,
      "Ġsubstance": 8424,
      "Ġcas": 8425,
      "Ġ1854": 8426,
      "Ġ2103": 8427,
      "Ġ2130": 8428,
      "Ġ2724": 8429,
      "mented": 8430,
      "935": 8431,
      "):": 8432,
      "inated": 8433,
      "Ġ2146": 8434,
      "Ġ2434": 8435,
      "Ġ2798": 8436,
      "Ġ2722": 8437,
      "108": 8438,
      "alloween": 8439,
      "Ġpractically": 8440,
      "inging": 8441,
      "Ġ2171": 8442,
      "Ġ2361": 8443,
      "aming": 8444,
      "ĠUp": 8445,
      "Ġfrankly": 8446,
      "buster": 8447,
      "ipped": 8448,
      "ora": 8449,
      "Ġ2149": 8450,
      "Ġ2596": 8451,
      "Ġ2911": 8452,
      "Ġ3024": 8453,
      "106": 8454,
      "apping": 8455,
      "Ġdeaths": 8456,
      "cil": 8457,
      "ients": 8458,
      "Ġ2360": 8459,
      "100": 8460,
      "ĠCat": 8461,
      "Ġrules": 8462,
      "Ġende": 8463,
      "Ġcosts": 8464,
      "ĠUSA": 8465,
      "aves": 8466,
      "Ġ2240": 8467,
      "Ġ2615": 8468,
      "Ġ2745": 8469,
      "ĠRoman": 8470,
      "748": 8471,
      "ĠHarris": 8472,
      "Ġfalse": 8473,
      "othy": 8474,
      "Ġ2041": 8475,
      "Ġ2291": 8476,
      "Ġ2704": 8477,
      "ĠCast": 8478,
      "ressive": 8479,
      "Ġfactor": 8480,
      "Ġtraditional": 8481,
      "Ġ2372": 8482,
      "Ġ2586": 8483,
      "ĠSal": 8484,
      "ĠSun": 8485,
      "763": 8486,
      "igg": 8487,
      "Ġrealizes": 8488,
      "Ġbelieved": 8489,
      "ĠAnna": 8490,
      "Ġwalked": 8491,
      "Ġdepicted": 8492,
      "cies": 8493,
      "Ġ2422": 8494,
      "Ġ2322": 8495,
      "Ġ2728": 8496,
      "Ġ3007": 8497,
      "Ġarrest": 8498,
      "Ġrelatively": 8499,
      "ya": 8500,
      "Ġ2167": 8501,
      "Ġ2472": 8502,
      "ĠHope": 8503,
      "ĠWhe": 8504,
      "agal": 8505,
      "hens": 8506,
      "Ġcommitted": 8507,
      "Ġpropaganda": 8508,
      "Ġwedding": 8509,
      "Ġ2463": 8510,
      "Ġ2955": 8511,
      "Ġvoices": 8512,
      "Ġentertained": 8513,
      "equ": 8514,
      "ule": 8515,
      "oub": 8516,
      "Ġdirty": 8517,
      "Ġ2325": 8518,
      "Ġancient": 8519,
      "Ġ3116": 8520,
      "ĠLeon": 8521,
      "ĠJackie": 8522,
      "Ġfootball": 8523,
      "ĠBroad": 8524,
      "Ġconversation": 8525,
      "Ġpraise": 8526,
      "Ġ2339": 8527,
      "Ġ2692": 8528,
      "Ġ2711": 8529,
      "145": 8530,
      "ĠNic": 8531,
      "Ġpoign": 8532,
      "Ġidiot": 8533,
      "fest": 8534,
      "Ġ2815": 8535,
      "Ġhack": 8536,
      "ĠBor": 8537,
      "ĠStates": 8538,
      "Ġpulls": 8539,
      "ae": 8540,
      "gun": 8541,
      "Ġrevel": 8542,
      "Ġ2499": 8543,
      "Ġ2898": 8544,
      "ĠHit": 8545,
      "atching": 8546,
      "Ġpursu": 8547,
      "ĠAustralian": 8548,
      "Ġmultiple": 8549,
      "van": 8550,
      "za": 8551,
      "chan": 8552,
      "Ġ2935": 8553,
      "Ġ2702": 8554,
      "Ġwear": 8555,
      "Ġevening": 8556,
      "ĠIndia": 8557,
      "Ġ2169": 8558,
      "Ġ2713": 8559,
      "Ġ2765": 8560,
      "Â´": 8561,
      "Ġ2261": 8562,
      "ĠVER": 8563,
      "Ġversions": 8564,
      "Ġ2465": 8565,
      "Ġ2438": 8566,
      "Ġ2331": 8567,
      "Ġasleep": 8568,
      "ĠUK": 8569,
      "bit": 8570,
      "orig": 8571,
      "ioned": 8572,
      "Ġ2664": 8573,
      "Ġ2824": 8574,
      "Ġsupernatural": 8575,
      "Ġsuffers": 8576,
      "BO": 8577,
      "ĠRem": 8578,
      "Ġenemy": 8579,
      "ĠUnited": 8580,
      "Ġpa": 8581,
      "Ġclue": 8582,
      "Ġideal": 8583,
      "Ġ2238": 8584,
      "Ġ2182": 8585,
      "coming": 8586,
      "Ġ2686": 8587,
      "idence": 8588,
      "iffer": 8589,
      "754": 8590,
      "793": 8591,
      "atty": 8592,
      "ĠDoes": 8593,
      "ĠCalifornia": 8594,
      "ĠPresident": 8595,
      "ato": 8596,
      "Ġbeach": 8597,
      "Ġ2127": 8598,
      "Ġforgettable": 8599,
      "725": 8600,
      "Ġhandled": 8601,
      "Ġpromising": 8602,
      "ipping": 8603,
      "Man": 8604,
      "arning": 8605,
      "Ġ2087": 8606,
      "ĠTHAT": 8607,
      "Ġdescript": 8608,
      "Ġcriticism": 8609,
      "loyd": 8610,
      "Ġbond": 8611,
      "Ġpuzz": 8612,
      "Ġ2338": 8613,
      "amous": 8614,
      "102": 8615,
      "093": 8616,
      "744": 8617,
      "ranch": 8618,
      "Ġcommand": 8619,
      "Like": 8620,
      "VE": 8621,
      "Ġ2230": 8622,
      "ada": 8623,
      "Ġ2459": 8624,
      "Ġ2655": 8625,
      "Ġreminis": 8626,
      "uclear": 8627,
      "Ġdemonstr": 8628,
      "Ġpaced": 8629,
      "Ġ1730": 8630,
      "Ġ2367": 8631,
      "Ġtouches": 8632,
      "Ġstructure": 8633,
      "asant": 8634,
      "Ġ1853": 8635,
      "Ġ2933": 8636,
      "735": 8637,
      "Ġdestroyed": 8638,
      "Ġlatest": 8639,
      "Des": 8640,
      "kind": 8641,
      "itious": 8642,
      "Ġ2582": 8643,
      "109": 8644,
      "Ġdecl": 8645,
      "ummer": 8646,
      "Ġunfor": 8647,
      "ĠQueen": 8648,
      "Ġprior": 8649,
      "Ġ1895": 8650,
      "Ġ2437": 8651,
      "Ġ2347": 8652,
      "Ġ2542": 8653,
      "094": 8654,
      "ĠEvil": 8655,
      "Ġoffensive": 8656,
      "Ġcommit": 8657,
      "Ġcutting": 8658,
      "ĠNazi": 8659,
      "Ġ2913": 8660,
      "Ġ2918": 8661,
      "Ġvague": 8662,
      "Ġpresents": 8663,
      "Ġ2458": 8664,
      "Ġ2625": 8665,
      "Ġ2979": 8666,
      "Ġexagger": 8667,
      "udic": 8668,
      "Ġrough": 8669,
      "ĠJohnson": 8670,
      "Ġclaims": 8671,
      "Ġabr": 8672,
      "Ġ2517": 8673,
      "ĠSk": 8674,
      "ĠLady": 8675,
      "Ġflesh": 8676,
      "aze": 8677,
      "Ġ2356": 8678,
      "Ġ3196": 8679,
      "ĠEdward": 8680,
      "Ġunconvin": 8681,
      "Ġ1660": 8682,
      "Ġ2142": 8683,
      "Ġ2312": 8684,
      "Ġcontemporary": 8685,
      "umbling": 8686,
      "Ġinfluence": 8687,
      "Ġinner": 8688,
      "Ġ2140": 8689,
      "ĠMass": 8690,
      "ĠHaving": 8691,
      "943": 8692,
      "Ġdriver": 8693,
      "Ġsensitive": 8694,
      "fall": 8695,
      "Ġ1670": 8696,
      "Ġ1650": 8697,
      "Ġhen": 8698,
      "olph": 8699,
      "Ġabuse": 8700,
      "ĠNichol": 8701,
      "ĠKim": 8702,
      "Ġstatement": 8703,
      "Ġdubbed": 8704,
      "Ġ2200": 8705,
      "Ġacqu": 8706,
      "Ġstayed": 8707,
      "Ġcust": 8708,
      "Ġ2576": 8709,
      "Ġ2688": 8710,
      "Ġjail": 8711,
      "Ġperformed": 8712,
      "Ġdevice": 8713,
      "enge": 8714,
      "Ġfestival": 8715,
      "Ġ2484": 8716,
      "Ġ2480": 8717,
      "Ġrepet": 8718,
      "Ġvariety": 8719,
      "Ġstereotypical": 8720,
      "ĠBarbara": 8721,
      "Ġgentle": 8722,
      "Ġ2052": 8723,
      "Ġ2191": 8724,
      "Ġ2578": 8725,
      "Ġ2892": 8726,
      "Ġ2963": 8727,
      "Ġdisag": 8728,
      "Ġcostume": 8729,
      "Ġmovement": 8730,
      "Ġveteran": 8731,
      "gie": 8732,
      "pent": 8733,
      "het": 8734,
      "Ġmethod": 8735,
      "Ġ2487": 8736,
      "etime": 8737,
      "seud": 8738,
      "Ġchosen": 8739,
      "095": 8740,
      "Ġdefe": 8741,
      "Ġspark": 8742,
      "ĠMcG": 8743,
      "Ġsuspenseful": 8744,
      "uty": 8745,
      "Ġ1748": 8746,
      "Ġ2334": 8747,
      "ams": 8748,
      "Ġ3198": 8749,
      "onda": 8750,
      "Ġcontrovers": 8751,
      "Ġdinner": 8752,
      "!),": 8753,
      "ION": 8754,
      "och": 8755,
      "Ġsche": 8756,
      "ĠRick": 8757,
      "zil": 8758,
      "Ġu": 8759,
      "Ġfish": 8760,
      "Ġ2350": 8761,
      "Ġ2805": 8762,
      "Ġenter": 8763,
      "atherine": 8764,
      "Ġcomplain": 8765,
      "Ġreligion": 8766,
      "ĠActually": 8767,
      "taking": 8768,
      "Ġcook": 8769,
      "uther": 8770,
      "Ġ2297": 8771,
      "Ġ2260": 8772,
      "Ġ2281": 8773,
      "Ġ2144": 8774,
      "Ġ2424": 8775,
      "Ġ2369": 8776,
      "Ġ2588": 8777,
      "Ġ2925": 8778,
      "Ġlog": 8779,
      "Ġserves": 8780,
      "Ġtap": 8781,
      "ĠTO": 8782,
      "Ġ2404": 8783,
      "Ġshut": 8784,
      "pper": 8785,
      "new": 8786,
      "Ġreporter": 8787,
      "ĠVietnam": 8788,
      "including": 8789,
      "Ġ2590": 8790,
      "Ġ1989": 8791,
      "Ġ2071": 8792,
      "Ġ2351": 8793,
      "ĠAre": 8794,
      "ĠAra": 8795,
      "ĠFBI": 8796,
      "965": 8797,
      "Ġappealing": 8798,
      "Ġsuffer": 8799,
      "ĠCanadian": 8800,
      "Ġweapons": 8801,
      "Ġbothered": 8802,
      "Le": 8803,
      "breaking": 8804,
      "Ġcore": 8805,
      "Ġharm": 8806,
      "Ġ1703": 8807,
      "ĠTed": 8808,
      "Ġ2161": 8809,
      "Ġheck": 8810,
      "Ġ2445": 8811,
      "Ġ2446": 8812,
      "115": 8813,
      "Ġ1554": 8814,
      "Ġbitter": 8815,
      "ĠGermany": 8816,
      "ĠIrish": 8817,
      "Ġwound": 8818,
      "onel": 8819,
      "Ġ2462": 8820,
      "Ġ2399": 8821,
      "ĠHill": 8822,
      "Ġoverlook": 8823,
      "Ġcamer": 8824,
      "Ġworthwhile": 8825,
      "ugos": 8826,
      "Ġconvince": 8827,
      "Ġhanging": 8828,
      "atically": 8829,
      "Ġrise": 8830,
      "Ġdirectly": 8831,
      "Ġpartic": 8832,
      "airs": 8833,
      "UR": 8834,
      "rees": 8835,
      "Ġ2262": 8836,
      "Ġ2477": 8837,
      "story": 8838,
      "Ġ2381": 8839,
      "Ġ2527": 8840,
      "ems": 8841,
      "ĠKarl": 8842,
      "Ġangles": 8843,
      "ĠclichÃ©d": 8844,
      "ĠPrince": 8845,
      "Ġfrightening": 8846,
      "Ġabandoned": 8847,
      "Ġ2290": 8848,
      "Ġ2657": 8849,
      "ethe": 8850,
      "Ġ2712": 8851,
      "ille": 8852,
      "Ġunc": 8853,
      "Ġarms": 8854,
      "Ġtrapped": 8855,
      "ĠJimmy": 8856,
      "orb": 8857,
      "Ġdynam": 8858,
      "Ġreject": 8859,
      "Ġstolen": 8860,
      "Ġ2507": 8861,
      "Ġ2560": 8862,
      "Ġscale": 8863,
      "Ġoutrage": 8864,
      "Ġcontact": 8865,
      "Ġbound": 8866,
      "Ġ1889": 8867,
      "Ġ1982": 8868,
      "Ġ2181": 8869,
      "Ġ2429": 8870,
      "Ġ2714": 8871,
      "165": 8872,
      "753": 8873,
      "Ġincident": 8874,
      "Ġpolitics": 8875,
      "Ġ2431": 8876,
      "Ġ2751": 8877,
      "Ġposition": 8878,
      "Ġconvinced": 8879,
      "Ġsurviv": 8880,
      "ĠElizabeth": 8881,
      "Ġ2601": 8882,
      "Ġworry": 8883,
      "Ġneat": 8884,
      "Ġfocuses": 8885,
      "Ġremotely": 8886,
      "ffe": 8887,
      "Ġpity": 8888,
      "Ġ2593": 8889,
      "Ġ2792": 8890,
      "ĠSimon": 8891,
      "Ġinitial": 8892,
      "iner": 8893,
      "Ġtoler": 8894,
      "Ġ1759": 8895,
      "Ġguilty": 8896,
      "Ġsympathy": 8897,
      "Ġ2693": 8898,
      "Ġ2746": 8899,
      "Ġsemi": 8900,
      "Ġgreater": 8901,
      "Ġvisually": 8902,
      "Ġcloser": 8903,
      "Ġcrying": 8904,
      "ĠApparently": 8905,
      "Ġdegree": 8906,
      "vo": 8907,
      "Ġ2604": 8908,
      "Ġ2974": 8909,
      "Ġ3078": 8910,
      "Ġguard": 8911,
      "Ġevol": 8912,
      "Ġ2706": 8913,
      "Ġ3268": 8914,
      "Ġeverywhere": 8915,
      "ĠMorgan": 8916,
      "Ġstatus": 8917,
      "finitely": 8918,
      "Ġ2589": 8919,
      "Ġ2607": 8920,
      "Ġ2807": 8921,
      "Ġspite": 8922,
      "Ġrival": 8923,
      "Ġlegendary": 8924,
      "ked": 8925,
      "Ġpile": 8926,
      "Ġ2400": 8927,
      "Ġ2513": 8928,
      "unning": 8929,
      "188": 8930,
      "Ġminds": 8931,
      "ĠClark": 8932,
      "Ġassum": 8933,
      "Ġreveal": 8934,
      "car": 8935,
      "Ġanger": 8936,
      "agney": 8937,
      "Ġunse": 8938,
      "ĠZomb": 8939,
      "Ġprivate": 8940,
      "Ġspoilers": 8941,
      "Ġarrives": 8942,
      "oiled": 8943,
      "ĠFriday": 8944,
      "ĠEach": 8945,
      "avily": 8946,
      "Ġskip": 8947,
      "Ġ1947": 8948,
      "ira": 8949,
      "ĠHong": 8950,
      "Ġconcent": 8951,
      "Ġgoofy": 8952,
      "tes": 8953,
      "Ġ2254": 8954,
      "Ġ2337": 8955,
      "Ġ2666": 8956,
      "Ġ2886": 8957,
      "Ġ2742": 8958,
      "iday": 8959,
      "193": 8960,
      "Ġpolic": 8961,
      "ĠBrand": 8962,
      "Ġreputation": 8963,
      "ĠBell": 8964,
      "ĠEnd": 8965,
      "Ġ2516": 8966,
      "Ġ2648": 8967,
      "195": 8968,
      "ĠFlynn": 8969,
      "Ġinterviews": 8970,
      "Ġfix": 8971,
      "Ġbab": 8972,
      "Ġ2282": 8973,
      "Ġ2608": 8974,
      "Ġ2893": 8975,
      "Ġ2912": 8976,
      "Ġ2998": 8977,
      "ĠChuck": 8978,
      "Ġmurderer": 8979,
      "Ġrequired": 8980,
      "Ġenthusi": 8981,
      "hib": 8982,
      "iat": 8983,
      "rehens": 8984,
      "Ġ2069": 8985,
      "Ġ2308": 8986,
      "Ġ2614": 8987,
      "Ġadop": 8988,
      "ĠAsh": 8989,
      "ĠBefore": 8990,
      "Ġdriven": 8991,
      "ĠCarol": 8992,
      "ĠVincent": 8993,
      "Ġboot": 8994,
      "Ġ3065": 8995,
      "Ġgritty": 8996,
      "Ġemphas": 8997,
      "Ġaccents": 8998,
      "ĠComp": 8999,
      "Ġmelodrama": 9000,
      "IM": 9001,
      "fun": 9002,
      "Ġisol": 9003,
      "Ġ1762": 9004,
      "ulate": 9005,
      "756": 9006,
      "Ġfarm": 9007,
      "Ġpreviously": 9008,
      "Ġaccidentally": 9009,
      "ĠTor": 9010,
      "Ġ2402": 9011,
      "Ġ2474": 9012,
      "Ġ2300": 9013,
      "Ġ2863": 9014,
      "Ġ2822": 9015,
      "Ġ2766": 9016,
      "Ġash": 9017,
      "die": 9018,
      "sub": 9019,
      "uted": 9020,
      "Ġexcess": 9021,
      "oster": 9022,
      "Ġraised": 9023,
      "Ġcaptures": 9024,
      "Ġhired": 9025,
      "Ġ2061": 9026,
      "Ġ2258": 9027,
      "Ġ2520": 9028,
      "Ġ2616": 9029,
      "Ġ2698": 9030,
      "Ġ2684": 9031,
      "Ġ2634": 9032,
      "Ġhaunting": 9033,
      "iform": 9034,
      "Ġcourage": 9035,
      "Ġsurprises": 9036,
      "Ġfigured": 9037,
      "Ġ2370": 9038,
      "Ġ2595": 9039,
      "Ġ2558": 9040,
      "153": 9041,
      "ĠReally": 9042,
      "Ġimprove": 9043,
      "ilogy": 9044,
      "Ġ2784": 9045,
      "ĠLloyd": 9046,
      "ĠNE": 9047,
      "Ġmans": 9048,
      "ĠKate": 9049,
      "Ġmainstream": 9050,
      "IR": 9051,
      "onest": 9052,
      "Ġ2280": 9053,
      "Ġ2329": 9054,
      "Ġ2543": 9055,
      "Ġ2559": 9056,
      "Ġchoices": 9057,
      "Ġatro": 9058,
      "Ġscenario": 9059,
      "Ġfunnier": 9060,
      "ĠHelen": 9061,
      "fess": 9062,
      "Ġ2034": 9063,
      "ĠSaturday": 9064,
      "Ġ3328": 9065,
      "Ġdeeper": 9066,
      "Ġrecognize": 9067,
      "Ġservice": 9068,
      "Ġwitch": 9069,
      "Ġbesides": 9070,
      "Ġ2776": 9071,
      "Ġ3013": 9072,
      "ĠWr": 9073,
      "Ġnostal": 9074,
      "ĠJewish": 9075,
      "inspired": 9076,
      "Ġ2450": 9077,
      "Ġ2320": 9078,
      "ĠALL": 9079,
      "ĠAlbert": 9080,
      "Ġrights": 9081,
      "ĠWarner": 9082,
      "ĠEspecially": 9083,
      "Ġconcert": 9084,
      "\").": 9085,
      "inals": 9086,
      "Ġ2442": 9087,
      "Ġ2641": 9088,
      "105": 9089,
      "117": 9090,
      "Ġcategory": 9091,
      "Ġain": 9092,
      "inge": 9093,
      "Ġ1704": 9094,
      "Ġ2581": 9095,
      "Ġsitcom": 9096,
      "ba": 9097,
      "Ġ2267": 9098,
      "Ġ2259": 9099,
      "Ġ2342": 9100,
      "Ġ2667": 9101,
      "Ġ2779": 9102,
      "Ġsection": 9103,
      "ashington": 9104,
      "Ġdrinking": 9105,
      "Ġice": 9106,
      "752": 9107,
      "Ġcomplicated": 9108,
      "Ġgraph": 9109,
      "Ġdivor": 9110,
      "Am": 9111,
      "jud": 9112,
      "Ġ2992": 9113,
      "Ġ2768": 9114,
      "ĠJoseph": 9115,
      "wen": 9116,
      "Ġ2973": 9117,
      "Ġ2738": 9118,
      "ĠMeanwhile": 9119,
      "ĠCH": 9120,
      "096": 9121,
      "Ġsorts": 9122,
      "ĠDonald": 9123,
      "Ġcovered": 9124,
      ",'": 9125,
      "Ġ2241": 9126,
      "Ġ2357": 9127,
      "Ġ2691": 9128,
      "Ġ3143": 9129,
      "Ġobsessed": 9130,
      "ĠJesus": 9131,
      "ĠVERY": 9132,
      "gia": 9133,
      "walk": 9134,
      "Ġludic": 9135,
      "Ġheavily": 9136,
      "Ġ2476": 9137,
      "Ġ2571": 9138,
      "Ġ2530": 9139,
      "Ġ2828": 9140,
      "ĠPowell": 9141,
      "plays": 9142,
      "igned": 9143,
      "Ġamazed": 9144,
      "Ġsophistic": 9145,
      "iving": 9146,
      "atra": 9147,
      "ĠAst": 9148,
      "Ġvast": 9149,
      "Ġexplains": 9150,
      "Ġ1782": 9151,
      "Ġ2549": 9152,
      "Ġ2636": 9153,
      "Ġ2819": 9154,
      "Ġ2914": 9155,
      "Ġchose": 9156,
      "inking": 9157,
      "dimensional": 9158,
      "Ġgar": 9159,
      "Ġ1714": 9160,
      "Ġ2923": 9161,
      "Ġ2729": 9162,
      "ĠSon": 9163,
      "ĠKat": 9164,
      "ĠRoberts": 9165,
      "Ġsne": 9166,
      "Ġ2983": 9167,
      "Ġ3335": 9168,
      "ĠCooper": 9169,
      "Ġdogs": 9170,
      "osity": 9171,
      "ĠKill": 9172,
      "assion": 9173,
      "Ġfavorites": 9174,
      "Ġcaptiv": 9175,
      "Ġquirky": 9176,
      "Is": 9177,
      "lig": 9178,
      "Ġ2042": 9179,
      "Ġ2271": 9180,
      "Ġ2853": 9181,
      "Ġ2862": 9182,
      "Ġ2700": 9183,
      "Ġ2730": 9184,
      "Ġ3035": 9185,
      "ĠSup": 9186,
      "Ġscreening": 9187,
      "Ġoccasional": 9188,
      "ĠTrek": 9189,
      "GM": 9190,
      "chen": 9191,
      "Ġ2104": 9192,
      "igr": 9193,
      "Ġobnox": 9194,
      "Ġcritical": 9195,
      "Ġdisagree": 9196,
      "etheless": 9197,
      "case": 9198,
      "omination": 9199,
      "Ġ2371": 9200,
      "Ġ2508": 9201,
      "Ġ2662": 9202,
      "Ġ2937": 9203,
      "Ġ2793": 9204,
      "asp": 9205,
      "Ġ2229": 9206,
      "Ġ2391": 9207,
      "Ġ2572": 9208,
      "Ġ2652": 9209,
      "Ġplaced": 9210,
      "Ġsheriff": 9211,
      "Ġserve": 9212,
      "iveness": 9213,
      "Ġstomach": 9214,
      "ooth": 9215,
      "rich": 9216,
      "Ġ2468": 9217,
      "Ġ2441": 9218,
      "Ġ3464": 9219,
      "Ġdecades": 9220,
      "Ġforgot": 9221,
      "Ġ2330": 9222,
      "rier": 9223,
      "Ġ3117": 9224,
      "ĠBBC": 9225,
      "Ġliber": 9226,
      "065": 9227,
      "Ġbetray": 9228,
      "nery": 9229,
      "Ġnominated": 9230,
      "Ġ2916": 9231,
      "ĠSher": 9232,
      "Ġscr": 9233,
      "Ġuninteresting": 9234,
      "ĠOb": 9235,
      "Ġsports": 9236,
      "ĠThree": 9237,
      "Ġmassive": 9238,
      "from": 9239,
      "Ġstalk": 9240,
      "Ġ2503": 9241,
      "Ġ2994": 9242,
      "Ġ2928": 9243,
      "Ġ3092": 9244,
      "Ġ3025": 9245,
      "ĠCagney": 9246,
      "Ġjeal": 9247,
      "Ġdisbelie": 9248,
      "Ġ2471": 9249,
      "idents": 9250,
      "Ġ3014": 9251,
      "ĠLand": 9252,
      "Ġdistribut": 9253,
      "Ġcampy": 9254,
      "cal": 9255,
      "Ġ1429": 9256,
      "Ġ2454": 9257,
      "Ġ2390": 9258,
      "Ġ2903": 9259,
      "Ġ2930": 9260,
      "Ġoriginality": 9261,
      "Ġlights": 9262,
      "Ġbreaking": 9263,
      "arable": 9264,
      "ĠTur": 9265,
      "Ġ2783": 9266,
      "Ġ3445": 9267,
      "Ġsubsequ": 9268,
      "ĠGrand": 9269,
      "Ġ2777": 9270,
      "118": 9271,
      "urns": 9272,
      "Ġenjoying": 9273,
      "Ġkinds": 9274,
      "Ġextras": 9275,
      "Ġchanging": 9276,
      "Ġparticip": 9277,
      "Ġbat": 9278,
      "ashy": 9279,
      "Ġ2421": 9280,
      "stone": 9281,
      "Ġ2884": 9282,
      "Ġ2919": 9283,
      "Ġdownright": 9284,
      "Ġunlikely": 9285,
      "sen": 9286,
      "Ġtiny": 9287,
      "ĠTy": 9288,
      "Ġ2362": 9289,
      "Ġ2637": 9290,
      "Ġ2964": 9291,
      "ĠWashington": 9292,
      "ĠNone": 9293,
      "nett": 9294,
      "type": 9295,
      "Ġexperiment": 9296,
      "Ġprofound": 9297,
      "Ġclosing": 9298,
      "Ġaccompan": 9299,
      "Ġ2808": 9300,
      "Ġ3079": 9301,
      "ĠMoon": 9302,
      "733": 9303,
      "Ġdistinct": 9304,
      "tim": 9305,
      "Ġfranch": 9306,
      "Ġded": 9307,
      "Ġ2425": 9308,
      "Ġ2452": 9309,
      "Ġ2990": 9310,
      "Ġ2769": 9311,
      "Ġ2757": 9312,
      "Ġ3263": 9313,
      "Ġhaunted": 9314,
      "ĠPict": 9315,
      "IGHT": 9316,
      "ĠJac": 9317,
      "ĠChannel": 9318,
      "Ġdemand": 9319,
      "By": 9320,
      "Do": 9321,
      "Ġpet": 9322,
      "lection": 9323,
      "Ġnuclear": 9324,
      "Ġ3185": 9325,
      "Ġ3344": 9326,
      "ĠWind": 9327,
      "ĠLater": 9328,
      "ĠVir": 9329,
      "Ġ2115": 9330,
      "Ġ2490": 9331,
      "Ġ2926": 9332,
      "135": 9333,
      "ĠPri": 9334,
      "Ġthrows": 9335,
      "Ġkillers": 9336,
      "ĠArt": 9337,
      "ĠAnyone": 9338,
      "Ġsucceeds": 9339,
      "Ġdepartment": 9340,
      "Ġextraordinary": 9341,
      "Ġunconvincing": 9342,
      "utch": 9343,
      "Ġ2716": 9344,
      "actic": 9345,
      "Ġwealthy": 9346,
      "722": 9347,
      "ĠFin": 9348,
      "ĠFinally": 9349,
      "ĠNY": 9350,
      "ĠThrough": 9351,
      "Ġcontinuity": 9352,
      "Ġhar": 9353,
      "Ġ2489": 9354,
      "Ġ2627": 9355,
      "Ġ2800": 9356,
      "Ġ2879": 9357,
      "Ġ2852": 9358,
      "Ġseasons": 9359,
      "743": 9360,
      "beit": 9361,
      "Ġruin": 9362,
      "ĠJulia": 9363,
      "Ġtask": 9364,
      "Ġ2591": 9365,
      "Ġ2553": 9366,
      "Ġ2759": 9367,
      "ĠWall": 9368,
      "174": 9369,
      "Ġdelivery": 9370,
      "Ġpaying": 9371,
      "ĠSadly": 9372,
      "Ġtitles": 9373,
      "Ġgre": 9374,
      "Ġ2389": 9375,
      "Ġ2341": 9376,
      "Ġ3096": 9377,
      "ĠMiller": 9378,
      "Ġflow": 9379,
      "Ġtraining": 9380,
      "Ġtong": 9381,
      "Ġ2976": 9382,
      "Ġ3205": 9383,
      "ĠHart": 9384,
      "ifies": 9385,
      "irected": 9386,
      "ronic": 9387,
      "Ġforest": 9388,
      "bal": 9389,
      "dram": 9390,
      "Ġ2440": 9391,
      "Ġ2883": 9392,
      "Ġ3594": 9393,
      "ĠMuch": 9394,
      "113": 9395,
      "ĠDep": 9396,
      "ĠFre": 9397,
      "Ġeffectively": 9398,
      "Ġcontribut": 9399,
      "ĠMexico": 9400,
      "Michael": 9401,
      "Ġhole": 9402,
      "Ġ2504": 9403,
      "Ġ2816": 9404,
      "747": 9405,
      "wor": 9406,
      "Ġmature": 9407,
      "Ġ2502": 9408,
      "Ġcharge": 9409,
      "Ġuniverse": 9410,
      "Ġuniform": 9411,
      "Ġcheer": 9412,
      "Ġnarration": 9413,
      "ĠSwed": 9414,
      "ĠSusan": 9415,
      "Ġ2482": 9416,
      "roph": 9417,
      "Ġstruggling": 9418,
      "Ġunderstood": 9419,
      "lected": 9420,
      "Ġ2469": 9421,
      "Ġ2752": 9422,
      "illion": 9423,
      "ĠAndre": 9424,
      "Ġcarries": 9425,
      "Ġformat": 9426,
      "Ġencou": 9427,
      "ĠAfrica": 9428,
      "ĠSarah": 9429,
      "ĠBroadway": 9430,
      "Ġwand": 9431,
      "Ġ1849": 9432,
      "Ġ2770": 9433,
      "Ġ3345": 9434,
      "ĠBack": 9435,
      "ĠCann": 9436,
      "Ġchuck": 9437,
      "Ġblown": 9438,
      "Ġjoin": 9439,
      "Ġfictional": 9440,
      "Ġnude": 9441,
      "ĠAvoid": 9442,
      "ĠSO": 9443,
      "112": 9444,
      "ĠYour": 9445,
      "Ġsimpl": 9446,
      "too": 9447,
      "Ġ2007": 9448,
      "Ġ2946": 9449,
      "Ġscares": 9450,
      "antage": 9451,
      "Ġexamples": 9452,
      "Ġwinner": 9453,
      "Ġprepared": 9454,
      "Ġfram": 9455,
      "Ġ2922": 9456,
      "amor": 9457,
      "Ġtiming": 9458,
      "Ġoffered": 9459,
      "Ġbuying": 9460,
      "ĠShar": 9461,
      "ĠPlay": 9462,
      "Ġnecessarily": 9463,
      "CK": 9464,
      "called": 9465,
      "Ġyell": 9466,
      "Ġ2799": 9467,
      "Ġ3075": 9468,
      "Ġ3064": 9469,
      "Ġ3195": 9470,
      "Ġcris": 9471,
      "Ġcalling": 9472,
      "Ġ2449": 9473,
      "Ġ2529": 9474,
      "Ġ2801": 9475,
      "Ġloyal": 9476,
      "ĠEnter": 9477,
      "erved": 9478,
      "Ġ2680": 9479,
      "Ġ2649": 9480,
      "Ġantic": 9481,
      "Ġ3188": 9482,
      "ĠLarry": 9483,
      "742": 9484,
      "ĠUs": 9485,
      "Ġmagical": 9486,
      "Ġ/>*": 9487,
      "Ġ2382": 9488,
      "Ġ2802": 9489,
      "Ġ2942": 9490,
      "Ġcontain": 9491,
      "iques": 9492,
      "Ġ#": 9493,
      "Ġnaturally": 9494,
      "Ġ2790": 9495,
      "Ġ3055": 9496,
      "133": 9497,
      "Ġmistakes": 9498,
      "Ġanswers": 9499,
      "Ġfab": 9500,
      "Ġinhab": 9501,
      "Ġ2532": 9502,
      "Ġ2682": 9503,
      "Ġ2804": 9504,
      "ĠCap": 9505,
      "ĠOur": 9506,
      "Ġcauses": 9507,
      "Ġdesperately": 9508,
      "Ġ2579": 9509,
      "Ġ2821": 9510,
      "Ġ2945": 9511,
      "Ġ3123": 9512,
      "983": 9513,
      "aws": 9514,
      "ĠMarie": 9515,
      "ĠSeagal": 9516,
      "Ġatrocious": 9517,
      "ouch": 9518,
      "Ġ2428": 9519,
      "Ġ2427": 9520,
      "Ġ2882": 9521,
      "Ġ2721": 9522,
      "116": 9523,
      "Ġwears": 9524,
      "Ġcontest": 9525,
      "ĠBrooks": 9526,
      "Ġcondition": 9527,
      "ĠParker": 9528,
      "Ġintellectual": 9529,
      "Ġobnoxious": 9530,
      "Ġut": 9531,
      "isher": 9532,
      "Ġ2387": 9533,
      "Ġ2826": 9534,
      "Ġ2995": 9535,
      "Ġstorytelling": 9536,
      "Ġprime": 9537,
[...]
